10111101100111000101111000001010
00111100100111111011111001010000
00111101001011011111111001010100
10111101100010000011110000100010
00111101100001101010110100011001
10111010010111010101111100000000
00111101100001011011110011000011
00111100101110011110110001100000
10111101010011000010011111000100
10111011111010010000000110100000
00111101011101101011110010101010
10111101001110100111101010111110
10111101011101000101001010011110
10111101010100000001111110101001
00111010010010111110011101010010
00111100000111110101010011011110
10111101000100110110100101111001
00111100101010010100100101111100
00111100111001000011011101010000
10111100111001001001101010000010
10111101010010011001111011111011
00111100100110010110101000101100
10111101010100100110011100101011
00111100000111001110010011100000
10111101000110001110111100110000
10111010101111001000111000000000
00111100100111111110011101111100
00111011011010011010111101100000
00111100110001101010110001011000
00111100111100111010111110100000
00111100111010000011110111110100
00111101001101010011111111110010
00111100110110011011110101101100
10111101101000011011010001001110
00111010111001100100101010100101
10111101100000010101000111000011
00111101110000101000011001111100
10111100001101100100111100111100
00111100010100110100101101011100
00111101101110011110001011000010
00111110000011000100111011111100
00111110011111010011101101001100
00111110011111000011001001001100
00111100001101100011111000100111
00111100000010110110110110100110
00111110000010001010101100010001
00111101110101110011111001000110
10111101010100111011111011010110
10111100010010111010000111100110
10111101101110001100100011101100
10111101011111101010001100111111
10111101101100111000001100010110
00111101000100111010110100111010
00111101000011011110010011011000
00111101010111111001010010010110
00111101001001001000011101000110
00111101000010011100000101000110
10111101010101010101001110101000
00111010001111010100110000000000
00111101011000100011011100110000
00111101100001000000111101010010
10111011011010100010101110110110
00111101010001011101010101010100
00111101010000110010010100010000
00111110000011111010111100011010
00111101101111011010100011011010
00111110101010101110010101000101
00111110101111101111001011001000
00111110001110110110001011111100
00111110010001000011101001010010
10111100100111110001110101001000
00111110100001100000001110011011
00111101111001100011111010111011
10111101011110011011101010100100
10111110001100001110101100111101
10111101111110010000011111100000
00111100100011011001010001111010
00111101001100111100100111001011
00111110010001011101001101111001
00111101101110000111111101010010
00111101010010111100000000100100
00111101110011010001111100010010
00111100100110010110000101001110
00111100101000000011100011110100
00111101001100011110111010101110
00111100110001010001110110111100
00111100000110101100010000101000
00111101010101011011111111100110
00111101011010001001100110101001
00111101111000111010001010000000
10111101010111110100001101110000
10111101011001011011100001001000
00111101100011000110110110100000
10111110001101000100001011111010
10111100011001000011011001001101
10111101111101010111100010111101
10111101010110111100011010010101
10111101111001100000010001101011
10111101110001111110101111010101
10111101000000111111111111101100
00111101100010101100011111011110
00111110001010000110000111111000
00111101100011100011111100011010
00111101010111010000011110000111
10111100110101111100001101011011
10111010111011010111000111100101
00111100100011111011011100101101
10111110000001000010011000101111
00111101110010110011011001101110
00111101110000000100010110001000
10111100111001101110110011100000
10111101000111100111111111001000
00111101000011001001110110111110
10111101001100011000001011010010
00111100101010100000010100011111
00111101101001011000000110000101
10111101011001110100000100000010
00111100011000000001100000110100
00111110010001100001001000001010
00111101011101001000001100111100
10111100011001101100001111001011
10111101001100000001100110110100
10111100011111111101001100110000
00111010010000011011000101011101
10111100100100110111000110111110
00111100111101011011000110001101
10111101001011111100100100100110
10111101011011010010001110111110
00111101001111111100100110110101
00111110001001101110111111111110
00111101111000001100101011111101
00111100100100111000001110101110
00111110000110111010011001011001
00111101101000010011110111111010
10111101000000111101111011100000
00111101100110001111000101100000
10111101100110000011011000000111
10111110000111010011110010101101
10111110000010111101000111100110
10111110011010010100001000111111
10111101001000011011100101000101
00111101011000010100111111111110
10111100100111101001000011110010
00111100011001100001000011110011
00111101011011010110100010111111
00111110000010101001011000100000
00111110001011101011100011011101
00111101001101010110110001000011
10111101011101011111110010100000
10111101011111001111110100001000
00111101110100010100100010111011
00111101101010000010100010110101
10111101110100010010010001111111
10111101110101010110001101111010
10111110001011101001101011000101
10111110001110111001000111101111
00111101010100111001010110101110
10111101001100010100001111111110
00111101000100111010111010001011
00111101101010011100001101001110
00111101010110111000001100101010
00111100101110000111010100101000
00111101100101000101101001011011
10111100101100011101010101100001
00111100100111000101000100101110
10111101110011001111010100100011
10111100111110100000111110000100
10111110001011011010010010100011
10111100110011011111111010001110
00111101100001010100110010100011
10111100000001100110011001100011
00111011101111000110101110011111
00111101001010011110100000001001
00111101111010100001010000100001
00111100000100101011100101111101
00111101111111110101011100010011
00111100110110100101011100100010
00111101101101101101000011000000
00111101110001110000110001000011
00111101011010101110111110101001
00111101101010110011110111001101
10111110000010100111001100111011
10111101010000100001100100010010
10111101000101101110010110110001
10111101011100101001011101101010
00111101001111001100001011000010
00111101100001001011010111000110
00111100110000011101010000100100
10111101111110101000100111101011
00111100100000000111100110110000
10111100101001101100110000010101
10111101001011011010101000110110
10111110000100100101001111111011
10111110001110101101011110001001
10111101100110100100110111110000
10111110010100110111000111011111
10111110000000001101001100001111
10111100101001011101100011100000
10111101111100011010100100001100
00111101110010000100110001100110
00111101111001000010010100010101
00111110001110101110000100010011
10111101001110010111011100001110
10111011010111000000010011010111
10111101100011100001100101001111
10111101010011010111100011101101
00111100000111001011110001110111
00111100100000101101111011110010
10111100101010111110101110100110
10111110000000110110100010011001
10111100101000101100011000000001
10111101100001111100000100110110
00111101000101111010010111111001
10111100101001111010001111110011
10111011100101000111001101001000
10111100111000111011010100110100
10111101110000110101100000001010
00111100001011111010110000010011
00111101001111000100000111000000
10111101100111001101111000110011
10111101111000011110001011110001
10111011111001010011001100100101
10111101111001101000000001101111
10111110000110011001110110101001
10111110010001001001011111001000
00111101010011101111110010011110
10111101101101110111010010110110
00111101111010101000000100110001
00111100010100111100001101000110
00111101000111110110001010000111
10111101100011001000100000010011
10111011111000111001100101001000
10111100101000100101111110010100
10111101011110101110100011010100
00111100101001011111100111101110
00111100111011100111101000000101
10111100110100001110100111001100
10111110000111001010110100000001
10111110001111110111101000101000
10111010111111000101000010111010
00111011100101100101010101000110
00111100100001101101101110010011
10111011010111010000001100100010
10111100101010001001001100110000
00111110000100110001101010101111
10111010101000011101001111011010
00111101111001000001101011011100
10111100001111110010011011111001
10111110000000010101111010101011
10111110000001011000110110011110
10111101111100111100100101100000
10111101000000011011101001001101
10111101101110001110110101101010
10111100101100100010001011101011
00111101100011101000101100000011
10111100011110110010111111110110
00111100111000101111011011100101
10111101100001101000010001101111
00111110000001000101101100101010
00111101110111001011001101111000
10111011000011111100010000000101
10111101100100001110000001001111
00111101000110001000100001001000
10111101010101110101110000010101
10111110010011110100000101001111
10111110000110111100110011101010
00111011101010000001110010011011
10111100011010101011100010110101
00111101010001110010100001100110
00111011100111010001000111110101
00111101101000100001010011111001
00111110000010111000101011110111
00111101101100000000010000101110
00111110000100111111111010000101
10111001100101101000011011101010
10111110010010111000100001000000
10111110001101010010000100101100
10111110100000000100101101110110
10111110101001100000010001100011
10111110000110011000011100011101
10111101101101001001101010000100
00111101000010001010100000101011
10111100000001010111111110111000
00111110000001001111100000001101
00111101000010101111011010100011
10111101110011101001000001111110
00111101000100010110101000101010
00111100000111011100101111100010
10111011001110010111011110101010
10111101101010111100000111001101
10111101101100011011111001111011
10111110000000111111111111010001
10111110000001111000000010011111
10111101110010010011100000010011
10111101101010110000010001111101
10111101100101111111110110110010
10111100001101110011001010001101
00111101000011101100011111010111
00111110001000100100001101011100
00111110001101110011010110010111
00111101110011010111000101000110
00111101110100111100010111011011
00111101100110111001000110110001
10111101100110110000100111011010
10111110011110000101000101100111
10111110001110111011011011000011
10111101101000011111110100000100
10111110000011001010001101111010
00111101000101110111100111001111
00111100110100100010110111000110
10111101000001100100001111110000
00111101000000000001011010111100
10111110000100110110110000111011
10111110010101100010100110001001
10111100010110001000001001011110
00111101010001110100000111100100
00111101011101101101101000100011
00111100110111001000111101110010
00111101010001101111111011000001
10111101111111000101001000111011
10111101001010010101011101010010
10111100111011000101101100110101
00111110001001100011010001000011
00111101101010001101111011110010
10111101110111001111000110000001
10111110001001101100010100100101
10111100111010001101111101100001
00111101110111010110101100010010
00111110001100000001011000000010
00111110001110010111000011111110
00111101101011101011001111000000
00111101001000000111010111100100
10111110011011001010110111010011
10111110101001000001100100000001
10111110100011001011001101001101
10111110001100101000011101011101
10111101110001011001110010101000
10111101100011001110100100010101
10111110000000111111011111110110
00111101000111000101100011000111
10111110000011011100111001010001
10111101111010010111000111000001
10111101001100101000011100101001
00111101001101010101001100101101
10111101100001100111011001110001
00111101000100100000100001100011
10111101011110000101111101010111
10111101101101011101011111011011
00111101001000010000101001011011
00111110001111000010110000010100
00111110000111001001100110000010
00111101100001111100101100011011
10111110100010011111101111100010
10111110010011111011100001010101
10111101011100101011101010100111
10111101100010100011010010111111
00111110001001100111110000100100
00111101010011111111010101111011
00111110001001001100000101001010
00111101001100001100001100011011
10111100111010010111011000101010
10111110010100000011000011110111
10111110100000011101100001001100
10111110000000111101001100110101
00111110000110011011001011011101
00111011110101011011100110010000
10111100100100011000100111100011
10111100111100111110111110011000
10111101001100011000000111101110
10111101010001100101101000011010
10111101100100111100000100111000
10111101010010011001000010010011
10111100110110110011100011000100
00111101011110001010100101001000
10111101100110010000000011010010
10111011110000110000100001100100
00111101100010100101001011000100
10111101000010010111011111011011
00111101100001011100100000110001
10111101100010011111001000000111
10111110010111101101001101011100
10111110100110001100000111000010
10111101101100011000101011110001
10111101101000001011001011000101
00111101100001001101100011101011
00111101010101010101100010110000
00111101110001010101111100000011
00111110000100111101100000010001
00111101101111100001010011011000
10111100101010000000000000011011
10111101101101000100001100011111
00111101001000100101010000011110
00111101011001000100010110100011
10111101110110101111101111100000
10111100010111010110110011011000
10111110001111101110101101101010
10111101001100100111000010011111
10111100100000010111011100001000
10111101111011111100000001101100
00111101110011010101111000110010
00111110000000100000110000101000
00111101110000010100110100000101
10111101000000100101111101000100
10111101100001010110000101001001
00111101010010101011011010011100
00111001110111100000001011111010
10111101101001110001011011111101
00111011000011000100001000010010
10111110000000010000110100110100
10111110000111110010110011000110
10111101111100110011110100100100
00111101110111000011100101100111
00111110001101110010000101111000
00111110011100101011011111110000
00111101101110001011001100010100
00111110001101100101001101101111
00111100110010011011101010100001
10111101001100011010000100001100
10111101011000110001010100001110
00111110001111111011111100001100
00111101100001101011010001010100
10111101011111010010001001111000
00111100111011000101111001011000
10111101111101110110100011001111
00111101111111011001110110111100
10111110000000111011110000001100
10111101100110101011011100000101
00111101000101111011101101000100
00111101010011100000011000010001
00111110000011100010011011000000
00111101000010101101101010100111
00111011100011000001001000011010
10111011100000010101000011011010
00111101100011101111001010010011
00111101100101100011101010001010
00111100101010111101100110011010
10111101100010011000100100101101
10111101111011010101101001011110
10111101100000011010111101010111
00111110001011101100010010000100
00111110011011011101101101101011
00111110010101100111011111101111
00111110011010111111011000011010
00111101001010000001011111101100
10111110000111001110000111100110
00111101111100001000100011110101
00111101110100001010100000000110
00111110001111111000000000100010
00111110001000110111001110011011
00111100011010001001010110110011
10111101101010000000000101110110
00111100111010101110000010001110
00111100001010000110000000000111
10111101011100111001001110101101
00111101000101101111110100000001
00111110000001001101100001100111
00111101100110010011111101000000
00111101101000011010111110111100
10111101000011010100010100100111
00111101101100000100010010101000
00111101000011100111000010110100
00111101001111110101000101100100
10111101101011110010111010001100
10111101110111011111000011110100
10111110010011110101101000101010
10111101101000110010011001000000
00111110000000110100101110001101
00111110100100000001110110100101
00111110011010100100101010101101
00111110001011101010001101001100
00111110001100011101011110011100
00111101011101011110101111000110
10111101100000101101111110010111
00111101110111100000001100011011
00111110011000111111101011010011
00111110011101010000000001011101
00111110000011110011011111111001
10111101001101111010110111110111
10111100010011100010110001110101
00111101001101000110001101001011
00111101101100011000111110110110
10111101101110111011010011100000
00111101100000010110010101000011
10111100001111100110101001010011
00111101101001011000010111010100
00111101111000001100101101000101
00111100100011101101100010110011
00111101010010001010011110101010
00111101000010101110000010101011
00111101110101100100101010011101
10111101000000000001000001101111
00111100100011101110100100011110
10111100001001000110001100111100
00111101110011001011010001101111
00111110100010101100101111110000
00111110100101110001011011000111
00111110010001100001001111100110
00111101010111110001111011101100
00111110000100001100111000000101
00111101100010111110001011101111
10111110001000100100101001010010
00111100100001000010010110101011
00111110010100100000000011100100
00111101011011001001100110001010
00111110010111101110110101100111
00111010100110010001111011100100
10111101100001001111010101001101
00111101100110110001100101111010
00111100001110101001010111010000
10111100010000010011110110110000
10111101001000011000101110011111
00111101001100011001000111101101
00111110000110111011000101001110
00111101111100111100000010011001
00111101010100010101110011011101
10111100001100100101100110110011
00111100111101001100011000011101
00111101100000010000001111010100
10111100000001101100000101000111
00111110000011000010100010011110
00111110011101100101001100010000
00111110100110110100010110000001
00111110101011000100100011100110
00111110110011110001111001101011
00111110100111001100001111111110
00111110000011000110100111111111
10111100011100110110001111111101
00111101010111101000110000001011
10111101000000101011000110111111
00111101011100010100100100011000
00111110010010011111101100100101
00111101110000101110110110101000
00111101100111010000011101001110
10111100100111110111101101100110
00111110000101100110011111001100
10111101110101010001110000001011
10111101100000001110110110011000
00111100011000010010010010000011
00111101010101111011100111110101
00111101100011001000011010101001
00111101101001111010011101011101
00111101011100100101111101110010
10111101001000101111110110010010
00111101101100111000111010110001
00111101110111000001000100000011
00111110000011101101111100010100
00111101100010001001101010000011
00111101110010010100001110111001
00111110011001101011001101010100
00111110011000001011101110111100
00111110011010010111111000010001
00111110010010111101111000011101
00111101100001111000011111111010
00111101100101000111100010111101
10111100011111001011001100000101
00111100110111110010110011011111
10111100100011010000001011100011
00111101100111100011001001111011
00111101101100110001001110011011
00111110001101100001101000100000
00111101010110010111101000001011
10111100101100110000001001000000
00111101110010000110011010011010
00111101111010001111110100000100
00111110000010011010000101001101
00111101100100010100100010101010
00111011011000000011000001010101
00111100111110000011000100010100
00111101111001110101110000010111
00111101100110101001000100100001
00111100011110100001100011010111
00111101100001101010111101110101
10111100000110000001010101101110
10111101000100000000001101001100
00111101001110001010111001011110
00111001100100010001111011001010
00111101101111110110000001000101
00111101001101110100000101110000
00111101001010111101101100010100
00111101100110001010011010010001
00111110000010001001101101100010
10111011010001111101100001011111
10111101111111111000010000101000
10111101100011010101000101010000
00111100111010111111000011101001
00111100110101110101011111101101
00111101010010100001101101010001
00111101000111110101110000010110
10111101100010110110010001100010
00111100101110100000110001110100
10111100010000001110111101100000
00111110010000111111000101010011
00111110010011110011111111101100
10111100100000011101111101111100
10111101110001101000110001010111
10111101011110100110010000101000
10111101110111000100100100011000
10111101001000111000111110000110
10111101101011001110111101110011
10111101110001011000010010111001
10111101100110101010001101001011
00111100011110111000110100011011
10111100000001010010011001011100
10111100100011100001010000100101
10111101001101101111101100011010
10111101001011000110110010000011
10111101100000011010100100101000
10111110000001111011011111111000
10111101101100001100110010111110
10111101001001000010011010101111
10111010001110101110011111110101
00111101110111100000001001110010
00111101011010011011111101111110
00111011110000100110111100011100
10111101100101111010110111101110
10111101010001010001010011111100
00111101100110001001100110111001
10111101100110101110111101001111
10111101101000111111000100111101
00111101111101010010100110111110
00111101011010010000011001010010
00111100011101111010001001010110
10111101100100011111101010101001
00111011111001100100100010110101
10111101000110010110111100011011
10111101001111111010101001011110
10111101100100100001110011010101
10111101000100100100100011110010
10111110000001101001010011100011
10111101000011011110000101100110
00111011010011111000111001001111
10111101000101001100100101101101
10111101101111001011101011110000
10111101100010000101100000100000
10111110000000101011110011100010
10111110000011001010100011011110
10111110000000000011010101111011
10111100101010001110001011111100
10111100011111110111100111111100
00111101101110111011100110110101
10111101011110101001111110111010
10111101101000000011111011001111
10111100101101110011000000001111
10111101101001111101000101101101
10111101010010100111010110001110
10111100110100011110000111011000
10111101011110100111000001001100
10111101010011000101100010111111
00111101001011101111100110011011
10111110000101000011100110101000
10111110010011111001001000101011
00111100110101000110000111100000
00111101100010100011111111110110
10111101100011010000101011001111
10111101111110000100000001000001
10111110000110010110011010100000
00111101001001001000110001111000
00111101100110110001110101100111
00111100000011010110100010111001
00111101101111011010010000001111
00111101001001101111010010010000
10111101101010110111111110001011
10111110000100111001110010001101
10111110001001000110100111100010
10111110000001111110111111010110
10111101100010110000100100001110
10111101110000101110010001000110
00111100110010011111011010001011
10111101100011000111001001000010
10111101101001001101110010011001
10111101101001000101100101001010
10111110001011000001110100000100
10111010101101001101000110000000
00111101010010111001010110101110
10111100111111110101101011011010
10111100011011000011110011100110
10111101001001101101010100101000
10111101000110101101101110100100
10111101111111000000011000111110
00111101011100010110001011111001
00111110000011011011011101101010
10111100101101110101110100010010
00111101100011100011110000001100
10111101001000000101101100110100
10111101101110110000111001010011
10111100110001000101000010001011
10111101101111111010001001110011
00111100001100010011010010110101
10111101101000111110100101000011
10111101101000111000110111101100
10111101100110010110111100001011
10111101010011110010111110010000
10111110000110101111100111110010
10111101111001000001010001011111
10111101100011010111001101000011
00111100111000111111100001110001
00111101001001101001110011001100
10111100111001011011010010011100
00111101101000101001101000000101
00111010101001110111100101001000
00111011111100111110000011100000
10111101000010001010011001010010
10111101001110000010011101010100
00111101111000111010101011111101
10111101010100001001001111010000
00111101001010100100110010011011
00111101010000011011011100000110
10111101010000010010011010010111
10111101110000010100100101101110
10111101101110111111010100110011
10111101111110110011101010011010
10111101111001110101000100100111
10111100001001011111011101110011
10111011011111000000000011011010
00111101001111001100001111110011
00111101001110110110001000010111
10111100011101110100000000000000
10111110000000010011111011010000
10111110000100000101100111101110
00111110001111111011111101101100
00111101100001101111111011101011
10111100111010010001101100101110
10111101001001110000011111111010
10111101100000001011010111100100
10111101110100001010010011011011
10111110000010001110100110000000
00111110000110101111001001000100
00111100010001001100000110110001
10111011011110001100111001000000
00111101100111100111001111100111
10111100010000010011011010001000
00111101011110001110100011111110
00111011101000111110111101111011
00111101111001010010100111010010
00111110001011011011110000101001
00111110001101010101100000010001
00111101011000111010111100000101
10111010111110110010011000110011
10111010100011010001010011001000
10111100111110000010110010100110
10111101001001101000101000111001
00111101100000001001100000010000
10111001011001100110101111001011
00111110011001101010001011001101
00111100111010010101011100010101
10111100110110101000101100100111
00111101011111101110110010010100
00111101110111001101101111110111
00111101111111100011111011011101
00111101110011000000001010111110
00111101110101101010111101101110
00111110001010011100100001000011
00111101011000110110111110101000
00111100110111011010001000000111
10111011100100100011111110000111
10111100000001110010111111011000
00111101001011101110011000111010
10111100101001010011110110101010
10111101100001111111000000100010
10111100100111100100101110101110
00111100000011011111100010000000
00111100111011001110110000111100
10111110000011100101110110001010
00111101011011001110110010011110
00111101110111101100011001001100
00111101110000000101001101100000
00111101011101001001010001101000
00111101111100110001110010101010
00111101001001001001111000000101
00111101100111011000101000011110
00111101110001001110111010101011
00111101011101001011010101110000
00111011011101001111010000111001
10111110001001100011000110011101
00111101101101001011001010101010
00111110000100010100111000011001
00111110000001100000111001010101
10111101001011010100110011101000
00111101110100000000111010101101
00111110000000000100001010111011
10111110000111010011000001011101
00111101100011101010111001111011
10111101011101010000101110011100
00111101010111111001000110001010
10111101101000010111011010010011
