10111110000100000100110100110011
00111100111111101000010101101000
10111101001111101100010101111101
00111101100011111101110111001111
00111101101000100100001000000011
10111101011010000000100000010111
00111100101000010000110101100100
00111101100000101110110100111101
00111101010111001001011010101110
00111101011010011111001011110010
00111101101001001010001010101111
00111101000001011111100110100100
00111101100001011100100011011111
10111100100100101000110101000000
00111100110000001101111011000111
00111101111001001011010000010101
00111100110111110011101110101000
00111101100110110010110001011001
10111101100010010001100000110101
10111101001100010000101001011111
00111101100111011111010000000011
10111101001110110011000111011111
00111100100011101010001011000000
00111101011001100011110101001110
00111101000110011011110100011100
00111100101100110101001101011100
10111101001101101001111101101100
00111011000111010101001110100000
10111100100001011110111110111100
10111011110101100001101100010000
10111100001100010110010110101000
00111100011100010111100001101000
10111101010111100100111111000110
00111100111011010010100010000010
00111100101111011000010011110000
00111101110110000110110011001101
00111101100101110010111010100101
00111100011000110010001100110110
10111011011110001101010110010010
10111101001011010111100110110101
00111110000110011010000010111011
00111110001110001011110111100101
00111110000111011011010011001011
00111101011100000001001111101101
00111000111100011110010111000111
00111101101110011110001110011110
10111100110111010110000010110011
00111100000001000010111100110111
00111101100001000111000100101000
00111100110110110000001110111101
00111101010011110100110001110111
10111100010000110010100101001100
00111100110000001010100101100010
10111101010011010011010011001010
10111101001100001100100011010001
10111101100010001011110010111111
10111101100010000011001110000111
10111101000101110100111011010011
10111011010101101011000001000000
10111101100110011000110011101100
00111101101000100010000110011101
00111101101100100111110001101011
00111100010110110101001111010110
10111100101011101001111001011111
00111110000011110110111010101010
00111101001110110010101111000110
00111101011110000010111111110101
00111100100011110111111001100110
10111101100010100110000111000101
00111101111010101011111100011111
00111101111110010011110111111010
00111101111100111101000110100101
10111100000010100100101110001001
10111110011110001111101101011100
10111110001010111100100101001011
10111110001101011101011000010001
00111110000100011110101101001001
00111100110100111000101101000010
00111101111001101010111100011010
00111101011110010000101100101111
00111110001010101010101111111101
00111101011111100101001110011100
10111100111011100010111101011101
10111100011101010101110000111000
00111100100101011101011000010000
10111100010101111100101111110000
00111100110010110001011000101100
00111011000010010001110010000101
00111110011000111010001001001011
00111110000100110100110010000011
10111100111110010101111101011110
10111100101100110111100100001011
10111101101100101001001010111001
10111101001110111110101001100101
00111101100100010110101011000110
00111100100010110110010000011101
00111110000011101111111101111111
00111101001110110001000000001111
00111100111010010000111110101011
10111100101010100100110001100101
10111100101001010100011010011000
00111101100111000000000011110100
10111101100110001011000000000111
10111101001101111011000010011000
10111101001001010000110100000010
10111110001000111111010000100110
10111101100001101000110110100010
00111101111110110111010010111101
00111101100000001001100001110000
10111101101101001000111100011011
10111011101111011000101001001110
10111110001111111101011110001110
00111001110010010111001100000000
10111100101110111000010001011100
10111101101111011111101110000001
10111100010001101110110101101011
00111101101101111110111011010000
00111100110100001111111001111000
00111101001011111000011111101001
00111101101010110101100111001110
10111101010000101010011001100001
10111101111110101010011111101010
10111101000011001100111111010001
10111101000111011111100011101101
00111100011010110111010000110100
10111101101011011010100111101100
00111101000110011101100000110000
00111101100011000000011011000111
00111101010010100001001011001010
00111101000111001000110010110001
00111101101110110001111001000001
00111101110101101011111110010101
10111100111111100001011001101001
00111101010101111110110101100010
10111101110001000011110010011101
00111101100010010111011000101011
10111100110010111110000101110100
10111110000010111011111111101101
10111110100001000111101010001110
10111101100101010100100000111010
00111101100000111011100001110110
10111001101101101110001000000000
00111101100111110011111110010001
10111101000011101111011110011111
10111101001001000111110011000011
10111101100100010000001101010111
10111110000111110011001000101010
10111101000101011000001101111011
10111101100000011001001010000010
00111100000110000011111101011110
10111101001100001111010111111100
00111101010010011101010000111010
10111101010011011011001010010111
10111100100111101110010101000011
00111011101110000010100011000100
10111100100010101111101111001010
00111101100101001111101100010010
00111101110010011000110110010110
00111110000111100101100000111101
00111101110010010001001000101001
00111110000110011011000100001100
00111100101000111100101110001011
00111100101101010100001111101000
10111011010100111011000001110010
10111110000101010100010011100100
10111110001001011100111011110000
10111101101000110110001001010111
10111110000110101111011010101111
00111011000110001100010011100011
00111101001111100111111000010010
10111101010101100000110010011000
10111101000110110010010010101110
00111011011110110111000110011101
10111110010001110000111010101001
10111101000111010100000100000110
10111101111001111100100001110011
10111100111001011011000000000011
10111110000110001111001110011110
10111110000011110000110010110001
00111101100110011111100011110010
00111101110010100000001011111010
00111100010101000000000001011001
10111101000000101100110101010101
00111101110010010000110011011100
00111101101101110001100110001010
00111101010111000111011001010111
00111101101000011000001000110010
00111101100010101110100010101010
10111100111000011011000100010110
10111101001101100110101011101111
00111010110111101011000001011000
10111101010010111011100111101000
10111101110011000100110010110100
10111110011010000101011001010110
10111110011011110000010001010000
10111101110100001101111100101110
10111100011100101110100011001000
00111101101001000100101100100011
10111011010100110011101000101000
00111011101110010111111111101110
10111101110011010000011111000100
10111101101001100111101101001010
00111100100100001000101100110011
00111011000010101100110000101000
10111101111100010000010101100011
10111101100111101110100011000101
10111100111001100111000010000010
00111100001001001011011001000010
00111100110101000100101001111010
00111100111010100111000101111111
00111101001011111010101101010111
10111100101101111010100000000100
00111101010000111000010111111010
00111010100101111110011001101011
00111001010010101010101111010000
00111101100101001101010011100001
10111011101010010100001110110001
10111100000101001001011101101100
10111101101100111100100011001110
10111101100101110100110100001011
00111100001011111010010011011011
10111101010010110101110010100100
10111110000110011100111010101111
10111110010010010111011000010000
10111001010101011100001100011001
10111100110010001000000100010110
10111101101100011010011000000111
10111011100110011000110100001001
10111110001000011010010000001101
00111101001000110111001011001100
10111101111111011001011000110010
00111100110001101110000110011111
10111101101111101101101101101010
00111100111010011101100011111010
10111101100010000101111001100000
10111011111111000111010101011110
00111101010010111010101010001111
00111100001101110001110100001000
00111101011110001100010111111001
00111010010000011010100011011000
10111101111111101000000101001000
00111101001011101010101001100100
00111110000011010010011101011110
00111100101111001001001010001010
00111110000010110101100100010110
00111101010010000000000001001000
00111100101010111000111000000101
10111101001101011101000000000100
10111101011011010001001110001011
10111110000010111000110000100011
10111110100100100001100101001110
10111110010110101110001101101110
10111110000001000001110100011000
00111101100000111000011000000101
10111101010100101111011010011101
10111101010110011111111000110101
10111110001011100100111100111111
10111100110011001000011110000011
00111100010001100010101000100001
00111101100110001010011101100110
00111100110111100011001101011011
10111101000000110110001000000000
10111010000110001000100000001010
10111100101000111011100100111011
10111101111011000110011101100110
10111100111011111101110101010111
10111011010011111010000101100111
00111101011111000111001001010101
10111100100110101100100100010000
10111101101101100011011111100001
10111101101100110010111100000100
00111100110110111000111000110111
00111110010000100011001000100111
00111110000100010110101110101100
10111101001100010101000110000111
10111110000011100001111100111011
10111010011101100011010110010110
10111110000011110001001101101001
10111110100100101011111101010011
10111110010001011100111001001101
00111100101010011001111010110100
00111101101001001001001101000011
10111101011001001001101100100101
10111101100110100000001000100110
10111110000011010101010000010100
10111101100010111011001101101100
00111110000000110100110100100101
00111101001111000110101111010011
00111101110010111001001100111011
10111100010100000111011000110000
10111101001100010101010001101010
10111101010101100100110101100100
10111100101010110111100111111010
00111100110011111001101110101111
10111100100111111110101001111110
00111100111001001111010011001011
10111100110001000100101110011100
10111110000001010010100110001000
10111101110101101010101001100101
00111100001011100000111100110111
10111100100010110001011001101001
00111101101000101100101111010000
00111100111101110010001111111111
10111101010010011101000101000010
00111101101001000010001100011011
10111101001100101011000000101011
10111110011110011110111010111100
10111110100000110100111010111110
10111101111101001001000010000110
00111101100100110001110011010001
10111101101000010001110011011011
00111101101110010111101011110111
00111101011010110011000101001011
00111101111010110001010110011100
00111101100011100000011001110101
00111101111010010001011001100001
00111101101011101000010001000010
10111101001011101110011011000101
10111101101010010111111000011000
10111110000110100000001110110111
10111011000111110101011010111100
10111101101000001010000011000100
10111110000011101010011011010100
10111101110100001011011111100110
10111110001100100110010111111000
10111110011101010110011000001100
10111110010101000000001001011101
10111101111100000111010100001111
00111100101010111110000100000001
00111101001001010100111111001110
00111100100011011110001110000111
00111110000101000101111000110001
00111110000000010100001000110100
00111101000100100001011110100011
10111110000011011101000110001101
10111110010101111000111001000110
10111101100101010000110111001110
00111011100100010101100000010000
00111001101100001011000100001100
00111100101000100101101001110100
00111101001111111110110000110000
00111101101010100000001110000110
10111100001010100010000110000001
00111101111111111100110111000110
10111101011000010010110110000111
10111011011001011000011000100011
00111100101111110100010000000000
10111110000100111000010110111100
10111100111001100000110011001001
10111101100011010001111001101100
10111101100000000011001111011101
10111101100000101000000010110000
10111101111011110001110101101101
10111110100000111010110000000001
10111110100010000101010110111011
10111110110000010010100101000111
10111110010000101110101010111100
00111100100011001110000000001010
00111101101111000100101001100010
00111110001100011100011001101010
00111110100000000000101000011111
00111101110001000111000001011100
00111100110011111100101110100100
10111101110001010111111111001000
10111100101010111111010001000101
00111101010011000001000100010010
10111101010100000101100001000111
10111101001101101111111011110011
00111101101010100100101000100111
00111110010101010011110110000101
00111100111111000010111000111111
00111011111110111001001110001110
00111101111000010010110000001001
00111101101101110100011010001101
10111100011100110111100011111111
00111101010110100100101001100000
10111101010111010001110101001110
10111101000010001100101011111111
00111101000100110100100110100010
10111101101111111101111110000010
10111110001101000110110111000111
10111110100010000101011001111111
10111110101111011000000100011010
10111110010101101110100100110101
10111110010000010010110001011000
00111101001001101111001000010111
00111101110100001100011011101111
00111110010111011110101100001001
00111110011011000101111011011101
00111110000001100101110001110101
00111101111011001100101110100101
00111100011111001011111001000110
00111110001101100000000110110110
00111101001101100010010111000010
10111100100000101110011000110110
10111101111001100101111110101010
00111101110010100000111000101100
00111101001010011001110000111001
00111101101101001101110111011100
00111101011001001000001100100111
00111101011000110001100101110010
00111101011111111111001100010110
00111101110110101110111010100010
10111101100001111111111000011010
00111101101010111100101111001011
10111101000101011000001001011010
00111100101101111000111111110010
10111100000110011001010100100101
10111110001011010000110000100100
10111110011010111111111001100111
10111110011000111110011111110000
10111110000000111010100110100111
10111100111001000011000010000110
00111101011111001000011011110100
00111110100101010101011000111100
00111110010100100111010011000001
00111110001010111101010010011011
00111101100110000000111010000101
00111110001100000001011101100111
00111110010011010100001100111100
00111101010111110011110110001000
10111100111100001111110000001000
10111101001000001100100111110110
10111110010011001001010000100001
00111101101011011100110011011100
10111101100101010000000110011000
10111100010100100011000101000010
00111100000101110000111111111010
00111101110101011100110111001100
00111101101101101111100101110100
00111101101000100101110011001110
00111011011110101000000001110111
10111100111111101010011100110100
10111100001011000001110100010010
10111101101110001010001010110011
10111101100111011000011111111011
10111110000010011100001110011010
10111110000010110100011100110000
10111101100011010101000000100001
10111100100001001101101101001111
00111101011110101000101101110011
00111110011100000111111010111101
00111110100001110110001110010100
00111110000011001000001100010011
00111100100111000000101010000011
00111110001001000001010001101001
00111101110111001011111110011010
00111110001101101001000101101011
00111101010100101000101000101101
00111101100100110110011001101101
10111101100100111010001010100000
10111101100010001111100101111001
10111100101001111100001000001011
00111101000100000100011010100110
00111101010100101101000100100000
00111100000101000010011000010101
00111100110001110111001011101110
10111101100001001110101010000110
00111101101001110011110000111000
00111100100111101111100001101000
00111101011000011110100010100001
10111101101000001001011110000110
10111100111000001111111000001011
10111101110000001001001101111101
10111110001001100110111110100100
10111110010010001011111101100111
10111101011011111111000101100000
00111100010011111100010110011011
00111101000110111001000001110101
00111101110100101000010011011111
00111110000110000110101101110000
00111011100011010011110011010110
10111110001000110111011100101000
10111100100001011001001100110111
00111110000110011011001010111111
00111110100000111111000001100001
00111101011000001100011111100100
00111101000110000111010011101010
00111001100100110110010110011100
10111110000110110111110101000001
00111011011110001110010110111101
10111101100101001110001110101101
10111011111001100011001101101111
10111100100011110010001100100101
10111011100111000111100011011011
00111101000000000011110011101010
00111101101000001001001011000110
00111100110000100110001001111110
10111101101100011001110000010011
10111110000011001010011100011011
10111110000101100010010000100010
10111110001101100111010000011111
10111101110000000001011101110001
10111100111111101011000100100100
10111100010100000011010011110111
10111100001111000011000100100011
10111100100001011111111100101100
00111101101101010001111111110000
00111101010111011000010010000110
00111100100011111110000010111011
10111110000000010101001000011000
10111101111111001011011100110110
00111101110001101101111000010111
00111101010000001010111100101101
00111110000000111000100011101010
10111101101000100010010100000011
00111100011101010011100110000001
10111110010000100011111011011111
10111110010111010011000001111110
10111101111100000000000100100010
10111101010001110010110010010111
10111101100100100000100010010100
00111100101010110110011100001111
00111110001011101001010100010101
00111110100011010010110110111110
00111101000110101011010111111011
10111110000000101011101001110001
10111101111110111101111101110001
10111110001011101111100111010011
10111101110010011001111011110010
10111100010000001100001111100001
00111101000111111001100100110011
00111101110100011110111110011011
00111101101000101001110001001000
00111100101000110010110010110000
10111101100011000100101010101111
00111100100010000001010100110011
10111101011110101100001011110101
10111100111100111011001110010011
00111011100111011001110010000110
00111101011110001101101100000011
00111101001100010001111101110010
00111101100111110011010000100010
00111011111100100010110110101011
00111101101000011010111001001111
00111100110111111100110111100011
10111110000000000111110101001011
10111011000011011101101101110111
10111100111010001001110101010110
00111100100110101010100000011011
00111110000001100011110011010001
00111110001001000000001000001000
00111110100011011011111011110100
00111110010100101101011101101101
00111100011110100000010000011011
10111101001110011110010110001000
10111101111010010010101111111111
00111101001001100100011000100000
00111101111110100100111110110111
00111101100110111001101100100011
00111101100010000010111010011010
10111100110001101101001110011111
00111101100110101110110101011100
10111101010001000100010110100100
00111101100101001101111011001010
10111100101100011101011011001011
10111100001111100100111001011010
10111101111001001010011100001001
10111101110111110011000000111000
00111110000000001011101000111111
00111101101011001001101001010001
00111100011101110110101001111000
00111100100101111100110111100000
00111110001000111010010110100000
00111101000100100100001011111000
00111100100110101011101110111101
00111100011011111011110101010110
10111010101010010111000110011101
10111010000110110001110100010101
00111101111101101111000111010010
00111100000001010010111001001101
00111110000110011111110101110001
10111101011001001010101010001011
10111100110110111010100111110001
00111100110111110110010001001110
00111100000111001100100000010001
00111101100100111111010010101001
00111101010000110100000110000011
00111100111001000000010100011010
00111011110110001101011001001000
00111100000100110110001111110111
10111101110010000000010001111011
00111100111000010101110011100101
10111100111100111010101100100101
00111101010001000011100000101000
10111011000000000100001100110101
10111011101000000011100111110100
00111101010101111001110001001001
00111100110011000111100011001100
00111101001100001110110000111000
10111100110100101111001101000111
00111101110010000010000001111001
00111110011101010001111110111001
00111101110000100100101101000111
00111101100011001101100100010011
00111101100000000110110101011111
10111101011010010100110000100001
00111101000101010110111100001110
10111100010100010110110110101011
00111101111000100010001101110111
00111101101000000000010110110001
00111101110100010001001000001101
10111101001101010111011011001010
00111100011100011100001110100010
00111101100001000101100101100101
00111101100110100001010000101101
10111100111010101011010111011010
10111101001110010010011001000000
10111101000100101110100010000100
10111110000111100110111000011110
10111110010100001011101111010100
10111101010111110010111100010100
10111101000101010110101110011111
00111101101101111010100010111011
10111110000000000111011011011000
00111101111001100011100011111101
00111101100001010111111010001010
00111101001111011111000010000010
00111101011000011001110111001111
00111101111001011011111100101011
00111101110100101111111110101111
00111100100010111110101111110001
00111101100001111011101001110000
00111101010001001000011000101101
00111101110001110001010100110011
00111101010110001100001001111000
00111101110000111011101100010111
00111110000100001110011011011110
00111101101010000101001101000001
00111100101101100001101011001001
10111101001001100110111001101110
10111101101010100011010100101100
00111101100001000111000011000111
10111101100111000000101001101011
00111101001011110100001000111101
00111101100101110001100010101111
00111100110011100000110110000100
00111100001100011010010100111110
10111101110011001101000101111000
10111101100000011110001111010110
10111101101111100011010000010100
10111101100000001011010101001110
10111101000110000010101001010010
10111101101101111100010101101000
00111011000100101000101001011111
00111101010101110011101111111110
10111101011110100100010110001000
10111101101101100010111100011000
10111100101000010011110000000000
10111101010101111111101000000101
00111011111001000100111100111101
00111101011011100010110001000001
10111011111110001100001100110111
00111110010000011001101100110001
00111101100000111110101001011011
00111101101000001000110101100111
10111100011101101001011000011011
10111100110011000011001000001101
00111101000010110011000000100011
10111101110110101000111001001101
10111101100100100100010111000010
10111100100111010101011011010000
10111101100010000111001101010011
10111110000111000010011100000010
10111101011111111101010001011100
00111101011011101000100000011010
00111100010001100001100111011110
10111101000111000011111011111000
10111101111011111111100101010101
10111101101011110111001100110101
10111110000010110111001110011001
10111110000101001110001110100110
00111100010100100101010110101000
10111100100001000111011000110100
10111101011111101111111111100010
10111101011000110110100110011100
10111110001100011111111001000001
10111110001010101100100110111111
10111110001001000101110100010111
10111110001111011011101111010100
10111100011011101000110011111001
00111101100011001100111000100010
00111101100001110111000000110110
00111101101110100100100101100101
00111101100100000001101011000011
00111101101111000001010111101000
10111101011011100110011000010001
10111101001111101010111100101100
10111101101011100011010011100011
10111110001101001010111110000110
10111101001110011100000000110110
10111101100010001010110100011010
10111101110110000001001010100010
00111101110001111001101000000011
10111100101010011001010111111010
00111100111101000000101011101000
00111101000110001100110111000000
10111011011011101101010000111110
00111101001111001101100100011000
10111101001110111100101011100010
00111101100010001000000011111101
00111100101001011000010111111100
00111101000001001110111110101110
00111100110110000000011101110111
00111011100110011111110011000110
10111100000011001011111010000010
10111101101010100001010000001111
10111101111011010100110000100000
10111101110011001110111001010001
10111101110101000110011101011110
10111101101011100111100111110011
10111101001100110010100011001110
10111101100000011001011111101010
10111110001011000111110101110101
10111101000111010101111001011101
10111101011100010100110011011111
10111101010110001101110101001111
10111110010111001110011000101110
10111110100001100111101001011010
10111110000000010100001101100011
00111100101000100110100010111101
00111101111001111010110100011000
10111100110101101001110100001111
00111100111000001011111111011000
10111101100000110100111100001001
10111101110000001111011111010000
10111101011001101111000001011010
00111101100101110010011100011101
10111101101001011010110100101010
00111101101000100101110110000111
10111100110100011000011000100110
10111100100111111101000011111000
00111101001001000111110011101110
10111101010010100110000011100111
00111100010111101011101101100100
00111101101111100111110110011100
10111101101110001001101101011000
10111101001000000011111111001010
10111100111010011011110100110110
10111110000110111000000011110000
10111110100001100010010000001011
10111100110011101010011100111001
00111101010001011000101101101110
00111101111010011001101010111100
10111110000011001011010100110100
10111110011100001010111011000110
10111110100001011001100110100101
10111101010111101100110111110100
10111101110010101111000010101111
00111110000100011001101111001001
00111101001100011001001101001110
00111011101101111000111001100110
10111101100010111111101001000011
10111101000001110100010001101001
10111101000100100000010000111010
10111101011110011010001110011000
00111101100101010111010111011011
10111100110110010010111100110100
00111101100000011011110011001111
00111101010101110111110100011010
10111101100111100001101011100010
10111101110010101001100000011011
10111101110110010000110101101111
00111011101100100011001110000000
00111101001011001110100010110011
00111101110010000000101000000010
10111101100001000101110011101101
10111101111010111100110011000010
00111100100100111011110000110001
10111101100110001000010100111110
10111101111011010111111100110011
10111110011111110011110010101110
10111110001101100000010001011000
10111110001111000000010000011001
10111110000111000011100011111111
10111101101001010101110000111101
10111101100001010001000101010100
00111101101111000111111001000001
10111001101011101100110000001101
10111101110010010110111011110101
10111110000111010000111010001001
10111100001010100100001100001000
00111101001010011010110010111100
00111101011101000001111100000110
00111101001001101100111001110000
