00111101101000001100000110100101
10111101101001100001100000110011
10111101001000000001001110011011
00111101011011110100001101100110
00111100010000100010001101100000
10111101100000100100000111101110
10111101010100111010011110010100
00111101010110010010000100110010
10111011111001111011111100100000
10111101100100110000111001100100
10111101100111010011111101000110
00111100010000100100011011111000
10111100000110110100010100001000
10111101011110101001100110110110
00111101000101111101000000110011
00111101100100010101100001111100
10111101100100110010100001111011
10111101100111110111010011001111
00111100100010011101000100100000
10111101100011110001110011010001
10111101010110000001111111101000
00111101010100000010010010111110
00111100011100111001110001000000
10111101000011111110111101010110
00111101100010101111010110101101
10111100101010110011011011011010
00111101011110001000101101101110
10111010100111000011110101000000
10111101001011100000100110000110
00111101001011010001000111000110
10111100111100101010100101000110
00111101010111100011001110110110
00111101001110011001011100100110
00111101011000110010010111101000
00111101001010001001111000111101
10111101101000011000000110111010
00111101011011111101101100011000
00111100110100110111011100101000
00111101000000000001000010101110
00111101101000001100111100111100
00111110000000010001101010001001
00111110011011001011110111111111
00111110010011001000110011111011
10111100100001011100110000001110
00111110000011100100010110010000
00111110100000100101000101000010
00111110000100111011111010111110
00111110100011011011000111110000
00111101100110111001001001111011
00111101101111000011011011101011
00111110001111110101100111110010
00111110001111101100000101110010
00111110000000010100010000000101
00111100100101111110101100110100
00111100100010001011101000110000
00111100001111010111111100011000
00111101100100100101101011010111
10111101100010010001011111001011
00111101100001110100011000011011
10111101010100010100101011001010
10111101000101000000100010100110
00111110001010001000100111100100
00111110000011011111010001010011
00111101101011111001101110110000
00111101100011111011101101001101
10111101101101110000100101011100
10111110000111000011100000100110
10111101101101110101100011110010
00111100101111100110101011100111
10111100111101110001000111000010
00111100110010011010010001010111
00111100111011101010011000001000
00111101001011011100110010000101
00111110000101110010101001100000
00111110101000110110111100011100
00111110010111011100011010010101
00111110011100100000100110110011
00111101111100111010110000001110
00111110000001011010011010001011
00111110000111110010010011101010
00111101111110100100101101110101
00111010111101011010111000011001
10111101010110010011111101111011
10111101000111011111110110100111
00111101100010001011001011000101
00111101010110101101110100100010
00111010100111000010000110000000
00111101100011010000010000110000
10111001001101011010001110000100
00111110000010100001101110001000
10111101101101011100011110111011
10111101000010011000010100010111
00111101100100010001011100010010
10111101111000110100100101000110
10111101111101010011100100100001
10111110001101111001011001110101
10111110011011000100111011010011
10111110000101100011000011100000
10111101110010011111010100101011
10111101100110101110101000111001
10111110000110011000110110011011
10111100101010010101000101101110
00111101101110001000101110110100
00111101101000100011100011100101
00111110001001100101011111101111
10111101000111001001010010101001
00111101000001100110001111110011
00111101100010111010111110100010
00111110000011110111000010100111
00111110000101100110000101111011
10111101101001101111111110111001
00111100010000010000110100000010
00111100110100111000000001101000
00111101100011011001001110010111
00111011111111010010000110110001
10111101011110011111000001110001
10111101110100100110010100001010
10111110000111011110100110000001
10111101111010110000111110001101
10111110100001000010010101101010
10111110101001111111001011010100
10111110011100010010111101001111
10111101101110000001001010110100
10111110001110110111101110010100
10111101111101101000111100101000
10111101111000000011010010000000
10111110000001101000011100001000
10111110000100101011001001111111
10111101110011111101100101101111
10111011110000000100001101100111
00111101000110010010010011001111
10111101001001001111110101110100
10111100000010010000001101011110
00111100010101001000011010100010
00111110000010000000011010100101
00111101100101100010011101001111
00111101101110110100001101010001
00111011100011111011010101011110
00111101100011110100110110101000
00111101101011101011000010001100
00111110000010000001110000011011
00111101100100010011001000111111
00111101011000111011000011011010
10111101101110010000100000010101
10111101110011100111010010000101
10111110010100000011001100001001
10111110010100100001000101101110
10111110110000000101001010010111
10111110100100111011010111010001
10111110010100101100100011011000
10111110000100111001101101000000
10111101100010100101000010011001
10111101011110000011111101111111
10111101111000100010110000110100
00111101000001100011100111001000
10111101110101100110110010111000
10111101001000110111111101010111
00111100111010000110100010001111
00111110000001110001010111101101
10111011000010011011000101101000
00111101000011111011100110100011
00111100110111000111110110110001
00111101001101000111011001111110
00111101100001011100010100111001
00111110010000010010101000110101
00111110010101101001111100010000
00111110000110111111101010010010
00111110000010101111011010000000
00111110000001011001001001111101
10111101001101000011001011110111
10111101101011100011111100011011
00111101010100001100100111100110
10111101111111101100110010000010
10111110000010001010110011111111
10111110011010101110101111001000
10111110110111000111000011101000
10111110100010101101010010001000
10111110011001001001100011001011
10111110001011111001000111000100
10111101010110000011100010110000
10111100111001010100100011111100
00111100010000011000011110001100
10111101100100001111000111010110
00111011111101110101111110101100
00111101111001110100100001110001
00111101101101100001110000100001
00111110000010011001011110001001
00111110000100010001111011000000
00111110001010101011000011101101
00111110010100110110100011100110
00111101110111000000111101010000
00111110001010101101100111010100
00111110010010111011000010100000
00111110100011010001000001000111
00111110100000100011001000111111
00111110000010101110010011111001
00111101101001010011100101110011
10111100101000010111011001011000
10111101101101010110110110110100
00111011101011011110001101101010
10111101111111000011100010010000
10111110000111011100101010100101
10111110010100110110100001111010
10111110110110110011111100001101
10111110100000101111100111110110
10111110000010110100101100110100
10111101100000110001011010011011
00111101000011000010011100011011
10111100111000001000010000010001
00111101000100001111101111010110
10111101001110110000100101011101
00111011001110100000101110101010
00111101111101110001000000101000
00111110001010010001111100111110
00111110001101110100110110110010
00111110001011100010111011001101
00111110011001101011111001111111
00111110100100000010111001100011
00111110011110010000110010011101
00111110100000001100011100111010
00111110001010001000010010111010
00111110100011000011000100000110
00111110010100100110011000000111
00111101110001011100000110100100
00111101111010001110000010100110
00111101000001111001001111111100
10111100111000001011010111000010
10111101110001110100111010000110
10111100111000010101110001011110
10111110000100011111010101101001
10111110100100011100000011101101
10111110010011101010010111100111
10111110010110011111110001110011
10111110011000101100110010111010
10111101101100101000000111100110
10111101100011010010100010011011
00111101010001010010101111100101
00111101011101110010101111001011
00111101011111110010000111001100
10111101000010010001110101001000
00111110000010000100100001001111
00111101011010010100100000110010
00111101011001001100000110110111
00111110000110010001011010101011
00111110010010000111100011110111
00111110100000000100000001011001
00111110100000111100110010000111
00111110011011011000011011000101
00111110011011101010010101110110
00111110011011000110110110101011
00111110001110111100010010111100
10111011000010001011111101110010
00111101010000011111010110101100
10111101100011100110111001101000
00111101011111010100100111111100
10111101101001111010101001101010
10111101100100111001110011010011
00111011000110001110010001010100
10111101011001111100000111010100
10111110100010110011111010011111
10111110011000101111011101100011
10111110001101100111000010011000
10111101110010001010110001010001
00111010110101100110011001110001
00111101111000011011010010101110
00111100111010101101111101101100
10111101101110111000010101000111
10111101001001001000111110110000
10111101000110011110101011010001
10111110010000111010100101011111
10111110011100011111010110100110
10111110010001110000010001110001
10111110000011110100010001111011
10111110000000011000000011001011
10111101111111100100000000101001
10111110000111111101100111101001
10111101010000000110100001000100
00111101011000110001111110001000
00111101011101011001011101000010
00111101000100000001000011111011
00111101010111000001111110110111
00111101001001010101001001100100
10111101000011001010100100101101
00111011101011010000010111101101
10111110010100100000111010000011
10111100101011000101111010010010
10111101101110100010010110110001
10111101111000000000011110010000
10111110000110111001010010111010
10111100111111000000011000000000
10111010100001100100111010111011
00111101100111111010011100100100
00111110001000111001011111111010
10111100000011110110000100011000
10111101011100000000011111011111
10111101111100001111010101011111
10111110101001011011111110111000
10111111000000100001100000101111
10111111000011100101100100001010
10111111000100111001100111011001
10111111001001110001110101001111
10111111000001000000000110010000
10111111000011010011010100100110
10111110111010010111110010001011
10111110111000001001001011101010
10111110000100111001011011000000
00111101000011001010000011101111
00111101100010011001111110000011
00111100110001000111111001001010
10111101000111100010001000100010
10111011111000110101001011001111
10111101001000001001100111001110
10111101100001000111000111001111
00111101001001100001110001000010
10111100010001110110011010000101
10111011010010010100101010110100
10111101111001110010110010100101
10111101110100111000010011110101
10111101110000010001110111100001
10111101010101111111100000011111
00111101101111111000111110110011
00111100111001111001010100011111
00111101011011101011110001011010
10111110010001010111110101100111
10111110010011011010011110110100
10111110100001111000010100011111
10111110111000101101110110111100
10111110111010000000101001000111
10111110111111001001101011010100
10111110111111110010111101101011
10111110111101001010010010100000
10111111000111010100010011010011
10111111001001000100110010100100
10111110110110100011111110110011
10111110001100010110011000101101
10111101010001101000001011101110
10111101110000000100100110000010
00111101000001000110110000100100
00111100100011110110101100111010
10111101111000001000110111010110
10111101101000101001100111000011
10111100000100000101011100111001
10111101101110110011110111101100
10111101111001101011101011110011
10111101001110010110001100111000
10111101011010100001100111111001
00111100101100000010011000110110
00111101010011010111110001001100
00111101100111000010001011000011
00111101111111000110101011111001
00111101010000010001000101110111
10111101110010111111000110011111
10111110000111010001110100101001
10111101110110000111001101001000
10111110001001110110100111011000
10111101100001000000011011110010
10111110001110001110111111100000
10111110011111111110101000111111
10111101111111110010000001100001
10111101111111001001110101111011
10111110101101011011101110110101
10111110110011010101101010010100
10111110101011011101101011101000
00111100000011010101110110010111
10111100100010000101111100010011
00111100001101111101011101110000
10111101001111101011101010111010
10111101100100110100010001001001
00111101101101100001001100000010
00111110000000000101110010001100
10111110000001110111111001101001
10111101110101010100110010001010
00111101110000000100111110100011
10111101101111011110000001101111
10111101101010111101110101000100
00111100011001010011100111110101
00111110000100001110001001101111
00111101110101010001001111010101
00111100101001100100100111100010
00111101101000011010111100110011
00111101001110100011011101111110
00111101001011010011111110011100
00111101011100000001101110010111
00111101110100010111010011101010
00111101000010111001100110110010
00111100000001000101010011101010
00111101100010001000001000110010
00111100010101010010010101111101
10111100111001001110011000000111
10111110100101101111000111111001
10111110010111110110101111111001
10111100111101011110110010100110
10111100111000011111011000100000
00111101110110111011100010011110
10111101110010010111111011000110
10111101001000011111100001101100
00111101101011001001111010101111
00111100001111100110010110101110
00111100101110110010110010101010
10111101000000001111111110011010
00111101111110100011001000110001
10111110000100000100100001011110
10111101101000101111101100100100
00111101111000101110010001111100
00111101110110111010010010101101
00111101111100101110001010011110
00111101010100011110111010100010
10111101000110111011011001111011
00111101110110111001011100100110
00111101001001111111100101110111
10111100011110100110101100101000
00111101111000101010010000010101
00111101011111101010010111010111
00111101111111100111101000000011
00111101111000001000111001100111
00111100111001011100001011111101
00111101011101110001010110000101
10111110010001101110110010011110
10111101111010110100100001011001
10111110001111010110110101110100
10111101110010010111101011110000
00111101111010111010111000001000
10111110000011100110011011101110
10111110001011100100010010111100
10111101111010111000111000111000
10111101101101110001101001001100
00111100101101111010010010110011
00111100100111001110110001100100
00111101101111000101011101110001
10111101010001000111110110011001
10111011000000100110101011110110
10111011111001111110011010000010
00111100111111100000000011011110
00111110000110100000011001100000
10111101010110011010110000000110
10111100000001000010011000000011
00111011100010010000100000110110
00111110000010001111000001111110
00111100110011001110011110101110
00111101100000101010010011000011
00111110000011000101100011001100
00111110000110011111000001010110
00111101011100111001110111001011
00111100001010000110010001011000
10111100110001001111010100101010
00111100111010111011101001110010
00111101010011101100111111010110
10111110101000000101110101011000
10111100110100100011101100101110
10111101011001011101111110000000
10111101100011100001001010101100
10111110001000000110011101100000
10111101100010100111011000111110
00111101001111111110101001011001
00111100101010101001111100000000
00111101011001101011111100000110
00111101110001100111011101001001
00111101001110101100110011110110
10111100110100000000000110011111
00111011110100001000010000111011
00111101110101110011111010101100
00111101011101001010011011001100
10111101000101111101101100001001
10111101000100111111100011111101
00111101100010111100000011110001
10111011111000100010010010011001
10111101101011011110101110110111
00111100011000111011010110010100
00111101101111001000000110010010
00111101110000010100011011010010
00111101100111110010101001101111
00111110001100010000010110000010
10111101110011100101101110101101
10111101101001000010101110110111
00111011000111000011111010001011
10111110001011000011000001100001
10111100101011010000001010101111
10111101011010000111000001010001
00111100001011010111110001110110
10111110010101010100101111110010
00111101110111010110010101001011
00111100110100011001000110010011
00111101100101110101011010000111
10111011001010111100001101010000
00111110000100010101110010100010
10111011101000010101010111100011
00111100011110001101100001010101
10111101100101100101111111010011
00111101011110000000011111111111
10111101010111100100010100110100
00111100001010010111010011011010
00111011011100001101001010010011
00111100110010000010100100010110
10111101101000000001000100101111
10111101011010111000000010000101
00111100100111001000011100111001
00111101000001110100000000010110
00111101100011001101101100110111
00111110000011010001001010011100
00111100101101011000111001101010
00111100100111000011100011110110
10111100101000111100110011010111
10111101100100111100110010101100
10111110000101000111000011100010
10111101010100010000100101101101
00111011101010100000101110111101
10111101010001011110110001000010
10111110000011101010100110001110
00111101110001110101111101011000
00111101111101011101010101001100
00111101100001100110111011110010
00111101010111011100100001001000
00111101101011000110101111110010
00111101000101100111101100001000
00111101100101100100000011001100
00111011000010011100000101100011
10111101011001010100000101010000
10111101010101010001101011100111
10111101100011111100010110110111
10111100100110111010010111011010
00111101010001110111011001011000
00111100110111111001001001000001
00111110000001110110011100100011
00111101101110000110001000101100
00111101100101111010011100110000
00111100000110000001011110110111
10111101110010101000110101000000
10111100011010001110010001101010
10111101111011001000100111011110
10111101101100001111101000000000
00111101010010110001101001001101
10111011100100011111110010100100
10111110001000000111010100011010
10111101001011010110011110001100
10111101000101001110100011111011
00111101110000011100100100000101
10111101011100101100001011010010
00111110000011111110110111010010
00111101011001101111101110101001
00111101101001111011101001111110
00111010100010110100111000101001
00111100010110010110100011010011
00111101000000111001101111100100
00111101001011101000100101110010
00111101001100110000001100001011
00111101111011101000001111001001
10111101001101000010001001100000
10111101001101001111010100110001
10111100101101001011000110100010
00111101100001000100010000101000
10111101000001110010000111000111
00111110000001110011011100010011
00111101100000110000101111001000
10111100010000000001000100100000
00111101010110011111101011100001
10111101001000111110100010101110
00111101001000101110110000111111
10111011111000111000000000011001
00111101101010111001000110110110
10111101101001001100100111001011
10111100101101011001111011001110
00111100100001011101011000011000
10111110010001101101111000010000
00111100111000111101001010010110
10111110000111110000011001011010
00111101110001000000101100000000
00111101001011000101101111000110
00111100101010000010010101111101
00111101001011001010010010111111
00111101101001110001011110011001
00111101101010000111110111101110
00111110000111111011011001111010
00111101000110011010111100010110
00111100110011010010100011110100
10111101101000100010000011000001
10111101000011011001001110000000
10111101111000110101010100110010
10111110000110011111110010111001
10111011101010010101000001010100
00111101100111110100100010100000
10111100101111001010010101111100
10111101101000110010110001010101
10111101010000011011101010010100
00111101101100111010111110000010
00111011111011010100111100001101
00111101100101110100100000011000
10111011111010101101111110110100
10111101110100110110111101111001
10111101010110010001000111000000
00111101011100001000111000010010
10111101110101110110011101011011
10111110001010110100000110001100
10111101010111110001011011001010
00111101000011010011100010011011
00111110000000010010010010011010
00111101001101011001000001011001
10111101011110011111101000110001
00111101100110010011110110001001
00111101000111011110001101001111
00111110000010110100100110110100
00111110001111110111101111001011
00111110000110110001100110111010
00111011011000100111001010000111
00111101010111100011010100101010
10111101011001010000100101001010
00111100100101001010010000101010
00111100010011111100110001111110
00111101010000000011111000011101
10111100101011111000100010010110
10111101000000100011000000111110
10111101101000010000000001111101
00111101101111110110100011011110
00111101011001110100110101100101
10111101011101110111010010100100
10111010110111110000011010000010
10111100001000001110000101110010
10111100001000011111010100001000
10111100101110111110100100001110
10111101101101001011011101110001
10111110001001010111110100100001
00111101110111101010111011011100
10111100100101101010010011111100
10111100100101011000010111111001
00111101001000000011000011100100
10111101010000110100011101110101
10111101011101101111100001110000
10111100001100011100111001011010
00111100000111111011011010111011
00111100101111100011110010101100
00111101101011101001110011000010
00111101110110001011100011011111
00111101110010101101001001011011
00111010101000010100011111011000
00111011111011010111110001101000
00111101001100010100111111111100
10111101100101000101011000111111
10111010101101111111011000010101
10111101101010100110001110010101
10111101100101100111001100110110
10111101110000010110000000100001
00111101000011101101101000010110
00111100101111110010011010100100
10111101100111111110010010001100
10111100101010110110001111011001
10111100111001101011000111101100
00111100110001111000100000001000
00111101100110111011000011111101
10111101101101111111110100000111
00111110001011111010011101011101
00111100100110111100110010001111
10111101101000011011000100100100
10111010101100011011100001011010
10111101001000111010011010001100
10111100111000111001101000010001
00111011100000010111011000100001
00111100101011111010110110100000
00111100110011011000000111001101
10111101100100001100100110010111
00111101011110111011111000000111
00111110000001010000110000001111
00111110001000101010001110111100
00111101101111010111110000011111
10111101010011100111000011010010
00111100011001000100111111011011
10110111100001011101000101100000
10111101100010000111011101110001
10111101011100011011111111101110
10111110000000100100011011000001
00111101101101011100011010101000
00111011101001111000000111100110
10111101100011010011001110010010
10111100111010100011110110110010
00111100110001010010000010010000
00111011100001101010101001010000
10111011000001010010000011000000
10111101011011101000011000111111
10111101000010100101110111111101
00111101001001011011000011001111
00111101111110001101011010000101
10111101100100000010111100100100
00111100101001001110010100000111
10111101100011111100101001001001
10111100001001101010010100000000
10111100000110101000111100011000
10111101010010000101100100111001
00111101001111100010011101011011
00111101100001110001011010110111
10111101010101010001001100010001
00111101010000011000010110111000
00111101100101110111100100111011
10111101101001010001010010001010
10111100110101111100011110001000
10111110001000100011001101000111
10111100111001000111001010100011
00111101010011111010111010100101
00111110000101001000100110011000
00111101101100000101111111011000
00111110000111010100100011100001
10111110001101110110011011101001
10111110000100001011100100101101
10111101100001001010101011110000
10111101011111001000001101101110
00111100100111110001101000010000
00111100000000010101100010000111
00111010001000010110000110100110
10111101110110110000110011100010
10111101110101111011101111100011
10111100001101101100111010101100
00111101111110111110010110010101
00111100010010010010111001111011
00111101010111111100111101111010
10111101111100011101110000110110
10111100001111111110100111011101
00111101011000111110100101100001
00111101100110101010010010000000
10111101000100011110110011000010
10111000101100010001001000101011
00111101000101100010011101101000
00111110011100110001010111111001
00111101100011100000011111111101
00111110001000010111000111111011
00111110001100100011100010010100
00111110000010010010101001101110
00111110100011010101000110001000
00111110010001100110100110110110
00111101111011110101010000111100
10111101001010000111011100100010
00111011101100110100110011100000
00111101100111001100111100000101
00111101100100011011010100011111
10111101000110010010110001110111
10111101000011011101100011010111
00111101001010101011011100101001
00111101011000101000100001001100
00111100011000001110011000101101
10111101111101111110110010100001
10111101100001100111010001101101
00111101100011001000111101011000
00111101000011100101110001001100
10111101100000110100010011011000
00111101110001100110010100001001
10111100010110010110000101001000
10111101010001010001111001101011
10111100101110000110000101001000
00111100110000111111110010000100
00111110100110000110000001011101
00111110011000100110000011111100
00111100100011110010001010100101
00111101101101011010010011101001
00111110001001110100100011101001
00111101011110000011111101010101
00111110001100110101100011101100
00111100111001100011001111111111
00111101010000010111111110010110
00111101000100001111010110111100
10111101101000011111011111011000
10111101001011001010001111111101
10111101100101111101001111110000
00111100111000111000111110110100
00111101001111010110011000001110
10111100001101001100110001100000
10111101100010000110001101110100
10111100000101110101101011011000
00111100001001001111000111110100
00111101001010010101101101010111
10111101001101010001001111001100
00111100010100000111101111000010
00111101011111101100110000101000
10111101011110001001010111001110
10111101010010111010001101101011
10111100110001101000101111000110
10111011101101010001110110101010
00111101011101001111101000111001
00111101101100001011100101110101
10111100110110011000100000101110
10111100001011110011011100110000
00111101010100001110000100100010
10111101001100000110110101111100
10111101100010001101110111011100
10111101100111111111011101010001
00111101100001001000110111000101
00111100011000011001011100101000
00111101100110011010011110000101
00111101100011101001001011101011
10111101010111000101001111010111
