00111101100011011001110010000011
10111100110011101000000000110000
00111101100110100111101010010001
00111101001000000010001111111100
00111101000000111110101110010000
10111100100000101111010011100000
00111100011011001110100000001000
00111011100010010011111001000000
00111101000101110110110000000110
00111101100100011000111111101101
10111101000000001101100001000111
00111101100010000100000110111011
10111011101001000001110001110000
10111101001110101011010111011000
00111101110000101010011101010000
00111100101101011101110000110110
00111101101100000111000010101010
00111101100110100000110001001011
00111101100100000100001110110111
00111010100011110011010011000000
00111101100101111111110010100101
10111101010100001001110110110100
00111101011001011101010100001010
00111101000101100100000011001110
00111100000010110000001000011000
00111101101000100100001001010101
10111101000001001010010010010010
00111101011110101110011101011110
10111011000101110010100001000000
00111101100010011001110110110011
00111101100100111011100011110101
00111100111110000100101011011100
10111101010000111100000111011000
00111101000011000110010100000010
10111101001010101001010011100111
10111101111110100001011011111010
10111110001000110001110001000100
10111101000101111111000101010011
10111101111010000110011100011110
10111101000011001000010111011011
10111100100010110111000011001011
10111110010100010011001111011000
10111110010101000111100011110110
10111101010101100000011110101101
00111011001101001110001111101111
00111101100011010001111001110001
00111010110000111101000010111110
10111101110010000101101100000111
10111101001111010101001011011011
10111101101110010000001010011101
10111110000110000001011111100001
10111110001000110111101011001001
10111110010001011100010010011000
00111101100100111101010010010001
10111100001111110100100000101000
10111101100001011111111011111100
10111101100001001110010000000000
00111100100100010101011100000100
00111100111011010111011111111100
00111101100000110001001001000011
10111101111011110000110111001100
10111101010101110000001011111001
00111100101011011111100100100011
00111101101000010000110001101000
10111100101001000100111011100011
00111110001110101001100010101001
00111110011100110110011111010011
00111110011100011011010100000001
00111101001011011001101111101110
00111100011001101011010110100101
00111100100111011010011100011111
10111100100100010100010111110000
00111101101100100010110001101100
10111011010011111001011101111111
00111101111010100001101010110110
10111100101001100000101101100000
10111101100000001111001000111001
10111100100001001100000101111111
00111110100011101110011000011011
00111101111101101111010110011100
00111110000000011101101011101101
00111101110001110100001010000010
10111101001000011010011000111110
10111001101100101001000100000000
00111101100100110110100010111011
00111100101001001110100010100000
00111100111001001010001100110000
10111101100100011101110001111000
10111101111000111010011110001011
10111101111010000111000110000000
00111101001111110011101011111111
00111101001100100000110011111000
10111100100101111011100111000001
10111101100010100111111100000010
10111100011100001111011011110111
10111101101010001110101100100010
00111001111100001110001011001001
10111101100001111101111101100111
10111100001010110111110110101011
10111101001101111000010100011001
00111011111011110010000110010011
00111010100100101010101101011100
00111101100000011100100001010001
00111110000011100010110111000010
00111101001101010000100100001111
10111100110010110111111110010111
00111110000000111000110101101010
00111101001011111001000111110111
00111100110101010011011111010100
10111101011101001110101101011110
00111101001110001111001101000110
10111101001110000011100000110011
00111101101001011011001000110101
00111100110000111110101110001000
00111100100010000001000000100100
00111101100100010101100111100101
10111110000100101001010111010001
00111100101001001101110010000100
10111101100000101000101010001001
00111101110000101010010100110011
10111100001101010110110011010110
00111101001100000000001111000101
00111101001001011100001101100000
00111101111010110100011101001001
10111101000000100001000100001000
00111100010110000011000101100011
10111101000001001101000001110110
10111001100000001100001000101100
00111101001110100110001010100111
10111101000101110011101011101001
00111101010011100100001100001100
00111110001010111010010110000010
10111011111010100010011111001100
10111100000010001010111101101010
10111101001111011000101100001111
10111101011011100000010010101101
00111101101010111001010011011011
10111101001110111101100011101111
00111101001000011111110010110000
00111100110111000000101101010000
00111101101000111100110000001011
00111101100111110101010010110001
10111011001110011110100100100000
10111101011000001010110010010101
10111101101101111000111001100101
10111101000010110111011110000001
00111101101101111000011111000000
00111101001111100001010011101011
00111101101001010010100000011101
00111110000010101001110010100100
00111101001101000101000001011101
00111101110010001000011001100101
00111101011111000010011111011001
00111011011000001101010110011011
10111101110001101000001111100001
10111101000000011101010110110111
10111011001110100010101101110110
10111100100010001101011101001100
10111011100011010011101111101101
10111101010111100001010100100101
10111100110011001010011010101111
00111101101100110010100010101111
00111101010110000010111011000100
10111110001100101111100001010011
10111110000000111010010101111010
00111101100110000111001100010101
10111011101100101111011101101101
10111101101100001100111110000110
10111100100111110011000011110110
10111100011100010100101000001000
00111100001101111110111010100111
00111011100101000010000101011000
00111100100100001111000101111000
10111101010011001000011111110010
00111101101101001010100000001111
10111011111111011000001011101100
00111101100100100011100001111000
00111110010010111001100000011001
00111101011111110010111111001101
00111101001000100111111001100001
00111100010100111100001111110000
00111101001010100001110111010101
10111100111001010111000100000011
10111101110010000110001001101010
10111101101101110110111010000010
10111100101000111110110011000111
00111101101011010010011100101010
10111011101101100001110011011110
10111100110000000000011101011101
00111101001000110000001110011101
00111101000100101001011011111101
10111110000100101011010110011000
10111110011100101111111010001011
10111110011011100100111101101001
10111101000100000011110000010111
10111101100111101011110111101100
10111110000101111101110111000011
00111101100100011101001100001010
10111101100010100001101111010010
10111100101110000001001000101000
00111101101100011101011111001000
10111101111011100111100000000100
10111101111100110101110110000011
00111101101010011001101011011101
00111110001011001010100000101110
00111101100110100111001001101110
00111101111111010101011010100100
00111101110111001010100011001110
00111101100011111001100110111101
00111101100111101101111001111111
00111101111100101011001100111100
10111101000010100000011100111000
10111101101010000000000010001000
10111101100001000010000001101100
10111100011010110110001001100110
10111101100001010000010010101000
10111100101110010001001110110100
00111101011101001000010001011110
00111101010110100101010000000110
10111101100000001111101110101101
10111100110110011110000111010101
10111100100000011010100101111110
00111110000010110100011101100111
00111110000101000000110010101001
10111101101101001110111111110110
10111101010100010000111010100001
00111100101101111111110011010110
00111100001001010100001101010010
10111101111110100101111101001010
10111100001001001001100011100101
10111101100011001011001101011101
00111110001000111110010010000011
00111101100110100100000101100000
10111100110110000011000110010111
00111101001010000100110000001001
00111110001010000001010010010011
00111101100000111011110011000101
10111101000111101100010101111111
00111100011111000101111000100100
10111101101110101110111011000000
10111101110101101110001111010011
10111101100000100101011000001011
10111101111110001101011010101010
10111101100111001010100111100100
00111101100011011001111101011101
10111100101111100010100000110101
10111100110111000100000011101110
10111101101111010001001110001010
10111101100000101001110110000100
00111101111110001110001100101100
00111100000010100100000100100100
10111101000111010110000010010110
10111110001011001000010000100001
00111101001110111100110111010110
00111101010111101000100101001101
10111101100011100010001010110100
10111101111001100101101111000000
00111100001011000100111100001000
10111101001011111000100101000010
10111110000101001010000110011110
10111101110100111011111010010111
10111110001010111001011101101111
00111101011110111011100010001010
00111101110111100010011010101110
00111101011111101011001100001101
00111100100011011110100000110000
00111100100101000011000100011000
10111110000111101011111010101010
10111101111001000100110001110111
10111110000101110010001110000000
00111100110001111101100100001110
00111101101010111101110101111101
10111100110110111010001100101101
00111101100001011101000111111100
10111100100000001110110111111110
10111100001111101101001110010010
10111101101110111111011110110011
00111100000010111011001110010010
10111100011001001011100111100100
10111101101101011010110010101101
00111101001110000010010111111110
00111100100110010011000110011101
00111100101001100111100101111110
00111101110101110000011011010010
10111110000011011001011010101111
10111100101001011000100100111111
00111100111001010001101110011011
10111110000110100111001110101001
10111110100100001011100010101100
10111101111001000100010000001100
00111101000000000101111010101100
10111100101001011100001000001000
00111101000110010001010001101101
10111101100111001110111110001110
10111101110000100101111010111000
10111101110111111100101000110001
10111110010001000111011000110101
00111011111101100001011000100001
10111100100111000101110011001101
00111101011010111000010000100011
00111101101010110101111110001010
00111100111000010110001001011110
00111100101100101011001101001111
10111110000110010110101111010110
10111110000111111111100011101001
10111110001000111011000010110101
00111101111111011111101111101001
10111100100000110001001111010111
10111101000111100011111010001110
00111101001110000100000100100000
00111100001011000100011101100100
00111110001010000010011011100110
10111101101110111110110011110100
10111101110100000110100000110000
10111101100110101110000110011101
10111100111001011101110100111111
10111110010001000011001101110110
10111101001101000111101011110100
00111100100101101001011101011000
00111000010111111111111100000000
10111100110101101100111111011100
10111101100001101111001111111110
10111101101000101010000111001011
10111110100000011010100111110000
10111110011110010010111100011000
00111100110001110101011001111100
10111100100011010101101000011101
00111110000111000110001000010110
00111101101001001100000010101011
10111101001001101110001010000111
10111100110011011111010110001011
00111100101000100000111111011110
10111110001111011001101010001010
10111110000010000111110101011100
00111101111110101001110101001110
10111101101010010111111111011101
00111100011111110011100000001001
00111011110111111101010001101011
00111101010001010101000010100110
00111101111101110101100100011001
00111011011101100100110001001010
10111101101000010011000010000011
10111110011010110011001100110111
10111110010110111001100011101000
10111100101000000100110110011010
00111101100110011011111000001100
10111100100100000110100001000100
00111101110000000011110100101000
00111101010001011001101001111100
10111101000000011111100010110111
00111100110101010000000111101010
10111101101000001111000111110110
10111101110011001010111100000001
00111101011100110011100100101110
00111110000000100010011011011110
00111101110111110000111100111111
00111110000100011000111101001110
10111101010000000000100111000000
00111011110110100001110100110010
00111011100001000001101101110010
10111110010000111011011111101111
10111110000101011011111010110111
00111101001101110010010011101111
10111101011000111111011010111101
00111101100000100100111011010101
10111101010011011011000011000100
00111101111110010000101101100100
00111101101101110111101001001100
00111101101000010011110111010111
10111110000000011011100001110111
10111101100101111101111110111001
10111101011011111011110011011111
00111100001101000110000000110100
00111101110100001100101110010011
00111100110010100101101011111001
10111100011001000110111001100011
10111101000000111011000111001001
10111101010010101110100110101110
10111100111010100001110111011111
10111101111010101000010011001111
10111101001000010111010100111010
00111101110111100101101001110101
00111100110001011011011110100010
00111101000001101011010001010101
00111100101100001010001011001110
10111101111111110100101011100111
10111100110100000110011000110011
10111101001010101101001101110110
10111110001010101100001100001110
10111101100000110101101011100011
00111101101111100111000110110001
00111101000010111111001000111010
00111101101100111010000010011100
10111100110001100001110011110100
00111100001001000100001111000011
00111110000100111001001111101001
00111101100000011000000110111001
00111101011100011010001001000000
10111101110110000011011000000000
00111011100101010000111010010011
00111101110111111000111110001001
00111110001011111100001100001111
00111101110111101000001101011011
00111101001000001100000111001101
10111100100010001010011010000101
10111101101000000000101111111110
10111101001100000001101001010000
00111101100000000000111101000101
00111101000110010000111111001100
00111101100011001000011101110111
00111101001001001011110001101010
00111011101001111110001001111100
00111100010101010011001101101000
10111101111000101110101010111011
10111101111110100000111010100010
00111100010110011011010011000101
10111100101011110000011100100011
10111110000010111011111101010001
00111101011100000111011010100111
00111110000000110001011000011010
00111101100000011010010010111101
00111100111000011111011100001100
10111100111010101000010001101100
10111100101010101000010110101111
00111101111101110111101100000001
00111101011001111110001010101111
10111101101000110111010101001110
00111110000000011100001001100010
00111101100101100101001011100101
00111101001001110001110111001001
00111101001011010001100111111110
00111101010110001101110000010110
10111101001101011101100100010101
10111101111110011010001101111010
10111101011101000011010010110011
00111110000001011111011110000101
00111110001001000101101100001000
00111101111110001100011010001100
00111110011101011100001000011000
00111110000000111000001011101111
00111110000111111110011100011110
00111101111110110110001111000011
00111101100001110100111110101101
00111101010110111110101001101110
00111101000001101111101100010100
00111101101010010010100110101100
00111101010111101000010010001101
00111110010111111100100001000101
00111110010100010001100101100001
00111101011011100101000110000000
10111101000110101111101111000101
10111101101111011101001000110011
00111101110011101001000010011000
00111101000101110100111001000011
10111100100111001110101000010011
00111110011000111111110000000001
00111110001101010100100101001111
00111101010110000111100001110001
00111110000001000100101111111011
00111101010100011111011001000100
00111101001110101000010100110001
10111101100100110000001010001011
10111101010111000111100111001000
00111101100110011111011010011101
00111110100010101010000101111000
00111110011101011000101010111011
00111110100110100010100110000110
00111110000111011010011010101010
00111110010001010010100101100101
00111101110010011111101110011111
00111110101010000111010001110111
00111101110100110100001000101101
00111101100100001101010001000011
00111101111011010000101101000110
00111110100100110000010011001010
00111110101000110100011110111010
00111101011011001000000000000111
10111101100111101000110010100110
10111110000100110101110111010001
10111101011011100101011111101011
10111100010011000100000111000000
00111101011110000001111111100110
10111100010001100101000100000010
00111110000101110000110100101010
10111010000110001101111010011100
00111101110110010110011010111110
00111101101001101001110000011000
00111101010111111101000001010101
10111101011111100000001111110111
10111110000001000011110100010111
00111101000001011101111111111011
00111110010111000001100011001111
00111110100100011000000010111110
00111110011000000000110100010110
00111110010110100101001111111001
00111110100110011111000100111010
00111101110001011010001101010000
00111110001110010001111101111001
00111110100001111011111000011101
00111110001110010001011001100101
00111110010111011000010000001010
00111110100001011011110101110101
00111110110001010100110011111010
00111110100100100011001000111001
00111100110110000011101111010010
10111011100110111010001100100111
10111101110111100001100111111010
10111101000100111100110110010010
00111101010110101000011000100100
00111101111000101010111111011010
10111011100110001000001101111001
00111110000010001000100110010011
00111101011000111100000011001111
00111110001110111000010000000101
00111101100110111011101001000110
10111110000011011100101111111110
10111101110110001100111000101010
10111101111101000100010001010100
10111101011011001101110110101110
00111110001100100111101010011011
00111110001011100001100101101000
00111110000010100110111011100010
00111110001111100101011000011110
00111110011100001111010010100000
00111110010010011101111000011010
00111101100000011110101110001101
00111101101110010110101010111100
00111101000001001100010101111001
00111110000101010101111100100100
00111110001110111101100010110101
00111110101000111110100000100111
00111110000111000101000011100001
00111101100101100001101001110010
10111101100110001001011110100000
10111101011100000100001011011001
10111101011101100101001101100011
10111100001100101000001001001110
00111100111000001001011101111001
10111101110001010010101000100101
00111101010110010011010011111000
00111101110111011110000111011101
10111100101111010110101011110010
10111101110111010101111101110001
10111101111010101011011010010001
10111110010111011100111011101110
10111110010001010000111010000001
10111110000100101001001000101101
00111101101000110100100010101000
00111101110011101000101011000010
00111101101101100101101110001100
00111110001000101011100000100010
10111011010111011010000111010001
10111101000010100100100011111111
00111101000000111110111111101111
10111100110000000001101110010111
00111101010001000100001000100111
00111110000110101011111010011011
00111100110011101111111010001111
00111101001001110111111000000110
00111101111001110101010111010110
00111100110100011001101110100100
10111100011010001011001001111000
10111101100011111001010100111100
00111100110100111110110111101101
00111011100110000111010010010011
00111101000011101010100000111001
00111101011000111100011111100000
10111100110110110100010011111111
00111100100110111010100000111010
10111101101100101110010011000000
10111100110111000111101000001011
10111101111001011101001100010101
10111110011001010000111110000100
10111101100111110110011011010111
10111101011110001110111101101011
00111100011011101010101101101011
10111101110001101001110101111110
10111100101100101111110000100000
10111101011111010100111110100100
10111110000001001101011010100011
10111101100111110100010110011010
10111110001000010011101010001101
00111101000111110111010101001101
00111101101100110001100000010110
00111101100000001101110100000100
00111101110100011001101110101101
10111110000001001001110010110110
00111101010000101010001101000011
00111100101001000111001001010100
10111101000100110100110010101100
00111101110111111000111001010000
10111101010111000100111010111100
10111100001100110001110001101010
10111101100111100000101110000110
10111101101011001101101011011100
10111110001010010001001010011100
10111101101010111100110001111110
00111100111001000101100100011010
00111101000010100100010000011001
10111101011111010001010101001011
10111101111110001001101100110110
10111101000110110001011101101101
10111101000000000100110110101101
10111110001010100100111010010110
10111110000101110110011010100001
10111101110000111011111111000110
10111110010111000000010000000100
10111110001011100111000011110110
10111110001110011010110001110110
10111110100100101001001001010101
10111101101001011101111001111000
10111101100010100000001110100101
10111101100101000100000010011100
00111101110101111111000100100000
10111110001000000101000010101101
10111110000000110001100000111001
10111100111101010101010110011110
00111101100001011111110110100101
00111100011111010001101000000100
00111100111001001111000101100101
10111101000010010001101111000110
10111101111100101101110110000010
10111101010101000110000111101111
10111101010111001000101001000011
10111101100011111101111010010001
00111101010010101000001010011010
00111100010000110010100110111011
10111100000110011011011110001001
10111101001000011100010011010010
00111100001000010000001011001111
00111101000000001010110100000110
10111101101111000101011111101110
10111011110110101100011110000011
10111101111100000000010011001111
10111110101100001011100000100110
10111110010110011011000111100111
10111110001000111100011101011010
10111110100000110001010011000111
10111110001101000110010110000000
10111110000100011010111011100111
10111101111010110001000101101101
00111101110101111000111111111011
10111100111001000101110100110001
10111101110110101011110011010101
10111100010110000001010100101101
10111100010001101010001111001000
00111100101100101111000000100000
10111101101001100010111100000111
10111100011010011010100100111010
10111101100100011101000001000000
10111101101110111100000110111110
10111100001000101111001101011000
00111110001000001011011000000010
00111100101000011100001110011010
00111101100101000101101100010101
00111010001100000000011001001111
00111101101100110000110010100000
00111100100000001010011011010100
10111100110011111001011010111011
10111101110000101001111101001101
10111101001110111101111100110000
10111110001111111001010000000001
10111110010000011100101011000101
10111110010100110001010101110110
10111110001111110111001001001100
10111110011111000001101010110101
10111110010100110100011011000000
10111110001010101100100110110000
10111110000001111010011111110000
10111101101000001110000111010110
10111101001110111010001101000100
10111100110110010001010110101010
00111101001111111001001011000110
00111100100010001101110010100000
10111101001001110001011000110011
10111011111100111000000000010101
10111101001101111011010000110011
10111011111010111000011000110101
10111110000001011011101011110011
10111101110011001110000110110100
00111101001100101010110001000000
10111100100101011000100100011110
10111011011000011001010001010101
10111101101001111100010001000110
10111101110111001100001110000101
10111011100010001001111000011001
10111101000100101101101000001110
10111101101110011000001010000011
10111110001010101010001011010001
10111101110101100010100000110101
00111101010000011010100010111010
10111101000001011111001100000011
10111110000110001010101111010111
10111101111110011011110101101010
00111100011000100111101100010011
10111101100100011011000111000111
10111110001101111001111101110100
10111101100110100010011110011011
00111110001101000000000110000101
00111101110000001010001100011100
00111101000110101110111010101100
10111101010110110110110000101010
10111101101000001101001010010100
10111101100011101001100010001111
00111100111100100100000100110000
00111101100011111101100101000110
00111101010100000011000000011101
00111100001110101100010110101101
00111101100110100111110111101110
00111100100100001010101111111101
10111101101100001100110100000100
10111101010110000000111000001011
00111101111110010001110111101100
00111110001011110110011100110110
00111101111111001000010100101000
00111110010111010000100000001110
00111101000010011100101100010110
00111101001110001011000011111101
00111110000000110001000011111000
00111101110101010100100100010010
10111101101110111000010000011110
10111101101011001111011001011101
10111110010111000001111111110101
10111110010111111001110010010011
10111110011001011000011100111001
10111110010010101001001100011101
00111100101111100010010111010000
00111101101010110011100110001111
00111101001110000101000110100110
10111100011011011001110011111000
10111101101000011010101001111010
10111101100111100011001000000111
10111101001000010111011010010010
10111101010010010010100000111001
10111110000111011000001111110101
00111101100000101001110010110101
00111101101101011100001111111010
00111110000001000011001100110101
00111101111010001011011001111101
10111101110010100011111101011001
10111101100111001010111010000010
10111101101100100001001010111000
00111100100111100001111110101001
10111101010011011110000111000010
00111101101100000000000000000110
00111101111000100101110111101001
10111100000001100001011110100001
10111110001010011000101110011000
10111101111110111110100100100011
10111110000000001110001100010001
10111101000010110101111101011111
10111100110000100110111100010011
10111100110101111101000111111001
10111101001000000101110010100100
00111101001101100001010011100111
00111101001110000101011110110110
10111011001010000010111011100000
10111100111001001110000000100110
00111101000110111011001101001110
00111100000101001000010101100000
10111101100011111111001100010010
00111101110010111011010111011110
00111101101010000010010000101000
10111101010000110010100000000111
00111011100000010111101110111001
10111011010111010011101011111001
10111100111000011010111010101000
10111011101010100111001111000111
00111100001101001000110111111010
00111100110100110100010101100000
00111110010000001100011000110111
10111101100000101101101010100010
10111101110000011111001110100101
10111100010111010110000100010110
00111110001001001101010001100111
10111101000110010110011010011111
10111101100000100001110001010110
10111011101100111110011000110001
00111110000001001110110000011001
00111101100010100010001101110010
10111101000110001010111001000010
10111100100111111101101001100010
10111101001111101001000011010100
00111101010100111111100000010010
00111100010111001111001010100000
