00111101101001001100011110111110
10111101001100100011001011011010
10111101000010110001101111110001
10111100011000111101101011110000
00111011100000000000001011010000
10111100100101010110111101101100
10111011110100001111011110100000
00111100011000111010001010100000
10111100111110011111010000101000
00111011110100010100011101110000
00111101000110101011011010101010
00111100010001000100101011011000
00111101010001011010110101101010
10111101001001100011110001101010
10111101010011101110000110100010
00111101100010110001110010111011
00111101001001111011000110111010
10111010101101101101111111000000
00111101011100101011111001010110
00111011111101110101001100110000
00111100110010001000001010110100
00111101100000101010011100101011
10111101000100001001100111000000
00111101010100001110101101011010
10111101011111110001000101001000
10111101100101100100000110110011
10111101010010100111101110010101
10111100101101111111011000101100
00111101011100101110100010001010
00111101100001101000110011000101
10111101000001100100100110001001
10111101001100100101100110101010
10111101000100011000001101111001
10111100111111011000111001001011
10111101001010100111010101100010
00111100111110011010100111010111
00111101111000100111011010101100
00111101111011010110010010111101
00111100000110100010001001000110
00111101100111111001101000101010
00111101001101100100100000010001
00111110010010000111111000101000
10111100101010100111100110100100
10111101001000100101000110101011
00111101101101001101110001101100
00111101100111000011101001000110
00111101010011000100010111010100
00111110001011011100111011110010
00111110001100100001011111001111
00111101111101011010000111110101
00111110000001110111000001011000
00111100100011110100101101101101
00111010010111100101111011100001
10111101100011011011000100010000
10111100100010010001111011010000
10111011111011101001001111100000
00111101010010111001011000110010
10111010000010001000001110000000
00111101011011111010001100010110
10111100111000111011001110111001
00111101101111110100010110010000
00111101101111010000101100101000
00111101101111111001111000110110
00111100110011111100001100111110
00111101111011000111111111000011
00111110000011000010001010110000
10111011111110100000110110000010
10111100111111001100011000111101
00111101100000110000100101001110
10111101110110101001000010010001
10111110000111101011100110100011
10111101100101001011011011011100
10111101001101101100100000011101
00111100111001111111000010101100
00111101001110001011000000000101
00111110001010110001110110100000
00111110100011101010100100011110
00111110001111010010111100000011
00111101111110000010100000000101
00111110001111110101110111110110
00111110000000000111001110001100
00111101101001100010110101000011
00111101100110111010111111010111
10111101100011100011001011000101
00111101100101011100110110101001
10111101101000001010101101010010
00111100010010010010011110010000
10111101001100001011111000110001
00111110000101010110010000111110
00111110010110011011010000000110
00111101110100110111010011000001
00111101111111000100101101011110
10111011010100111011100011101010
10111011111110010100100101001111
10111101010010010110110011100110
10111101011100001101110110010011
10111100011011101000101011111010
10111101000001100111101110011011
10111011101101111100010011010011
10111101101000010000100101111111
10111101000100101110111110110011
10111100110001111100011000000100
00111101011011101001101010111101
00111110100011110100100011111000
00111110000011000000010101111010
00111110100001110111100101000011
00111101111101100101110011100001
00111101110001111000011011000010
00111110000000010001001010110000
00111110001000011110011010011010
00111110001000001000001010011011
00111100111011111110011000000011
00111100101110111010100110110100
10111011001110111000110000000000
00111101010110011001000101001110
10111100001011001100111010010100
00111101011000000110101001100000
00111101101010010111001110000000
00111101000100101001101010101100
00111101011111110001010010111101
00111100100111010011011100000010
00111100110101001001011001010011
10111101101001010110010010100010
10111101110001101101101001011110
10111101111111111001110000000100
10111110000011011001011001000010
00111101101000110110100001110001
00111101010010011010001000000011
10111101100111100001010111110001
10111101100110101011000011001000
00111101101010100111000100010101
00111101101101111110001100110010
10111101000011011001110100001001
10111101000111111110010001000000
00111101100100100001100111011101
10111100001001110011110001111000
00111101011111000111001100101110
00111101011111011110001011101001
00111011100010100000010111100101
00111110010010010111101100110001
00111101111010000110110011010011
10111101000010010101001011011100
00111100111111011011011111110100
10111100100111011011011011111110
10111110000001101111011000111011
00111101101101011010001100110110
00111101010011101011011101010110
00111110001100001101100100110001
00111101111010011000010001011000
10111110001101010010001001000101
10111110000010101001000011010111
10111110011000110111100101110101
10111110001000011100000110100010
10111101000110110111110100111011
10111101100110010101010111101001
10111110000100110001010000111110
10111101100111010001111100001110
10111110011010111110101101001101
10111110000101000000101001100100
10111101110100001001011000111101
10111101110111110001110010000111
10111101101011101000010101010001
10111101010110100000101000101001
10111110001111011010001001001011
10111101010000000011111000001001
00111101000000010010010001010010
00111101001010100100011111111110
00111101100010000110110100111101
00111101011010100100111110000100
10111011110100010101010100110000
10111101010110100110010111000000
00111101101001000001010101000101
00111011010001010100101010010111
00111110011000010011010101101101
00111110000110101000110010000001
00111101101101000001010010111100
00111101111101000101101011110001
10111110000001010111100001110011
10111101010111010011011010000111
10111110010101001011100001101101
10111101111001111010001110000001
10111110000111100111000110000001
10111101110100000001110110010011
10111110000110101000011000110001
10111110001011111111010100100001
10111101111110100110000000110110
10111101101000000100001010011010
00111001111010011101101100100110
00111101000000001101111110001011
00111100000110001011101111011110
00111101101001010010101010101111
00111100010010111111111101011010
00111101000001010100011111100001
00111101000111001001011011001010
10111011111001011000010011100110
00111101001111101001011011000011
00111100000100010001010010001101
10111100111000100111101011111010
10111101100000001011100000101011
00111100000001011101000000101110
00111100000001010100101110100001
00111101100011100100010110000000
00111101101101110100111001011110
00111101101111111111010000010111
10111100111111110100100001010000
00111100000010101011001111110110
10111101111111011100101111111010
00111100111000001100011001010101
10111110010011000100001100000111
00111101001100011111110101011011
00111011000101010011100100010101
00111101101001010010111100000010
00111110001010110111101000011011
00111101001111001000011011110011
00111110000010011110100111010001
00111110001011010111100010000110
00111101101111010101011011000100
00111100101010010100110010011100
00111101110111110110111010010111
00111100101010000000101111111110
00111101000000000110010011100111
00111110001110011001101010001001
00111101001101000011111111101001
00111100100100110111000010111101
00111010110101110011110100011111
00111101101001010001110110101100
00111100101010001111110101111011
00111100110011111011110111011011
10111100111001101011010011110000
10111101011011011111010011000100
10111100101001001101010111011110
00111101001100011111011111100101
10111101101010010011010101011100
10111101101100010100101101010001
10111101001101011010101000111100
10111110001000011101110111100000
10111101110111010111100110011101
00111101100101110101001011010110
00111101100011100011101111101010
00111101110010101111011100100000
00111101110010010000000101011101
00111110011101111111000010100010
00111110011010100011111011100011
00111110010011011001111001100011
00111101011111000101101000010001
00111101100011001000110110010011
00111101100000010000011001001011
00111100111110111111100101110000
00111101101110001001010010110110
00111110000010000110101101100110
00111101000000110110010101000011
10111011101101100101111101010000
00111101100110000100001100001011
00111101011001110100001111100010
00111101100011011101000001111001
00111101011000000010010101011110
10111101001101001001001101000110
10111101011100010000000111001000
10111101100001110010010010001010
00111101101100011000000011101101
00111011101110001110101000111001
00111110000010011110001010101101
00111101101011000111100001011000
10111011110001100010000000001111
10111101000011010001000100010100
00111101011110010110011000111000
00111101110100001110011010101000
00111110001111011011010100100000
00111110010100011111010011111111
00111110000100101011111010101111
00111101111110010110110101000110
00111101111000110111010101010010
00111101110001111110010100110111
00111101010011011111100010101001
00111101001010000000110010001000
10111011111001001101011111000000
10111101010111110110010011100001
00111110010110010100111110001001
00111110011101011110010001000111
10111101000101010111000000101011
00111100000100111000111111100111
00111101010111011000101011101010
00111110001110000111000101010101
00111101110110110111000010100000
10111110001010010001110001011101
00111101100101100101110110101110
00111100101101111110011100000000
00111101101011100101010010011011
00111101110011100111101010001110
00111110000001011000100111101010
00111001111101000101110011011110
10111101101001100111100001000101
10111101110000110001110111110111
10111101000010010110110001101001
00111110000111100110010011010000
00111110100010111111110110101000
00111110011110001110111101001011
00111110000101101011111110011010
10111100001010011101110110011000
00111101111000101000100100110101
10111100100100011101110100001100
00111011011110110101111010100010
10111100011010111110100101111101
00111101010010111001011010101111
00111101111010111001000001001001
00111110000111000010011110110110
00111110100011001000111000011110
00111101011111101101100010101111
00111100000111000100010101001011
00111110000011011101010101011110
00111100111001111001011010001001
00111110000001101101111101001011
10111101010001110010000010101111
00111101101011001110101111101100
10111101101110110110000001111010
00111101010110111011100111001100
00111101110011111110010110001100
00111101010010001100100111000011
10111101010100000100011000011001
10111101101111111000100010110001
00111101001110111100010111000001
10111011011011110101001101111010
00111101110101110000011111101001
00111110010110010001101010111111
00111110000010000001101110111001
10111101001000000100000000101001
00111101010000110101100101010111
00111100000101011000001101011100
00111010110100111110001111000000
00111101010000111111101101110001
00111110000000110101010110110101
00111101111110111101010000011111
00111110001101000111011101111100
00111110101011010110011111111110
00111101101100000110001001110011
00111110100011001101011010101001
00111110010001001100010101010100
10111101001010000100100011001111
00111100111000010010011000110110
00111101011001010110010001110110
00111110000001110101100101110110
00111110001100000000001101111000
00111101100000001001000000100011
10111101000111101110010001001101
00111101010110100110100111100111
10111101001011111010000110001110
00111100000011100011000101111101
10111110000001100110000001100000
10111101010111001011100101101100
10111110010100111101001101010101
00111100100110001010100000111110
00111110001011101101110110001110
10111100101001000010100000100111
10111101101110111001011101101011
00111101100010011100000011000101
00111101001000010101001110000001
00111101101001011000111000110100
00111101011110000010011000110010
00111101011111001000111101000000
00111110011000001011101001111111
00111110101010010011011011100011
00111100111100011101111110110000
10111100000111000000100010000001
00111101111111000011011010000111
00111101001010001010100011011001
10111100010110010000011101100011
00111101101101110100101010010000
00111110000101100010001110111101
00111101100010010000010011010100
00111110010001011001011011000100
10111101001001000010001000001100
10111101000110000101111110100110
00111100100111100011001001001011
10111100111011111011100110010010
00111101010001010111101110000110
10111101001000101100011000000111
10111110000000000010111101011011
10111101010110101011010101001101
00111101010110111111001000001010
00111101100000101110101100110010
00111100100000000110101000000011
10111101110000001111101000001101
10111101100010110011111011001010
00111101010100001111000000011110
00111100001011010100001011000000
00111010111100001100111000101101
00111101111110010000000110111100
00111110011011000100001010000111
00111110011111000000001011001101
00111101000100111011111111011000
00111100011010110011100010001000
10111101100000111010010101110101
10111110000110000100110001000110
00111100010010100010101111000110
10111100101100001001100101010101
00111101111000010000000110100000
00111100010101101110010011010111
10111101011100010010001111111001
00111101011000000100111101001100
00111110000101000111101011000000
10111101011011010110010000111010
00111101001011101111000011100100
00111101011100111101110001100000
10111010111011010110100100000100
10111101100111001101001010000100
10111101011001110110001100101110
00111100011111001110001000100001
10111101011010001110101010100101
10111100111101011111101000011001
10111100101111011010110000011001
10111101101111101111101000110011
10111101111011101001100111100011
10111101010000100000100101100001
00111101011100000110011100001110
00111110001010101000101111001011
00111101111100010011101001100111
00111110001111010101111110110000
10111101110000110011110100101101
10111110000001011111110010001111
10111110000001011110001011111000
00111001101101010001111101001110
10111011101100101001001100101111
10111101101000100011000101010010
10111110001111010111110001001110
10111101100101111011001111001001
10111011110011101010000101101110
00111110000011100110011111110100
00111110000101111001100101101010
00111100111011010110110110111100
00111110000110100000100011011101
00111110000011111111011000001011
00111100100001111011001000010011
10111101110010101000000011100010
10111101110110100101111111010111
10111101100001110110010101110000
00111100011111100010111100100111
10111101011010011101100001000110
10111101110001101110111111000111
00111100100111101000000101110101
00111101010010011010100101001010
10111101101010110101111111101010
00111101000001000000010100011100
00111101110000101000011110010011
00111101110100110100010111110100
00111101100111111100101001110110
00111101101000110011111010010011
10111101110010101110001101110011
10111110001001000100110000101011
10111101011001111101010000100100
10111100000001010110111100001001
00111100001110000110011001111000
00111101011101111000011001100010
10111101001101011000101110111011
00111101011011011010111101101101
00111110010110111100101110010100
00111110010100110110101111110011
10111100101100111110110101001100
00111101111111001010100011110110
00111101100010010011001000110011
10111101010000110011101101101110
10111101000111001000001001000010
10111110000100011100011110101001
10111101110001100100111111000010
10111110001001010011101010000001
10111110000001111000101001111101
10111100110010000011010011100111
10111101100011101101001000100101
10111101110111011011010010100011
10111110000100011101000010100101
10111101111101011111100111000110
10111110000110100101000011010010
10111100000010110111100000110011
00111101100000011101110001001000
10111101101001011101010011010110
10111110100010100100011001011100
10111101101101011010100111010011
00111100111000110000001100010100
00111101101000110101100110101011
10111011010111100101011111111010
00111100011011001001100001010010
10111100100010100101110100100001
10111101010110010110000110110010
00111101111011111011000011111111
00111101011010101111101101011010
00111101100001101000010111100011
00111110001011101111000001110010
00111110010100100100100011010100
00111001110000100001011001000011
10111101001101111011010100000100
10111110000111100111010000101001
10111110000100110010001001110001
10111101101100110101110000000100
10111100111000000011011000000111
10111100101011010101110110100001
00111100101110110011110010111100
00111101100000010001110011011101
00111100001001000100001000010001
10111100101000100101001110100000
10111110000000110010101101010101
00111101000001110011001110010000
00111101001101100001000010111111
00111101001110110000100011011100
00111011101010010100010101001001
00111101001111101100111011011101
00111101010111000001001110000001
10111100001110010010110010100001
10111100101100111001110100011010
00111100110101100101010100111111
10111110000000110110000011000000
10111101100001100000010110101011
10111100100111110000111100100100
00111100111011000011101110111111
00111110010001011101010111110100
00111101100010111010011001010000
00111101100110101100111110110000
00111100011010000110001000100100
10111100100010010100111101001100
10111101111001000110010000111011
10111101110001111000101010110101
00111101000000010011001110011111
00111101101111010101011110001111
00111100111100100000101011101101
00111110000101000110000000000011
00111100101110111110010010011100
10111101100000100100011000010011
10111110000001001010010100010011
10111110001111000010011010001011
10111101010111000000001010010011
00111101111100100110101001001010
00111100101100010010110010000001
00111100001101000101000100100101
00111101001001100001100011000010
10111101101000001001001010101110
10111100110111111111001011000101
00111100111101110011100101111110
00111100101110110000101100111001
10111110010101001101101111000110
10111101101000111101000101010011
10111100100110011111010000000010
00111101011101000101100100100010
00111101001000000000010110101001
10111100101111011110011101111101
10111101000001110111110111101100
10111101100110000001010100010100
10111100001100100011111011001100
00111101100010110000011100000010
00111101101000101101100010111110
00111101101000110111001101010110
10111100011111001001110111110100
00111100110111110010001000101011
10111100010100000011111100100101
10111101110010111101110101001110
10111110011011110011101100100111
10111110001100101010001010110100
10111101101101010101100110011111
10111101000001001111001010001110
00111101000000110111001010011111
00111101001001010001000011100100
00111101100101100101100011101111
10111101100001111010010001011010
10111100001110011011001110101000
10111101011101110011001101111000
00111101011101010001111101000000
10111101011010110100011111111110
10111110011011011101101011010011
10111110001100000110100001100011
00111101111010010111110111011101
10111101011111000010100010010001
00111100100111110001100011101000
10111101000110000010000010001110
00111011100010110100100010111101
00111101101111011111000000101111
00111100001011110100001111101111
00111100010011011101111100011011
00111101101010111010001001101110
10111100110000000101011111011010
10111100101100100001100000101011
10111101011010101001000001100000
10111100010100111000110111011111
10111110011100001000010111100101
10111110101101110001100000000100
10111110010001111111011100101110
10111110001001110101100110000101
10111110001101010100100000010010
10111101111000110101100100011001
00111101110011110011101001110000
00111101111100000011100011100011
10111101000101000110010111011001
00111100001000111011111011010010
10111100110111010001011011111011
10111101100101100110010000001110
10111110011000011100011010001011
10111101110101100011101001101001
10111101100011101011100101110011
10111100100011011110100011000111
00111101010100001100001010100001
00111101111000001010000101101010
00111101010110010001100100011010
00111110000011011100101011010101
00111100110111111111100011011011
10111101000101101011101010110000
00111101110101011111011111110111
10111010000100100101110010001100
10111101001011100101100011010001
10111101100111100001101010101011
10111110000010010110111000111001
10111110010111000001101111011001
10111110000011010100101100001001
10111110011001111110100001111101
10111101111100000011000111011101
10111101001110000010101110101011
10111101111110000100011110000111
10111101000001000011011010110111
00111110000000101101111110010100
00111110000010010100110100110101
00111011101001010101000011110001
10111100110010001110000100101101
10111100111110111011111111000110
10111101100110101101001010001001
10111101110000001010101010000000
00111100100011001011010110111001
00111101110110011100011101001011
00111101101001000101001010011000
00111101100100010001101000000101
10111100100011010001010111001101
00111101110010101011001011010001
00111110000100110100110000001111
00111101001101100111010001011110
00111101000100110111000010101110
00111101011111000101100110000011
00111101001100011101000001101111
00111101110001010100010110011100
10111101101001111100011001000110
10111110100010000100010010010011
10111110100000000010110000110110
10111110001100001110000000001010
10111101111101000001111100101010
10111101100010100000111101000001
10111110001001001111001011000100
00111010101000011111111100011110
00111100110000000000000101011000
00111011110011101000100000010101
10111100110000110001000100001100
10111101001001010101100000101100
00111101000001010110111010001100
00111100101011110111000001110100
00111100100101110011011100000100
10111101110000111100000100110001
10111101001011011101101011100001
00111101001011000110001110010100
00111110000010010100010001100010
10111110000001100000001000111110
10111101001101110010111010111010
10111101001000100010000011111110
10111101110100111100011111110000
10111100100001100001011100001001
10111011001111110101110111110110
00111101000011001100001011101011
10111101100010101000110100111110
10111110000101111101100100100011
10111101111110101000100001110001
10111101101000000111010001111100
10111110000000110010100010011101
10111101110010101101001011011011
10111101010110001010101111000001
10111101110101000101101101001101
10111101100101011100100011111101
00111011100110111111110011101101
00111101000111000000111011001111
00111100111111101011111011000011
00111101000101010110011100000100
10111101011110000001111011000101
00111101100110001010011100110101
00111101011100011010001101101110
10111100001111110100100011010000
10111101100001110010010101010111
10111101010011000100111000111101
00111110001011001011000100011101
00111110010011011110111010110111
10111101101110000100011011100100
10111101110100000111011100011111
10111101100101011100101101110110
10111101110011101101111011101001
00111101010001110111101110001110
10111100100100100111100111101000
00111101001100001011001100001101
00111101001110111110000111101010
10111101101001011111001010011100
10111100111111111101111101001000
00111100010110101000111110010111
10111101011000000101101100111000
10111101101101011011001101010010
10111101100110111001110010111101
00111100010011010010001110001011
10111101000000000111011101101000
10111101000010010111000000111011
00111101001011011010111001010111
00111101011011111111000000111010
10111101001100110111100011010001
10111100100111001010111010111001
00111011101110111011101001000000
10111101011000011100100100010010
10111100111011000110110100000100
00111011111000001110010101100111
00111101111100101010001111011011
00111110000111001100000001011011
00111100001011011100010100011110
10111011110101101001110011100011
00111101000011111010000101010001
00111101000111010101011100001100
00111101010010100100101111010000
00111101000011111010001010100100
00111101010000000000011010110000
00111101001010011000111111101000
00111100101010001001010100110001
00111011000010010101001111000001
10111101000100110000110111101110
00111101001111100100100110000101
00111101100100010100010001011111
00111101011000001010000001000000
00111011110100011110101111111010
00111110001111110110110010100100
00111110001110011111001001100001
00111110001010011000000111111100
00111110001100110011000010000011
00111110011001001001100011000000
10111101100100001110001010001100
10111010111010110011010000011111
00111101010110001010000000111010
00111101101001010101101111000101
00111101001000000000111111110100
00111011101001111101001101100000
00111110000000010000101011110111
00111110010100100000100000000011
00111110010010101100011101100001
00111110011010110101110110100001
00111110011001011011000110011100
00111110001011001110110111011100
00111110101001101100011101011101
00111110010001010101010101011101
00111110010010001101000011011011
00111110000111110000100101000000
00111110100110111111100101100100
00111110110101001100011000001100
00111101100111110001010010001011
00111110011101110011001100010100
00111110000011111111000100100001
00111110000000110100000011111000
00111110100011111011110101011100
00111110110011100101010110100011
00111110101010001010101001100011
00111110000000000000111001011101
00111100110111001100100011111110
00111101100010010010111001110010
00111100100001111101110010001111
00111101000011000100101001000010
00111101100001011010111111000001
10111101100110110110000010001000
00111101010101100110011111000010
00111101011000100101111000011110
00111101100011101001101100111001
00111101101000101111101101001111
00111101011000101000000001111000
00111101100000000111010111010101
00111101100101111011111100100001
00111101100100101001100100111010
00111101101110110110101001100100
00111110011010001101000011110011
00111101111011111011101101100110
00111110000100100000100100100100
00111110000011100100010100000111
00111110010001101000110101011000
00111110010110111101011010100100
00111101101010000011001100011000
00111110100000110101111101110110
00111110100000100000000111100101
00111101010000000110011100011001
00111110000011011000010011001111
00111001100101000111111101011100
00111101111101000100111001111001
00111110000100001100000010100111
00111100111000000000011011000000
10111101011111111100010111000110
00111101001011000111111100110100
00111100110101011111001010011100
