00111100100111000010110110011001
10111100000100000100011101100000
10111101001010011001010001010001
10111101000001101010011110000001
00111100100100110111110010001100
10111101100101101011111111110101
00111101000000100110011001000000
00111101100111111010110000101101
10111100111000000001011111100110
00111100100001100011110000000100
10111100111111001001101111111100
00111101000111011100011001001100
10111101100001011001001010100100
10111101100110101010000000110101
10111100111111001010111101000110
10111101011010100100010111011000
10111100101000011000101110110110
10111101100011000100011001110101
10111100111101100110010000010010
10111100011101011000110110100000
10111101000101000010100010111010
00111100101101010101110000011000
00111101000001101110110011100100
00111011111100001101101010010000
00111100111100010100011101100100
10111101101001011101001010010100
10111101011011100100000011100110
00111100001100000011111010010000
10111101010100101000000001100100
10111100111101001101000011110010
00111101100100100000110111001011
00111101100110011100100110000101
10111101100110011000011010001111
00111101011110011101001110010011
10111101101010100010010100101110
10111101000010001100111111101110
10111100111001010111100111101010
10111101011101110110111101011100
10111101011011011000000100101100
00111100101001000000110000001101
10111110000001011001000010101100
10111100100100011000001100011000
10111101100101010010011100010011
10111101100100110010000000000111
10111110000101001111111110110001
10111101111101100100011011100101
10111101101101000000100101110111
10111100110011101100001100110111
10111101001010000011010100111001
10111100100001111000110001010001
00111100110101111011010110100010
10111011001110111101101100011111
00111101011000010101000000101100
10111101100110011000110101110001
00111101010100000110100000100110
10111101000110110010111010001011
00111101100111100100110011000111
10111011110110001000111011100000
10111100001011000010111011010000
00111101100101111100001100101011
10111101000000000011001110101010
10111100101111001001001100110010
10111101100001000110100111000101
10111011110111011100110000010100
10111100010011011111101101000101
10111101011100111010101101101100
10111101111111011100100010010101
10111110000110010010110000011000
10111101110001110000000011110011
10111101101000001010001010110100
10111110000001010111100110111101
10111110000101111011011011101111
10111101100111011100111010111001
10111110011110101011100110001010
10111110010010010000100111100110
10111101101111100011110001001111
10111101101100110011001111111011
10111101101110100101111000011011
10111101100010010110010000100111
10111101010011100100101100100011
10111100100011010011110110111001
00111011011011000010000110111001
10111010100010001100110000001101
10111101011010011000111111011010
00111101100011010111000101111001
00111101001001011110101001011010
10111100111100000011001010100010
10111011101110000011110110010000
10111101100110000110001011101111
00111100001011110100101001101011
00111011001001111011010000101110
10111101110001101001101111001001
00111100100111111001111011010100
10111110000110111001001100100110
10111110011001100001111111101100
10111110011011010101001010000100
10111110000111011011010001101100
10111110001011000000010000111010
10111110010100100010001000101001
10111110001010011111101001110010
10111110100000100011100011110101
10111110101010010010101000101111
10111110011010001100111000111000
00111011110101001101010100100100
10111101010101001000111101110011
00111011110110000101011010100010
10111101100101001111100110000111
10111101101100111101011110110110
10111101011111110110011000010001
10111101110000011101011001111101
10111100110001101011110101100001
00111100010110000010100101001100
00111101100100010111100111101111
10111100110010000101101001110000
10111101001010111001010110010011
00111101101111100111100101111001
00111101011111100100011101100010
00111101010011101011001010000110
10111101001101010110101000000111
00111101100011111101100111000100
10111101101101111010010000000011
10111101010100100001010010010011
10111101111001111111010011010001
00111100001111101100110101101100
00111110011010001000100001110011
00111101100101100110010000011000
10111101001000001110000111110010
10111110100000000101011111011010
10111110010011111100011110100000
10111100111100101010001110011001
10111110011011001111010011000010
00111100011101101010111000111010
00111011101011100100110010000101
10111100110011000100111001010000
00111011100101000100100000111101
00111101110110111111110100100110
00111101000010101000111101011101
10111101111001110110001101100000
10111110001110110011100000000100
10111101100010110010010111100010
10111100011001001000011100100101
10111100001100000100111101001000
00111101100011001111000010101011
00111101001100010100110011110110
00111110000101010100101100101010
10111101100101110001001111000101
00111110010110110101000101110101
00111110000100101001110111101011
00111101011101111101000010111100
10111101100111000111101001101000
10111101100000011010001110110001
00111101010111010001100111111101
00111101011000001000111111111000
00111100011100011111100010000101
10111110000101110111010111001101
10111110001101000011111100100010
10111101111100101110001110101010
10111110010100100010111111111011
10111101101010111101011111110100
10111100011111011001100111001111
10111101001010100101000001011111
10111110000111110000011010001000
10111100110011010111010010110010
10111011100010110110011110100011
00111101100000100111110000010110
10111011101011100111111110010000
10111101110101100111011001110001
10111101101110100000001110000101
10111011110000000010010101000100
10111100100011100000000100001100
00111011000100000011001011111110
10111101101000111100101011110110
00111101101110110011011010110100
00111100110101111100011110111100
00111100111101001111101111101111
00111101110100100010110011100100
10111101011100101111111010001001
10111100000011001010100011000001
10111110001001010001001001000010
10111101110011011000011111010110
00111100011011011011010001010100
10111101100010111111010001001101
00111011010000110001001001111000
10111101000001100000001110111001
10111110000000000110000000110001
00111100001000110011011111110100
10111100011111010000100000010101
00111101100100111010110000001110
00111100100100100110001000101111
00111001111011111001000110110000
00111101001010110101010010001100
10111101001011000010111011011000
10111100111111011101000010101001
10111101100100111001011100001010
10111101110010001000101000101011
00111101111100000110110110110110
00111101010001000111111011011000
10111101001001100001111100111100
10111101111111010010000110101101
10111101000010101001110011100000
00111101111100101111010001110110
00111101101000111000000001000100
00111100000110111011000111010000
10111101000100001011111101111001
10111110010011111011100001010000
10111101001101000101001111001101
10111101101000010110000011111110
00111101100110111001111101110100
00111110000010010101101010111110
00111101110111010101001110101110
10111101000000111001011100000000
10111101001001100011001010111010
10111110000101001101000001000001
10111010100110011101110101001100
10111101010110111001000111011101
00111100101010110011111101001110
00111110000100010010011111110000
00111101111100110110101101101011
10111100111001100101101110000001
10111101001010010100000011100110
00111011111000010000101011010111
10111101010101010101001010010100
10111101011001100101000110100100
10111011000110001100011010001111
10111101100000010110011011001110
10111101100001100110010001001011
10111110010001110010100010011010
00111010100010110010000010000101
00111101111110000110100110001111
00111110010001000101001011110010
10111100101101110111010011011001
10111101111101100011001001011000
10111110000001011001010011011011
00111101001010000110000001101100
00111101111101111110010101111010
00111101100100110100111001001110
00111101001011011110101010001101
10111000111011110110100000010000
00111101001011000010111101110110
10111110000001001000001000110001
10111101111110010101111011100000
10111101110001010001111101001101
10111100010111100110001110100010
00111101101011110001111011110110
00111101010100111000100111111101
10111100110101010100101110100010
00111101110000101000011001100110
00111101010101100010011010001111
10111101111010011100001111011111
10111110001000101001010110111110
00111101111100111101100101100101
00111101011001100010010001110010
10111101101110000100100010111011
00111101011011010110011110110000
10111101110111110111011100001100
00111100110011101100101001110110
10111100101010001001110100001011
00111101111100110001101010111100
10111101111111100101001001100110
10111110011101000100111110101100
10111101100101111110101000000110
00111101101010000111111101110011
00111110010000110011111101100100
00111110010000010110101011101110
00111101100001101111010010100010
10111101011111000010100101101010
10111101100111010001011000010110
10111101110000100101001001101010
10111101011010101100111101010000
10111100000010010110001001000100
00111110001100011011100111100101
00111101010111101011110111101001
00111101010100101011010110110001
00111101101101011111111111101011
00111011010111110000101001111010
10111101101000010010001010100000
00111100000010011100101011111010
00111101100010110010100000011000
00111100110101111110101000000000
00111101000010111010100000010110
10111101001001000101111101010000
10111101010011110111101000010010
10111101001111001111110001111001
10111100110111011000110100010100
10111101001000011010111001110100
00111101011010000001111001000110
10111101000101101110001101101011
10111110100000001110010101011111
10111101110000011000000111001011
00111110001101110011010100011111
00111101111100011101000011111011
00111101001110101011001101101001
00111100101011111001100100100100
10111101010111001000010101011010
10111110010011011111010100010110
10111110011010001001101001011111
10111101110010111000101111110100
00111101110100110100000100001001
00111101010011000100001010000111
00111101100100000111011010001111
10111100100000010110010111101110
10111011101011110101101000100111
10111011111101011011111100111010
10111100110010011010101001101000
00111100001001001010001001001011
10111101110010110000011000001111
10111110001010000111100111101100
10111110100010000010110010001011
10111101100011110010000111010100
00111101110000111011001100001101
10111110000101110100000111110010
10111101011011001101011100011111
10111101001011110110010111110100
10111110000110011100111001011000
10111110010000101110010011111100
10111110000010000001001011010111
10111101101110111110010111010000
00111101111111011101000101010100
00111110001000011101111001101001
00111101100001111010000000000110
10111101000000011101100000101111
10111100110010111110011001001110
10111110001101001000010011111100
10111101011100000011010010100000
00111101010010010110000010101101
00111101100110100010000010101111
00111110010011111111110110001101
00111110010110100111111000110101
00111110001000000100010100101111
00111101111110010010001011100101
10111100110101101011011101111011
10111100111001110100010110101001
10111110001001001110100001111100
10111110000001111000010000011101
10111110010110011011001001101101
10111101111111100011110001101101
10111100110100100000110011111110
10111101001100000101010011100011
10111101110100101000011101101001
00111100100011110001100100110011
10111101110011001000100010000000
10111101101111111111101011010001
10111101111111110001010100010110
10111101110001101001110100111011
10111101111100101010010101100101
10111011100100010001101000000111
10111100101110000011010101101101
00111101001001111111011110101011
10111100101111010001111101100101
10111110000100100101101111010011
10111101100011001110000100100000
10111011101111110111010000000010
00111110010001011000111101011001
00111110011011001000100111110001
00111110010100100110110010101010
00111110010001100101111100011010
00111101110001100011110110001011
00111101101011000101001110011100
10111011011101111100011000110010
10111101110101001011111100111000
10111101000110111111111011001001
10111101110111000101111100111010
10111110011111111011011110010001
10111110010111100100111011010010
10111110010101001101001100011100
00111101001001100100001111010010
10111101101101010001001001011100
10111110000100001111100111011011
10111110001011100101011100111101
10111110000010111011001010010001
10111110100010100101100010111111
10111101101101101101100001111001
00111101100101110110101000100101
00111101101010101110110000001101
00111101011001010101111111100000
00111100001100011010101001101011
10111101100011001101011100001111
00111011111100111000011000111110
00111101101000011101110110110000
00111101100101111111010110101101
00111110100110100001110110011100
00111110011110100001001001001000
00111110001111001101010110110000
00111110010101101011001000111110
00111101010010101100010000101000
10111101110011110111100101100010
10111101101110110100000101111110
10111110011001110010111101011011
10111110001101100001001101111110
10111110001000111111111100001010
10111110001110000011101111101000
10111110000011010100100000110011
10111101011101101110101010100111
10111011111111101101010010000101
10111101010001110000000001010011
10111110000001110010011001011100
10111101010001001100110101111000
10111110000101010110001000001100
10111110000010001000111000001100
10111110011000011101011110101000
00111101011101100100001100011111
10111100110101011000111001101101
00111100010111010101101001100011
00111101100000001111100100110001
00111100111011111110110011000110
00111110001001110011100001010000
00111110011010111110001000011001
00111110100011000000001011111010
00111110100001010100111011011101
00111110001010001110010001110111
00111110001101011111101000000101
00111011101110001011110001010011
00111011100001000011010101111011
10111100101101010101011111010111
10111110100101010101110111100010
10111110100011011000010010101001
10111110011001111001101110100111
10111110001110001100000110111000
10111101100001001010111101000011
10111110011001011011001100110101
10111100101110011100111011001000
10111101011010101000101101110100
00111101110101101110101010011001
00111100110100001100101100111101
10111101100110001011011001010011
10111101011101111100110110101110
10111101101000011010011001110111
10111110011000110001101101000101
10111110000000100011001010101100
10111110000010001010100111110001
10111101100000110101001100001000
10111100111110000100111111110101
00111101011100101011000001000011
00111101111001000001100101010100
00111110010111000100100101000010
00111110000000111110110011101101
00111110010000100111011010110000
00111110100111000101001100011000
00111101100011010110111011010010
00111101100001011001001010001100
00111100101111000011110100010100
10111101110101100111101000101001
10111101101111110101101001101110
10111110011000101100001001101000
10111110001111111000011110111111
10111110010101100110110100111111
10111110001100111100110101100101
10111101101110100101101101010011
00111100010000100110011001010011
00111101100110110010110110011101
00111100110000100110010100101010
10111101000110100011011011100000
10111110000000011001010111000100
10111101101000100011110011111101
10111101111111001110111101010010
10111101001110011010011100011110
10111110010101110010110001110001
10111110100011101100110110100000
10111110010011001001001111001011
10111100010011101001101101001110
00111101001101110111101110010001
00111101111110110111111111011001
00111101011111110010011101011100
00111101101001010101111010101100
00111110001101001101110001100101
00111101001100111000001100111000
00111100101100101111011000110010
10111101000011110010111000011010
10111110010100101111111100001101
10111110011110011011000101100010
10111110000100111000000000111100
10111110010101111001101011001011
10111101000000001001010111111000
10111110000001010011101100100010
10111100011010110100011100111111
10111101101011110100110111001010
10111100101001111100000100111010
10111101100000110001001100010011
00111101110011100111000111010100
10111100100110111001010111111010
10111110001001101111011111010001
10111110001011001111111110100000
10111101100100110001010011011011
10111110011001111010001001100010
10111100111010101011101110011011
10111101111001000011101111110111
10111110100000011011000110011000
10111110010010011101000110110100
10111101001100100110101010110010
10111101011101001010100001000001
00111101010010001011110000010100
00111101100001001011000110110111
00111101110100001110101000011011
00111101101100111010100010100011
10111101100010111101000100110100
10111110010001111011110111110010
10111110011010111111100001101011
10111110100000100100011011101100
10111110001100111111101001111111
10111101001110110101001000110011
10111110000001010001001111011110
10111110001011110110101100101101
10111101100111010011000100001110
10111110001000010110001000100011
10111101000011011011000110101001
00111101011101100100100100010010
00111101011110100001101101101000
10111101011001011101000110000111
10111101100110010010000000001000
10111011110100011001000011110100
10111101111011000001001001000101
10111101111111010000011000111101
10111110001111001100101011001001
10111110000000001010110010000001
10111110000111011111000010111010
10111110011110001010001111101001
10111101110011010011101110000111
10111110010000110100010000011100
10111101110011011110111111111000
00111101100011000101010111001010
10111010100010011000011101001001
00111101001010010001101111011011
10111101111100111000110001001100
10111110011100111001111001010011
10111110100000110101111110001000
10111110100000100101111000010000
10111101110111111110000011100001
00111100111011011011101101010101
10111101101011100111111111110110
10111110011000001010010111011110
10111101111111110010101101111001
00111101010111000100110010100101
00111101100100000011011011100010
00111100110110100011111110011111
00111101111100001001111000110110
10111101101000011101101101110110
00111100100000110110110111110111
00111011010110010001100011010110
10111101010010011101111101101011
10111101110111101010111000000001
10111101001100000000011110110010
10111101010101000100111010001000
10111110000110011110010111000011
10111110100001110011010101111010
10111110011101010111100010011000
10111101111100010001010101101010
10111101101110110110100110111111
00111100111011111111010101000101
00111101100000111100000011000011
00111101101101001011001010101110
10111011000110101011100001011111
10111110001110001110110011111101
10111110011000010100001000001110
10111110100011010000111101100011
10111101011001010001110101000111
10111101110011101100000110000110
10111110000001010000001011011000
10111101111001010111101111011010
00111101100111001011010101010000
10111110001001001111101110110100
00111101110110010110001101011000
00111100000010101001011000101000
00111101110001010001011110110111
00111101111101011101011100110101
00111101111110011100011111000100
00111101111010011001110100100111
00111100011000001101111001001011
10111101000010001101110100110011
10111101110100111011100111110110
10111110001010110100011111111111
10111110000011010100001010001111
10111101100000011001111100100101
10111110011001100110010100110110
10111110000010011110111001110111
10111110000010011000000010011101
10111011011011010100001110101100
00111101001101001011001000111110
00111101100011001001000011000011
10111101001000100110001110110110
10111010001110010101111001101000
10111110000000011011111100111100
10111110000100100010111110010011
10111101011001110110001010011111
00111101001110100010110101110001
10111101011111101101110011101100
10111110000111110111110011101001
10111101011110101001101010011000
10111110000011111001000101010011
00111101011010001010000000111010
00111101110101010100011000001011
00111101010101110001101100010111
00111110000011000111110000010001
00111101101100110101101001000110
00111110011001100111010010111001
00111110010110100010101110100111
00111101101010100110110100001100
10111101100000000011101101100001
00111101100000110100000101000110
10111101001101110010111010111110
00111101011001100101000101101100
10111101011111011010010001111000
10111110010011100101111001011001
10111110000010101001110000111000
10111101001011001010101001011001
00111101100001011101001110011111
00111101000011101111011011101000
00111100101011011011100111000101
10111101101111001111001111001100
10111110000111100111010010001110
10111110001011010111100001000111
10111100011101001000000101010010
10111110001001111000001100010110
00111100110000110110010111000110
10111101110000101011010011011111
00111101111001110000001100011110
10111110000010110100000100100100
10111100100100101110100010010000
00111100100110110101001011100110
10111101010111111110100110001000
00111101011001101111100011110101
00111101101000100010010111011111
00111110000000000010000011110110
00111101111100011110111011010100
00111110010011111000100001011100
00111110000011000111111101001010
00111110000010000010111101001110
00111101010000110101110111010101
10111101110010010101100100100110
10111011110010010001110110110011
10111101001101010011100111101001
10111100100011001001110111111110
10111100101111001110100011110011
10111101010101101100001010100001
00111101001001011000010111001111
10111101110000101011000110100111
00111010101100101001110100000100
10111110001000100110110010011111
10111101100101001011101001101001
10111100000111010010010101001110
10111101101010001101100100101100
00111110000011100100101111100010
00111100110101001010111111100101
00111110001101001101100111110110
10111101000101100101011110010011
00111100010000110111000110001000
00111011011000100000010010000000
00111101010000101001011100000010
10111101000001000101101000000111
00111101010100101100100100001100
10111101100101110111010111011100
00111110000100111011000000001101
00111110000100110000101110010101
00111110000000100010000100010100
00111101101110111111100110110111
00111100110100010000010101010000
10111101101110001010001100001111
10111100101011100101001011000000
00111011100100100010000010010000
00111101100001000011010110111100
00111101010000001000010001000100
10111101010100011100011010001000
00111101011101111000111101101111
00111100100001000100010110011110
00111101111010110000101111101000
10111101011100100101000100010100
00111100100001000110001101110011
10111101101000001101110000000000
10111101010011000001011001011000
00111100100111001011100101100110
00111110000111111110010110110000
00111101111110111110100100101101
00111101100011101111011000101101
00111100011001100101101101100000
10111101100111100100100000110111
10111011001110011001101100000000
00111101110001001001010111100001
10111100100100101100011111111010
00111101101100111010110101110110
00111101101011000100010011010010
10111101101010111110110111000001
00111011110001001101010110100001
00111101011010001111011110011000
00111101010010001011010001111001
10111100100111011001110010001010
10111110001011110110011101100111
10111110000011010001110101011101
10111101001111011100010000101000
00111100000001111010111000110011
10111101101011000111110110001111
10111100100011111111001101101000
00111101101001011000010111101101
00111110001000100101010110010111
00111100110011100111101010100000
10111011101011111100101010011110
10111110000000001111011000011011
10111101011011010101001100100101
00111101001001010001011011011100
10111101101110101101100010111000
10111101111011000010010110011111
10111100101110101010010101000101
00111101000001001101010000100100
10111100011010011100010001111000
10111100111101000000011111111110
00111101111001000111100111010110
10111101011001000110100000011110
10111101110100110010101010010001
10111101110000111000111010101101
10111110001100010111000110110100
10111101110110000110011000110000
00111101000000011110011001101110
10111101010000000001101011000101
00111100000010111110010101110100
10111101110101100011010111001111
10111101001110111101111011011111
10111101001001000101001011001100
10111101000101110011101111001010
00111101010110000110001100001111
00111101101011110101010100001000
00111110000111010101100000010111
10111100110011100100110000011101
10111110010011100111110011111011
10111110000011011001000011011010
10111101011100111110011101101100
00111101110001100010100011110001
00111100011100100100110101110000
10111011101110000000100010000110
00111101001000110111101111110011
10111110000000001100010000100000
10111101101001011100001001101010
00111101100110001010110100001101
00111101011001011011000100000110
10111101101001000010111100011111
00111101110101011010000111100100
00111110001011101100011000111001
00111101100110000100010101001001
00111101011111111111001110110011
00111110000001110110011101100111
00111101000000001100110100100111
10111100001000001110100011000000
00111110001011011101110000110100
00111100111110110110101001111100
00111011101110010001011001111011
10111110000001010110001100000100
00111110001001111010110001110111
00111101001000100110101100101110
00111101001010101001100110011001
00111101011001001101101100011101
00111101011110001101001110100011
10111100100111110010110010101100
10111101100011010001101110100111
10111101110001111000001001000000
00111100100111000010101101000010
00111110000111001001101010100000
00111101110000100001111100100000
00111101000000101010011011100001
00111100101111101100011011001000
00111100111100101001111111010100
00111101101000100100000000101101
10111101100000000001000111011100
10111101100001011101100110101010
10111101100101101001001001101101
10111101111101001101000010011100
10111101010001011011000100010100
10111101110101011011001100101000
00111100000110001010110111111100
10111101010011111000011000001111
10111101111100100011110011111010
10111100111001011101101001110011
00111101100110010101100000010110
10111101011111101101001011101000
00111100110101100111111100000111
00111101011110100001100010000001
00111110000111000110010001100011
00111011101100011010010010011011
10111101000101001010110001011110
00111101100100000101000010101011
10111011110101101101110100101001
10111100101001101000110101100011
00111100100101010010011011011101
10111100111101111010111010111001
10111101100101110001010101101000
10111100110111100001100101111000
00111101010011100011001010000110
00111011111011110111000000000000
00111101010001010101101011110010
