00111100101001011110111011100110
10111010101001101100000001000000
10111011001101010001110100100000
10111101011110001010101001100110
10111101001011000010111111010110
10111101101001000100000010100111
00111101100111101001111000010001
00111101100011111100100110101001
00111101011100101010010000011110
00111100000100000011111010111000
00111101010011010000100100110110
10111101011001111001010011110100
10111101101000010110111010000100
00111101100001110001011100000111
00111101101001101101100111010001
10111101001011001110100101110110
00111100000010111110000110111010
00111100010110000011001000111000
00111100111001000011010111000100
00111101101000100100101011110011
10111101011001000010001000101010
10111101010000011001010101100011
10111101011011000010001101100010
00111101001010001100111110010110
10111100101011010000101110000010
10111101100011110010101010101111
10111100011101000010110110011000
10111101000000010100101011010100
10111100011110110100110111001000
00111011110110010000110100110000
00111100111111101101111010011000
00111101001100010001110100000010
00111101101001001010011111000011
00111100111110010100110011110001
10111100100111011011111000100101
00111101101001010111110111010010
00111101001100111111110011010011
10111011100101000110010111110010
10111101010101111011001100100110
00111001111001111001111110101110
00111110000001100010000011110000
00111110010100110000001010001100
00111110010000001011111110000011
00111101110000010100110100000011
00111110001000101101100101000001
10111011110101100010111011011110
00111110000111110000010111101000
00111110010000111101011000100010
00111110010111101011111010000110
00111110100001001010110110101010
00111110011001100010001111001100
00111110000100011011111010000011
00111110000101011000101100001011
00111100101001100011101001110100
10111101011001000011100101011100
00111101001101010100010001011110
00111011110011000111010101000000
10111101100100000101110001011100
10111101011101000011110000000111
10111101000000101101011010101010
00111101101000010011101010001000
00111101111000100010111001001001
00111101000000001111001011101110
00111101001001101101011110111110
00111101111110100000010100001001
10111101001000011110000001110000
10111100101000010111000011010000
10111101100100010101110000000011
10111110001100111101001001000111
10111110000110001010000011000111
00111100111100100011110110010100
10111110001000101011110101100010
00111011100001001010100011101001
00111110001000111110101110001110
10111101100010010101001101101100
00111101001011110110001100101100
00111101111110001100111000011110
00111100011011110000110111010010
00111101000011110111101100101011
00111110100001110101111000000100
00111110100010011000110111000110
10111101100001011011100001010010
10111101000011010111011000001011
10111100111100101000001001100010
10111011111110100110001100010000
00111101001000001011000110111010
10111101010101111000101001010110
10111100001010001101110000011011
00111110001011100010011011011110
00111101001011001101101001111000
10111100100001000000010011101100
00111101110001111011000101010110
00111101110110011111011001010110
10111110001000100011100010001001
10111101100000100100011011001110
10111110000000111001101000111111
10111110011111010010011011010001
10111110101000100001101111011011
10111110011000001011010011111110
10111101110110111111100101011110
10111110100001110100001110100000
10111110000110101101100011000111
10111101111110001001111101111100
10111100001001000000000001000101
00111101001101010100100000001101
10111101110100100001011110100010
10111101011001000111000010111011
10111101100101011110110101010100
00111110000001011010110111111011
00111101000100011010010010110100
10111101100101111010100000000011
10111101101000111011011110001110
00111010000101111100101000000000
00111100011110000111100000010000
00111011111010000100011111000000
00111100011010000000001010100110
00111101001010000100010001000001
10111100100010010011000101001011
10111101011000101110100010000011
10111101001001011010101101101100
10111101101010011100110100000101
10111110001110010000111000100101
10111110101000101100000000011000
10111110010111101101001010011101
10111110100000000001100011111111
10111110010000110010001011101110
10111100011001011011011100011111
10111101111010011011000101001000
10111101000111111010010000110001
10111010001110011110101111011100
10111100101000101010011011001111
00111100111100101001110110101110
10111101000001100001111000000110
10111101001010100000100010110010
10111101100001100000011100110111
00111101000010000100000111011101
00111101100010010000101110101101
10111101111000000001100100000110
10111110001100010010101100101110
00111101001001100010111110011010
10111101100001000001000000000010
10111100111001011000100010001000
10111101000010000001110100111110
00111110000010010011110001100100
00111101001111011000010001111101
10111101000100101101001101110100
10111101110100010010010101111101
10111101010101110000001110100100
10111101110101001110000001010100
10111110100110101001111111010011
10111110100011110100101000111001
10111110011010111010010010101110
10111110011111111100011101001010
10111110010000110101100100110010
10111101010110011100110000110111
00111101101111010011000011001001
10111010110000011010110101110111
00111101101100011110001111010110
10111101100100110010001110011001
10111100101001111010001001000010
10111010101010111010100011111001
10111101001010001001111011001110
10111101100000100100111010000110
10111100011100011011100100110001
00111101101010000101100101110000
00111101000000100110001010110100
10111101101111001010011111101101
10111101100111010001110001111111
00111101001011110010010101001100
10111101010010000000100001001011
10111101100000000011101101110000
10111101101101010101001011100110
10111101111001110001100000101110
10111101110001001010011011111100
00111101100010010000000100010011
00111100011001011110110111001101
10111110010110110011000111010011
10111110010110010100010111010111
10111110100101010110010111011011
10111110010100101011110110101110
10111110000000100111101101010000
10111101000100100010111000101000
10111101100100100001011111011001
00111101101001101110101111000110
00111011011110000010100001110000
00111101011001001011011000000010
10111100101100001110100001101000
10111101110111010100001101000111
10111100110101110001001101010101
10111100110101111011110101100000
10111010101000110001000011010011
00111101000001000010110001000010
00111101001010110111011011100001
00111101111011101101100001011010
10111101100101100100111011100011
10111101001001001010101100001001
00111101000100001110110110010011
10111101100100011010001101001010
10111110011000011100111111001001
10111101101111010010000111001110
10111101100100100110100110100001
10111110011001001010010000000100
10111101101111101110111100110011
10111101111001101000000110111100
00111011111100111100010010101010
10111110010101101100001010001011
10111101101110111001001010100010
10111101111100010000011100010100
00111100001111101100100001110101
10111100100101111101111000011100
00111101101000001000011001110001
00111101110001011000101011101101
10111100000111001101111001110001
10111100100100110100001011110100
00111011010111001101011100010000
00111100100101110111011000001110
10111101100101100011100001010011
10111101101000000011000000111110
00111100000101100101000011111110
10111101010000000001001011100001
00111101010100011100011111111111
00111101101110110100000100110101
10111101001100100101101100010010
10111101000110011100001100110001
10111101010001111110100001001011
00111100111100110010000100010100
10111101111101000000110000000110
10111110001011101010001110001110
10111101101000111001000111101001
10111110010111110110101111100011
10111101100111100010111110011000
00111101110101001000010110101110
10111101000011100100100010000100
10111101101100111000011010010011
00111100111000000010101100000110
10111101101110100000001101100001
10111101001110010001011111000000
00111101000011011011111011101100
00111101110101010111000011101011
00111110001010101101011100100011
00111100110110011110010010000001
00111100100111111000100011001010
00111100111101101100010010111000
10111101001101110001111110100001
10111101000001101110000101001100
10111101101011000100101001101110
10111101010111001101010000111111
10111100100000110100000001100010
10111100100011101101111001110011
10111100100001110010100111000011
10111101011110001111101001011111
10111101011010101110100111101110
10111101001010111001010000111000
00111100110101001100110010011000
00111011111001111110100010111000
00111101000100111100110110110001
10111101111101001011001100001101
10111110001100011110101100000110
10111101010001110111100111100100
00111101110000100010010111010111
00111101111001100111010110100110
10111101000010101101001101010001
00111100100011100100111100010011
10111101101010101000010011100000
10111101001101111000110010001000
10111101110111101110100111000000
00111101111001110110011011010111
00111110100100111011100101100111
00111110010001111110110111001111
00111110000110110101110100101100
10111101001011001000110100001010
10111011111111101011000011111100
10111110001000001100011101011110
10111101010001101010101010111110
10111101101110001110010000000000
10111101011100110001100011001100
10111011100001110101001011111100
00111110000011000110110110101000
00111101000111110001000001110010
10111110001010000111011010111011
10111101011111101011111100001010
10111011111111010000000000110000
10111101001111010011000110100000
10111101000111011011101011111001
10111101001000010000110101011110
10111101111000101010100011000011
10111110000101101000010010100111
00111101111111101010101010000011
00111101111101110010000010111001
00111100111000100010100111000000
00111101000101011101111010101011
00111100000101101101001101010010
10111110001011010001110000000011
00111011011110111000001111001101
00111110000111010001001000100100
00111110010010000001000110110001
00111110010011100100001111111001
00111101100101001100000101100001
10111011111010110010011001011000
00111100000001111001110110110101
10111101101001100111100110100111
10111110000110011000010000100011
10111101100000100111110000111011
10111100111110100001011000110011
00111101111010010111110000011101
00111110010110111111100010110111
10111101100001111000001011001100
10111101010110111011110110010110
10111101000000011001110100011101
10111101010010010100101010010110
00111100110000001011010000000100
10111101100101010110101110110110
10111100111101100001010001100000
10111110100001000010100011100001
10111101100000100110000101111110
10111100110101001111110100000001
00111101011010111111001101110001
10111110000001010100010010010001
10111101111100000101101001110111
10111110000001111010010000011011
10111101111111011100010111000110
10111110001001100100111001001100
00111101110111101111101000111011
00111110001000100111010100111110
00111110010000100000100000000000
00111101101100110010010000011001
00111101100100101100110111111111
10111101011010101000011111010001
10111100010011101001101100001001
00111101000010110110100010010100
00111110000011001110100111111100
00111101101011010100000101010000
00111101101101111001001101101010
00111101111011000000101011101101
10111101111101011111001011100000
00111101000110000011111101110011
10111101011010101101101010111110
00111100010000100101100000110000
00111100101110101100100100011100
10111101100110011011010100101000
10111011110101101110100110000110
10111110100010100010110000100111
10111100000110011111110100111111
00111101001100100001001000010001
10111011100011011100100010100110
10111101110101000101100100001111
00111101111011001100110101000110
00111101010000110001100111001101
10111101001010000010101100011110
00111101000100010001010001010110
10111101110000001110001000000110
00111101000011000011111011011101
00111100011100101011101101100000
10111101100111001100101000110110
00111100110110000111000100110001
00111101011000000100000001111001
10111101011010001100110110110111
00111110000011001011000011011110
00111110001111101001101000010001
00111101101000000111111101000011
00111101001111010111000001111000
00111110010101111000000011010010
10111101001000101101001011001001
10111101110100010010011110011101
10111110001101000110100101110010
00111101101111010100110010010010
00111101110010010110010101101010
10111101100110100101010111100110
00111100101110001010001101110010
10111110010100101010101011000000
10111101000100001010110100101111
00111110000000100110100100101000
00111100010001010101011011111100
00111101100000010001100101001000
00111110001001101100001000100100
00111110000110100111101101000101
00111101011101010111010000010010
00111100000011010101011110010110
10111101111010010000100011111101
00111101001101110100101111101000
10111101100000011110000001011001
10111100110011000111100101111011
10111101000110110000100111010001
10111101100000001110100000011010
00111011101110111001010010010100
00111100110010111001000010100001
00111100110110000110011111100110
00111110001000011011011011100110
00111101101000010101111011101010
00111101001101011001111100101001
00111100110111001000001110010100
10111110011000100110110000000100
10111110000000111111110001010010
10111101000110100101111000111011
00111100110101110101101111100011
10111101011111001011001010111100
00111101010111110010101010101101
10111110001111010101011101001000
10111100101011001111101101000101
10111101011001111011100011011100
00111101101000001010101011000010
00111110001011000110110111100100
00111110011100111000001111100100
00111110010010101010000000110011
10111101000111110001010001100010
10111101101001111011010111100010
10111101100110011101000001010000
10111101111110100101100001010111
10111101011011101010111011011111
10111110000100010000101111000000
10111110000100101111111101010100
00111101011010010010010111000001
10111100111111111110000101110000
10111101010001101111010110001000
00111101111001011001010101110011
00111101101001011001100110111100
00111101111011111101011001101010
00111101101110111011100101010011
10111101000000111100010011100110
10111101101001100001010101111101
10111101000110110111100001110111
10111100011111100100001011000001
00111100011001111101000010000000
10111100101010000001000110011001
10111110001111011101011111000011
10111101100000011011100100010110
10111000011110101110101101110000
10111101100111011010101011100100
00111110001000000111001001010110
00111110010000110001011001011001
00111110011000101011101101011010
10111011111100001100011000000100
10111101011011111010101110011101
00111101011100001000011011110000
10111100101111110111110000110101
10111101110111110110010110010110
10111110001100011010000110010111
10111110000000110101010010101110
10111101001101100100010110000110
10111101000001000101010111000111
10111101100001100110000110010011
00111101110010110011101101001010
00110111011010001110111011001000
10111011010001001101101100000001
00111101101100010100101001010101
00111101110110000110110101011000
00111100111011110111010100111000
10111110011100101001011001000011
10111110000101101110111110010111
10111101110010000010110000010011
00111101001001011000001010001010
10111011101101100100011101101111
10111101111101110111111111001001
10111100101111001011100110001011
10111101100100100000101110011100
10111100011100010011000111111110
00111101000100101110010101010101
00111110000010101111100000110101
00111101101111101111010001000101
00111101100000101011000010111010
10111010101000100111010001110110
10111011100111000011010001101011
00111100100111110011001011111001
00111101000001001101101001010110
10111101101011111010010011000101
10111100100010010110100001101011
10111101111001101100010000100010
10111100000101001010000001110010
00111101100111000100110100010111
00111101000001111101001011110111
10111011101001110010010010001101
00111011010111110110110100010010
00111101010101110001010100110111
00111110000010110110000011001101
10111101111110001110010101110101
10111110011101101000110111011011
10111110000110100111011101011100
00111101100000010101110111001111
00111101100011000101000010101001
00111101000010001101110101010101
00111101010000111100110001101011
00111110000000010101010011111000
00111100111010100100100001001000
10111101101101111000000011001000
10111101011001101010110011001011
00111101011011011111001110011011
00111101100100110011111100010010
00111101100011011001011111010101
10111100101111010110000011101100
00111100101110110110000111001000
00111101101100011000101110110110
00111101100100111110011000001101
00111011110111010110010100000111
00111101001011100010110111101010
00111100011001110000011001000100
10111011100010010101011111111000
00111101110011110101110000001000
10111101001110001110111110111001
10111101101100010000101111001010
10111101100010000010010110111111
00111101110000110101010100101101
00111101100010011001110010100100
10111110000101001010001010101011
10111110001011100010100110011011
00111101000000110001110010000101
10111101100100111010011101100011
00111101011010011000110110011000
10111101110010110010011011100000
10111101010111010100011111000110
00111110001001111110000001000101
00111101100101000101000111000011
10111101101100100000010000110001
00111100101010001100111101010110
00111101100010100000101101010111
00111101111100000101010010110000
10111101101101001001001111101000
10111101101100000110010110101010
10111010101011000010100010011101
00111101100010010101000001010001
00111101011111010100100011111000
10111100010010010011100100011111
10111100101111010010100100000101
10111101110011111111011101001101
10111100010000101001110011000010
10111101010000101110010111101100
10111100100011000101100000111101
10111101011101010111100111011101
10111101101111100001100001100101
00111100101001101100000111011001
10111100110011100011100001100010
10111101101000011011111010110110
10111101100110001110000001011111
10111101101001000111000011100001
00111101111011001010000110111010
00111101100010100110101101110111
10111101100000111110100011100001
00111100101100010010111010110000
00111101110010111011011010001010
10111100100101000011001110001100
10111100110011110010011100000100
00111100111100110111001101111001
00111101010110100111100011011001
00111110001000011111010011101110
00111100000111111100000101111000
00111101001101001000110101000010
00111100011011100010101110101100
00111101101000001000000111000111
00111100001010000010010001000101
10111100011001101010100100101111
10111101011101011001010001001001
10111101100000001110100110110011
10111101010011110010011111111101
00111101000000111010011010010110
10111101100101100010110010011001
10111110000011001110001011010101
10111110000110101000000110011010
10111101001110101000110000110111
00111101011000100011011100011111
00111101111011101100001010000110
10111101010111010110011111011100
00111101101101011110000010001011
00111101100110010011000001000001
00111100101010101101011000001111
10111100110001110000010100011100
10111110000110111100111110001100
10111100000100111011011100011101
10111100110011100100010000011111
00111101000110101100111001011101
00111101001011101110110110100011
00111101000100101101001010001101
00111101001001000101001001000000
00111101110110101110000100001010
00111110000000011110100000001000
00111101101010010001000100000001
00111101110011101000001101000000
00111101011110100110110011100101
10111101000001101000100110011001
10111010000111001010001110101100
00111011100010101010000010111010
10111101011001000010111011100011
10111101100110111001011101101111
10111101001010000101010100100001
10111110010011001110110100101100
10111110010110101011010000000000
10111101100011110001010010011101
00111101000110101000010101010010
00111101101101101101100000100010
10111101011110001011010111001000
00111101100100000011001110011100
00111100011111100011010011101011
10111011110100000001100101010011
10111110000010110010001011000100
00111101001110011011000100100011
00111101010000111001001001001010
00111100010000110000010101110100
00111101010001011100000001110001
10111100100110000011110100110110
00111101010110000100110000110111
00111101110001010100100101101000
00111101110010110001110101110100
00111110001000011000000101001010
00111101000100011000001111111110
10111100000000101000001111110011
10111100110101010100100000101100
00111101100100001111011011101010
00111100110101000100000111110001
10111110001010001100111100001100
10111101101111010100110111010000
10111101010010001001101010011011
10111101011111001100000100000010
10111101100010110110011000101111
10111101110001111101010110011100
10111110000011110000101000101101
10111100110001000010010001110001
10111101100110001010111010011000
00111101110101101111111010111110
10111101011001111001101110000111
10111101001001111110001000011100
00111101000010100011010101110001
10111101111001101001001010011111
00111100001001101100000001000000
10111101000110011101100101100111
00111101110101100011100010101000
00111101110101101001101011110011
00111101101011011000011001000110
10111100011100000000001101011010
00111101110000001110000111011110
00111100000100101101001100100010
00111101100001100001010110111101
00111101111010001101110111010011
00111101101011111111010000000101
00111100011010010101110110111001
00111101111101111110001010110010
00111100100000111011011111110111
10111101100000100101101001010001
10111110001010001111111010100111
10111110001000101000001110111010
10111110001100100111011010001101
10111101100100010001111000011101
00111011100000000100000010011110
00111011010001110110110110001000
10111100110000101100101101010000
00111101100011001100001011110101
00111110000010010010100001101110
00111101101001110000011101010111
10111101100000011010110011110110
00111100001000111101100101011000
10111110000000111111010011011001
10111110000011100010101100111100
10111100100101011101111100100010
00111011011110000101011110000001
00111100110110100001110011111101
10111110000001000000001101000010
10111101001101010100110100110010
00111110001011001100000011110001
10111100110001001111001110000011
00111101110101010110101010000000
00111110000001000111011100011100
00111100111111111110011111010101
00111101110110001100111101011010
00111101111010111101100001101110
10111101110110010100101101011111
00111100101011000111001100011010
10111110001100000001001101010011
10111110011100011101101011010010
10111110010001100000100110011110
10111110100011000101110001111110
10111110010010001110111101010111
00111101001111101000110011100001
00111110000001011111001101100111
00111100100010000001000111100001
00111011101110010010001100110011
10111101010101010100100010110101
00111101000100110101110111111110
00111101100011000010001011001011
10111110001011000111101101100111
10111110011001111011001001100100
10111110001101011100111110100001
10111110000010000001000101000001
10111110011000000100101111100101
10111110010110000110000100001101
10111110000001011010000000111111
10111011001101000001000011001110
10111101110010111011101010110001
10111101110111111100001001100010
00111101001101010110111110110001
10111101101000010011111011100000
00111101111000000010000101011111
10111101010111111100001010110000
10111110001100001111101001010110
10111110100100000000101010010111
10111101111110110111110011011110
10111101010100000101001111100010
10111110000111010100111111111011
10111110010111000110000111010011
10111101101100001000101001000111
00111101101000001110111011101000
00111110000110001110001111101110
00111101000100110111111001001010
00111101101110101111110001010001
00111011011010101110000001100000
00111100101110110111000100011000
10111100111111110110001001110000
10111101100011100001011011011100
10111101101110111100000011110000
10111100101100000000110000111001
10111110011101000010101001110111
10111110011111100010111110100100
10111110011001100110011010101000
10111110100110111001001000100000
10111110000001010001000001111111
10111110101101101101011100011110
10111110110100100100101111011010
10111110010000111001000111010000
10111110001111101011010110011010
10111101111100110001001110100001
10111110001001010110111100000000
10111110100000001000000101101001
10111110001111100101010011111011
10111110100011011010110001110001
10111110100000000110011001110100
10111110101000000100110101100011
10111110010010001001100010110100
10111101001101110000010100001000
00111101100011111111010010011111
00111110000000001101001010000001
10111101110010001011011000110011
10111100111101111010101101000111
00111101101000000001110000010001
10111101100101011010111000111101
00111101011010100111111011011010
00111101010101110111110111100010
00111100010100111110011101101000
10111110000101100010100101001101
10111110000111011000111001001110
10111110011011101001001100001010
10111110010100001100010101111110
10111110100110101010011101110001
10111110100100100111000111011101
10111110010110000101011101000110
10111110001001001000110011110001
10111110110011010111111110111111
10111110110010001001011110011110
10111110101000111001100001000001
10111100111011110111101101110100
10111110001111000101001001101100
10111110001111111100011100011100
10111110101001101001010110110011
10111110001000000110010011100001
10111110011001100100001100100010
10111110100110110001100010101110
10111101100110100010011011111010
00111100010100000001001101101111
00111100011001010110010101111101
10111101100111011001101010111000
10111101100100010010100000111001
10111101010010010000000001111001
10111101010101101100000001000101
10111100101111000001111010011000
00111100011000101000000011011000
00111101100000010111111001110101
10111101000001101101001100000101
10111101000101000001000100000100
10111101100010101111100101000000
10111101101110100110010110110001
10111101101100001001010111011011
10111101110101111100010101011110
10111101110011010000110001011101
10111110001000000111010101000001
10111110100000010100110111001000
10111110000101110011011111000110
10111110010110100100001011110101
10111101101111101111011011110010
10111100111100001000110101000101
10111101101010010110000111111101
10111110000100111011000101111000
10111110000101101101001010011010
10111101100111110111001001111010
10111101100110000110110111010100
10111101111001010100011101101100
10111101100000110011101000000001
10111101010001110010111101011101
00111100010111110100000111011000
00111100101100011100110101001100
10111100011000001101010100111000
