00111101100110010110010110001000
00111101010001100011101101011110
00111100110001010000111111010000
00111101100011100100110010110101
00111101100010010001100101111001
10111101010001010011001010001001
00111100110001000100100101111000
00111100110101100000101010010100
10111101001111101110010110001100
10111101011111111011100011010010
10111011011110001011000101100000
00111011000010000000000011100000
10111011110001110010011111000000
00111100111011010001101101111011
10111101110000010010010011100011
10111011110100011011010001100111
10111100000010110100111101011110
10111101100101010000010101110011
00111101001111011010001100111010
10111101001001010111100011010001
10111101001111111101110111010100
00111100010111001101111100000000
00111100000011011100010001101000
10111001010101100010110000000000
00111101001111011100111101110010
00111101100010011100000001110111
10111101000001011111100111101101
00111100100100111000011000100000
00111101100111110011010001111111
10111101000100100101101110110110
00111101100111011011010011101011
10111101100110010111001111011101
10111100001110101101010100100000
10111101001001011111101101100100
00111101010001011101001101010000
10111101001110000110011111000000
10111100111111101000101111011111
00111101111000011111110110110001
00111101100111011111000100100101
10111101111010100110011100110000
00111010000101010011110110000110
10111110001000001111101101010011
10111110001111110100000110100110
00111101100111110001001101001101
00111101101000011010100100010100
10111101000111101001011111100110
10111110000001000000100100101001
10111101110111001000010111110010
10111101110000011101111010110010
10111110000001100110010110111011
10111110010111011010010000000100
10111101100011101100010011111001
00111100100110001001110101100011
00111101100000000000100000100001
10111100010111100000011100010000
10111101010101010010011010001010
10111101100001000001100101101000
00111101100101010110000100011101
00111100000001001000010001101000
00111100110110100100110000100110
10111101110101001000101111001100
10111101000010111100111001111010
10111101000000001001010111010101
10111101111101001110000010110011
00111100111100011110111010011011
10111101101010110001011010011110
10111100001011111111010000001010
10111011100100000101111100000001
00111100101111011110011011101110
00111101010000110101111111011011
00111110011000110111110101110100
00111110000001110001011101000010
00111110010011100010000100011000
00111101111001111010111000001101
00111010110001011010101001000010
00111101110011110000000011010101
00111101011111001110011001010011
00111101111001111011011010010010
00111100011100110011001111011011
10111101110110011011111111110111
10111101010100101110001111011111
10111101011001100010001110010001
10111101101111000101011101100000
10111100000100001000111100011000
00111101100010001000111110010111
00111101100100100011110110000011
00111101000111001101111011101100
10111101011101001011101000001111
10111101100000111110011110101111
10111101100011101010101011000101
10111101111001110000011110111100
10111110000000000110000001110010
00111101010100110101011011011011
10111101100000110000010011001100
10111101101010111000010101011110
00111100010110010011000011101111
00111100111001011111110011010110
00111101111000000001101100110110
00111100101111000101111101110110
10111101001110000101000011000110
10111101001010010101110011001100
00111100100001101110001010100010
10111100110001001001001000000110
00111100000000100001100100010010
00111101011010011001101101101000
00111110000110111111011110110110
10111110001101000101001010111110
10111101111100011100110101001000
10111100100100100000100010001011
10111101101011001111000100000011
00111101010111100000001100101001
10111100110100110101110011100000
10111101010101110100011011100101
00111100101111001111000000000100
00111001111000010010111101100010
00111100110101100101110110001011
00111101100100110110100001110010
10111100110101110001110000011010
10111100111011100010111001110011
10111110011000011111100011001101
10111101110101010101111101101100
10111110100000110110111001111100
10111110010000110100000001100011
10111101010110011100000010110100
00111101100010010100111000000001
10111100001110101010010111000010
10111110010000101001010010001011
10111101110011000010010010011000
10111101010001100100100011011001
10111101110010010011110100111100
10111101100011110100010000011101
10111100010011111101101001011000
00111101111111000101111101101111
00111101101111000101100011100011
10111100100011111101100001111111
10111101010011000010100011010001
00111100010111111110100111000000
10111101000100001100100100101010
10111101110001110110011100001110
10111100111100011101010001001001
10111101110111100111011011000010
00111101100000010110011001000001
00111101101000110100111010000001
10111101100001100111001100101000
10111101010111010111101010111011
10111101111100101101110001001010
00111101010000010111011011100001
10111010011110101111000100010011
00111110000000000100010011110000
10111110000101110101111111011001
10111101100011000100001010000011
10111110001000010111001110010010
10111110010101001101000100010010
10111101111011111011100010101100
10111101001011100111010001110011
10111101100011111111100100011101
00111101101101111111010010110011
10111101100010010010011110001011
10111101111000101000000101100010
00111011000100010011011011100001
10111101100110010101010100000100
10111101111101011011011011111111
00111101101101000110110110100110
00111011111111111001111100100000
00111101001001000010110000100100
00111101100001000110110011011011
10111100111101111100011010111101
10111101110011100000011010000010
10111110000001010111110110010000
00111101100111101111100111101101
00111101001101110011000101010100
00111101111000011110100011110101
00111100010101011011111001111110
10111110000000011001100101001011
10111101100110110101010011100111
10111101101101101001110001110110
10111100010110110000001111010111
10111110001000001110000111011111
00111100101010101001101001001110
00111101000100100010100000101001
00111101110100001000000011100010
00111101111011001011110111000101
00111110011110010001000101110110
00111110100010111110001100111001
00111101100111010010011110101100
00111110000100111001101001111100
00111101010100000001100101010000
00111110000001010001010100010101
10111100000110100110110001010100
00111101100110010010101001001111
00111101011100011101000110010111
00111100000111101101000111011000
00111101100011110011011111000111
10111100111011100011110111100110
10111101111111001000111101111000
10111101001001010001010001110100
10111101010111110100010100111110
00111011101010001100001011101110
00111101010011101101101000001110
00111101011100001001011001010110
00111101100110000001111100100110
10111101011110011110001000100001
10111110010101101100101100010111
10111101101101001110101100011001
10111110001100000010111001101111
10111011000110110110011011001001
00111100010010101101001110000001
00111100110000010010100000101100
00111101000001000110001001010000
00111110011100000110000001000110
00111110000001001100011111000100
00111110011001011010000100011001
00111101111110000101011101001111
00111101100100101001011011100110
00111110000001111001110100100010
00111101011010000001010111011101
00111100110010101111101100101100
00111101000100001100101110001001
00111100110101101110011001101111
10111101111010101001100001111100
10111101001110100010110000011110
10111101110110000010110000100001
10111101110010011110100110000101
00111100100011101100101110011101
10111100111000000000001011011001
10111101010001000110111110000011
00111101100010001110111100000111
10111100100101101101111111001110
10111101000010110011110110001110
10111110000001110111111100001010
10111101100101110001001011001110
10111101101111000011010101110101
10111011100000001100110111110000
00111101110100111111000001010010
00111101100100101110110000000010
00111101100011111111101000011100
00111101110010100101000001100001
00111101011010001111000010001100
00111100001100110100000101001100
00111101111001010010011011001111
00111101010000011001000001111100
00111101011001001010100000011111
10111101001101010100010110000110
10111101001001001001100110010111
10111101110110000011000001101010
10111101001010010111111110100101
10111110000100101011101111001110
10111101111101011010010011111100
10111110001000001110110001101000
10111101111010011000110111010010
10111110100000001011100011100011
10111100100110001100010110000101
00111100010010000010010101110010
00111101101101100011110100011110
00111110001100010110010001110101
10110101001111101111100000000000
00111101011011010000001000000000
10111101000000000101011001110000
10111101111111010100000000000000
10111100001101001111101100011010
10111001000101111100110001111101
00111100101011000101100101100011
00111101110011100000010010100000
00111010100111101011011101110010
00111101001111001000100101011011
10111101100101111101010100101100
00111101000100000101010011101100
00111101000100001000011101111110
00111101101000101000000010111110
10111100111110110100010101110111
00111101010011110110101011101111
00111011000001111110110011011010
00111100011000001001010110100001
10111110010010101000100110110111
10111101111101011110101110000101
10111101001111110000010110010000
10111110001001001100100100100111
10111110001101101111010110010000
00111100100111010101011110110010
00111110001111011011101110111011
00111110000101000110110011010101
00111101101001001100001000100010
00111110000011000111010010100010
00111101101110010111111000110100
00111100111100011011101110011010
10111011100000010111101100110101
10111101001001111010100100001100
10111101010010100000111110101111
10111110000111010000100000101010
10111101101011000000010111100011
10111101010111010000001000000100
10111110000011100000110001110001
10111110000101001110011100010100
10111101010011000101110110110001
00111101100011111110111010110110
00111100111111110110001111100000
00111110000000011101100101100011
00111110001011101111000011101010
00111101010111011111111110011100
00111101000100001011000111101000
00111101100111100101101011010111
00111101000101100000000001001011
00111101001001011000100000110100
00111100110111010001101010000110
10111110001010101001110010100011
00111100100001011110101100110101
00111110001000000010010110000001
00111110100001010011111010011101
00111110001001111111001011011010
00111101101110011100010101110010
00111101101001101111010001011111
00111011100001111010111110111110
00111101110010011100100001011001
10111100111010111000111110100001
10111101101100101011110110011111
10111100100101001000101001011010
10111110010110000110011000000010
10111101110010111101111000101011
10111101110101001000110000100101
10111110010110100111110011110101
10111110000001110101101010110111
10111110011001101010011111100100
10111101101000000100101111101000
10111100010111111101101011110111
00111110100000000110110110111011
00111110000000000011010010010100
00111101001011111111110010001111
00111100011111111011001000011110
00111101100010110110100010010100
00111101110000101100010011110111
10111100000101000101101010111100
00111101100010110100100101011010
10111100001000110010110000011001
00111101101001011010110110111010
00111110000101101010001101100110
00111101110010100010000101111100
00111101100000001010101010000100
00111101001101101100000101011001
00111110000101000100101011111101
00111110000001000011010010000110
00111110001010111101001101111100
00111101010111000000101000001011
10111101101110100011011011111110
10111101101000011111011010110010
10111101111000101100110111001000
10111110000111010010010110000010
10111110010111111100011000010100
10111110001111100110000000100010
10111110000001000111110110011110
10111110011100011000001011011111
10111101010100010110010101001101
00111101111010100001111100111110
00111110010010000101101100001001
00111101111001001000111001100011
10111100100011001111001100101100
00111101110010101000111101001011
00111101111011100000101111101111
10111101011100100111001000111111
10111100000110000110001100100011
10111101110110101100101000000110
10111110000000011011011000110101
10111110011110100111011010000000
10111101001100000100000011101010
00111101100111100101101010110000
10111100100010111110011111100110
10111101000001101100111111010111
10111101000010010111100101111100
00111101011100000010010000010010
00111101001010010111010001110110
00111110000001011100011101100010
10111101001110000100011110000010
10111110000001011011001000010011
10111100101100000010111101101110
10111101101101100100110100010100
10111110000110011101010111011111
10111110011000001000001000101100
10111110100000001001111010100000
10111101110011100110110100011001
10111101100100100011011111101011
00111110001010111011010001101011
00111101001100110000010001011111
00111110000000101010100010001010
00111101101100010000101110001010
00111101101100010010000101111100
10111101000011110001000010000010
10111100010100110010000101101100
10111110000000111001101111100010
10111110100000010010101100001011
10111101101110010101111110010100
10111110000100101010101100110010
00111100000101110100000010011010
10111100100111010011101010100000
00111100111010111101010110110010
10111101100010101000010100000010
10111101000001000001110110001101
00111101111111110101001111000110
00111100011011101011011011111100
00111101100000101010110000101100
10111101100100100011110000001011
00111101011010101011001110110010
00111100000001011001011001000001
10111101001100000011001101000000
10111101100111010000111000001100
10111110011011001011010001010011
10111101110000101001111110010011
10111110011010101011111101100011
10111101101001100110101110101111
00111100101110110001011001010000
00111101111000000000100010000110
00111100001110100101010001001110
00111100001011101111110111011011
00111010111101000010011111010101
10111011100111001010001001100010
00111100111101000011001100011010
10111110010101100000100101110001
10111110000010110010001111010101
10111011011011000101010110100100
10111101010111000100100110100011
10111110000101101110111101001110
00111110010000011111110010011011
00111011110000111101010010000011
10111101110011000100111010010111
00111101100011011101100011101000
00111011100111100010010000011111
00111110000001010000000010000011
00111101111011001001011011010000
00111100010000100000100100101110
00111101111000011100011000001110
10111101000110001001111010011001
00111101101000101000000101000001
10111100011001001000100101110001
10111101000010010011010110010111
10111101001001111001100101111011
10111101011110011001011010010000
00111011000101111100001011010111
10111100110000000001010001101111
00111101010001011011001111100000
00111101001100001010100111001111
00111101001000010000001111011011
00111101100111001011100110101100
10111100010110011111010001000011
10111101101011001101000111111111
10111100000101000111001111111111
10111101100111101111101110010100
10111101110000010101001001010010
10111010101001110011011001111100
10111110001000001110100010110100
00111101100101011010000001000001
00111100101101100001010111000010
00111100110011100010010100001000
10111101000101001101010100011000
00111100101000111000010100100010
00111010111011011110010101100111
00111011111001110100111011001101
00111101111011100011101111111111
00111101111010010111011001001001
00111100110001110100110100010101
00111101100011110100111101000111
00111110001001110000101001010111
10111100000100111001010001100100
00111010101100010101100111001100
00111101000001111010010100110111
10111100001110000011011101111110
00111101110000001001011110110100
10111101011000000111011000010101
10111101000011110010111010001000
10111101101110100110000111100100
10111101010100100110001100000001
00111100101111111010000100111011
00111100110001110010101001000010
10111110001100001011101000111110
10111101001001010111111110011000
10111101101111011111010101001110
10111101001000110110101110111110
10111110100000100100101010100011
00111101001010010101110111011011
10111110000010010101001101011001
10111101000011000011001001100101
00111101111011010011000001110110
00111101101000011010100010011001
10111010101101011000010001000100
10111100111101011001011101010010
00111100111000001000000001001111
00111110011000001110100001100101
00111101111110011001100110010011
00111110000101111001011001000001
00111101100110100011111100100111
00111100101110100000010011001100
00111101111101001110011100010100
00111110000001011110010100110100
00111011011100000101011100000001
10111100010001001110011011111011
10111100101110111011001101000011
10111101100100101010100000101110
00111100100011011111101111000100
10111101011110111111111001001011
10111101110100110000000100111010
10111101100011110100111101000101
10111011110011111100101010010100
00111101011111100111010110100100
10111101010001000011110111100000
00111100101101000111111111010100
00111101000001001010011000110000
00111110001100000110010101010111
10111101110011001011100110010110
00111100110001110100100010100011
00111100101010110010111011010010
10111010100011010000010010100101
10111100100000010110101101101111
10111110010111011000111000100101
00111101110101000011001110111010
00111110010101100111011010101011
00111101011111100110100101101000
00111110010010000001001111001100
00111101100000100001000101110010
00111101110111000001011100100101
00111110000010011000011001111000
00111100000010010100011011110111
00111101011111011011111111110110
10111101010100101001000111100110
10111101100100100110111110101000
10111101011010100011001010000100
00111101101010101000111011111001
10111100010010100111100110110011
00111101110011010101111110001100
10111100110010101110110101100110
00111101000010101110101011001000
10111101011011000110110110111101
10111101000110110001111011111000
10111100000111101101110111011100
00111101101011010000000100010000
00111110100110101101000111100000
00111101111010101010000101001001
00111101001101100001101001001110
10111100101110010000111011010010
00111100110011001001000111010001
10111101000010000101010010101000
10111101100101110111010011001111
10111101101010101110010011100111
00111110000001010011010110100101
00111110000010110111100111111001
00111100110001011111111100100011
00111011101001101110001101011100
10111101110000011000101011111110
10111101011011001101001000101001
10111101101110111100000101111001
10111100001101000111101001001001
10111101000000001111111010110101
10111110000111100100101000000011
10111101000110110100001110111010
10111101011001111110101011011001
00111101010001011111011101110010
00111101000011110010110110111111
10111101011001010100101110001100
10111101010111011011101000101110
00111011110100100011101110001101
00111110010011101110111100001011
00111110011010100110100001111001
00111110011111100011010111011101
10111101001000111010011011010011
00111110000111011010011001110001
00111101010111010101010011011010
10111101111000110110111010111001
10111101100011000100100010001010
10111110000010100001001110101010
10111101110100000111000100011010
10111101001111101100100001011111
10111101000101110111100100011110
10111101110110111101110100001000
10111010010001101010110101111110
00111101100111010111100101111111
10111101000011110000011010010011
10111011111110011100100010011100
10111100111110011011110111010100
10111110010011110110111111100101
10111101101101001100011000110111
10111100100001110111011100101100
10111100100111100001010010000000
10111101101010001111010101100010
10111101011111011101101110010111
00111101100101111001010110011011
00111101011100110000010110011111
00111100001010110100110101000111
00111101100110111000011101100100
00111101000111110111000000101001
00111110101001010010011100001100
00111110100111101101111110101101
10111100010000001010010000110010
00111001011100010010000001010111
00111011111110000010100111100111
10111101110111000000000101010110
10111101001001011111011000111011
00111101011100101000111110100011
00111101110001010010111111011001
10111101010110111010111101111110
10111110001111110101111011001101
10111101101111010011010010010100
10111100000110010110100101110001
10111101000001100001010101000101
10111100110100101000101110011101
10111101000000110110000001111100
10111101000010001010101111110001
10111101110110101100001111010101
00111010101100011011010001011000
00111101001110001101001011111100
10111100100010010011001000110001
10111101100000010101010100010011
10111101100101101110001111101111
10111101011101010001010000000011
00111101001011011010001101010000
00111110000101111111001010101001
10111101011011110111010010110111
10111100110110111110010100111010
00111110011000001011011011101110
00111110000100100011110110100001
10111101111110001100001011001101
10111101100101101000010010110000
00111101100000011111111110100011
00111101101011010010001101110011
10111101000001100110010111111111
00111011111000100000001010100001
00111101101100101110011000110101
10111100100110111010000000111011
10111101000010000011101001000000
10111100110000001111001001101101
10111101010000000111111110001000
10111101010000100010010010110000
00111100000001110111000000011001
10111110000101101001101001010010
10111101100111110111100101000000
10111110001101001111010100011110
10111101011011010101010000100000
10111101011010011011101011111001
10111011101000000000001110101010
10111110000011010001001011100111
10111101011011000100111010111111
10111101001111101111111011100110
00111101000011001101110001011010
00111101001000001000010100100010
00111101101000101001111101100001
00111110010101110000001001010011
00111110010001101011110111010101
00111110010110111010111011000111
10111101011011101000011000010110
00111101100111000111010011100111
00111100110010100111000001010000
10111101000000110100100110011010
10111100111100111110010001011010
10111101100101000110011010000011
10111101010011010101110100000110
10111100100001100100010001111000
00111101001111110101011110111111
10111101111011100110111001001110
10111101010001001101110001011100
10111110000001011011010100001000
10111101011000010100011001100110
10111101000011001010110010111111
10111100110101000001011111000000
10111110000100000011001101100011
10111101101010001001100101000010
10111101111010100001011101001111
10111101101101011010001011100001
10111110000001011010000111011110
10111101101000010000010110010001
10111101110111000011000010001110
00111101011110000001111000001011
00111101110100110101100010111101
00111110100100111001110101010001
00111110100001010000100010110100
00111110010011000110101010101100
00111110000001111110110110111011
00111101100100101011000000011110
00111001101010101100001000000000
00111101000001001010010101011100
10111101100000110111000111110100
00111101101011000010101010001000
10111101010100001000000100101111
00111101110111100101011011111010
00111100110001100001010110000110
10111011010001110011100001101000
00111101101010110110011000111100
00111101010010011011000010110010
10111011101111111000101000001110
10111101000101001111010110101100
10111101111101001111111011011101
10111101111101111111001101011100
10111101101000010010101011111110
10111101110110111000011101000001
00111101010111011000011101111100
10111100111010010111111100001000
10111110000110011110111011110010
10111110000000000011111101110110
10111101011111011000101101110000
00111110010111001001101000111000
00111110010100101011000001110101
00111110000101110100101011111010
00111110011011001101100110011000
10111101001101111101001101110011
00111101001101010100010000001001
00111101001011011111000111010011
10111011101100110101001000010000
10111011010000111001101100100000
10111101100001100011100100101111
00111100010101011111111111110110
10111100000100101000100101100110
00111100111000000000010011110110
00111110010001100111000100110111
00111100000110110101011000001111
10111101010001111011111001000010
00111110010000001011000111010101
00111110010110110011111111101001
10111101011110001001011111101111
00111011110110010100111111001010
10111101010000000010110100111101
10111101101001111110100111001110
10111101100101000111011110011010
00111100000000110111010101100001
00111110001000011011111110001110
00111101000000010011000001010011
10111100000000101110100111000010
00111101010010011000101010000100
00111110010111100101110110001101
00111110100100010010000101100110
00111110000101001000110100100111
10111101010101010110101100100010
00111011011101011100110010111101
10111100110111001001100000001010
10111100000000101101010111001010
10111101100001010110011111010001
10111101010001111100001111010110
00111101001001010010000011110000
10111101001110000111000001111000
00111100100110111001101100001100
00111101111111101111111100000100
00111110001110100010000010000011
00111110000011010010111101101110
00111110010001101001001010011001
00111101100010101110001000000101
00111101100100011010001001101111
00111101001111001110000011000110
00111110010011110110111000010110
00111101001000111010010010011100
00111101101110010011010011100110
00111110001000101111010011101010
00111110010010001000100010101100
00111110010111100100000110011101
00111101100111011010111111100000
00111100100010100001010010010011
00111101101011010100100011101001
00111110110000110001110000100011
00111110100111011010110010110011
00111110001011010010100001101000
00111110000010011101011010001100
00111100000101001101110011101000
10111101100001001111010011010111
00111101001010011100000100111100
10111100100000111000111100010100
00111101000011001110001011010000
10111101100011111110111000010101
00111100001101010100100100110000
10111101100111110111010000010100
10111100110010001001110100000011
10111100100111000101110010110111
00111101110110000000110000010001
10111100000100110000101000100000
00111100001010110100011011010010
00111110000010100101110001101000
00111110001101101011010011011101
00111101100100101111011000011101
00111101001001110110110010011010
00111101101110110011110010110110
00111101110000001111111011101001
00111110000111000111001000110001
00111101110101011100011110011011
00111110001110101011011111110110
00111110001110110011110000010110
00111101000111010011011001011011
00111101001110000110100010110010
00111110000111111011110001001111
00111110000101111011100101001010
00111101001110111100010111101001
10111101001110001101111000000010
00111101011100110011001010110010
00111101101000110010111111011011
00111101011101010001000000000110
