10111100110001011001111001111011
10111101000010111111010100100010
10111100001100001010101001001000
00111011001110011001111011100000
10111101001100010101000000010001
00111100111101110111010110110000
10111101001111011010000110100010
10111100011011011001010011001000
10111100110011000001101111011000
00111011101011110101001101000000
10111101010111110001111010010110
10111011110001100001011000010000
10111101010001000010100101001000
00111100100000001000111001001100
10111100010101001101011111110000
00111101001001010100101100101111
00111101000111101101000101101010
00111101100100110101011100000011
10111101000001001011000010001001
00111101010101000101011101110010
10111101100110011010010101001111
10111101100011000010100101110100
00111101010111101100000110011110
00111101001100000110001110110110
10111100101000110111001111010110
00111100101010101100110111111000
00111101001101111100010111010010
10111101100101011110101110101110
10111100010111100110111001010000
10111100011111101001111011101000
00111101011011001011101000010110
00111100001011100001111100110000
10111101101000001011011101111101
10111101100000101100001001110011
00111100111110011011110100110100
10111100110010111100000010010110
00111100000101010111011100100100
00111101001000111010001011100100
00111100010101010001010100101101
10111100101101011110110000011100
00111100100111101100000011010001
10111101011011000010100101001100
10111101111110000011101000111100
10111100100111101000110110111110
00111101010010111011100110001011
10111101001011110110111110000100
10111101001101001100011100000101
10111110000000011010010001111001
00111011011000001111000011001011
10111101100001010111101000011011
10111101011101000001010101011001
10111100011011010100011010011001
10111101001011101000100111110111
00111101100110000110111101100001
10111101001100001011010011101100
10111101011111111010011111111100
00111100011000000010011010000000
00111100111011011101101011110000
00111100101000111010101000110000
10111101000110111011110001110001
10111100011010101111101101011000
10111101110011110110100111101011
10111101001100100101111111011001
00111101100100110011111101001100
00111100100000010110000101010111
10111100100101111011111100011010
00111110000101111000010000111010
10111011111010000001001010000100
10111101001101011010011001111001
00111100101100110010101010001110
00111101001001110101111011011111
00111100011101101110000111111000
10111110011010010001100100000111
10111110101001011100001000000011
10111110000011110001001111010011
10111110101001110001101110111100
10111110001001110100101101100010
10111110000000101010000010010111
10111100011101001011101000110110
10111100100000001001110010110110
10111101010110011111000111010110
00111101001111011100101101101100
00111101001110001111010001000001
00111101100011000100011010100001
10111101001101010001100011001011
00111101101000100001011100001001
10111101010000111011010011100011
10111101001010011000101101010110
10111100101101100011101011111001
00111101101101001111110110111000
10111101100010001101101001101111
00111101000010100011010001101010
10111101001111100011011000010101
00111101000010111000000000111111
00111101001111111111010101001100
00111101011000110101011111111100
00111101010100011011000100001101
00111101101001101100010000000001
00111110011100111101101110101001
00111110010111001111001111001100
00111101110110011000100010001000
00111101000001010101110000101000
10111101000110000100101101100111
10111101100000101111001000110111
10111101011010111110011111101100
10111110001110010010100010111011
10111110000111111010111110011111
10111110001000010101011111000000
10111101100101000110000110110010
10111101100100001011111010100000
00111010001010111110101110100000
10111100111111010111001111010001
10111101001000000100010010010011
00111101011111001001011110111010
10111101101100001010110010100100
00111101011101000101011011011000
00111100001101100111110001111111
10111110000001100111101010110111
10111011001010000101010000111001
00111101111001011010101011100000
00111110011110101010111010001101
00111101101111100100111000110110
00111110000000111100100101000011
00111101100111010011001110010110
00111110001011010110110011001100
00111110001100100101100110111011
00111110011101010001100010011001
00111101100001011111111010101010
00111101111111100110010000110000
00111100000110111111000111010110
10111101000011111111001101101101
00111101110100000110110010000110
10111101101100101000011000100011
10111011101100001010010000111011
10111101111001111010001110010100
10111110011100110001011000001001
10111101001110110010111010010100
10111110000011111111010001110001
00111101100000000100110111110010
00111101111110101111101101001110
00111100110000000010101101111111
00111011111110101011110010010000
00111101100101111110010111001011
00111101100110101011101000111100
00111101001111001110101011101110
00111100101011100100011010100101
10111110011111001101111100111011
10111101000111000111101100000010
00111101100100011001001101110000
00111101100011110011011001110001
00111101110101000010100100100011
00111110001110100000100011010111
00111110001100101000001110110110
00111110011100100010001010101010
00111101110000111001010000000001
00111101110110110111110011111001
10111100111110111101101001001000
00111101001101001010111011101110
10111101100110001111100001010100
10111101100111100010010010001011
00111100011101001011000110111011
00111100111100101100010110001001
00111101011111100011001010111100
00111101110001010100100010101001
10111100111110110011111001010000
10111101110001111110100001111010
10111101110100101010000001101011
00111100110011000011111001000101
00111101100101110101011001111000
10111101101000001001011000100111
10111101010011100000110111011001
10111101110100111111011010011111
10111101101010011001010001000001
10111101011100011001010011001100
10111110000011001111111001111000
10111011111101000001101001110011
10111101001101100010010110101000
10111100111110011010001111010001
00111101010000100000010011010011
00111101101100110000001111010111
00111101011010110110110100100110
00111101110011111000101101001100
00111110000011011100100011101100
00111110000001000101001100101100
00111101111101110001001101011010
00111101010100000110011111111111
10111101110000110011000101000011
10111010001100011000110011111000
10111011110001001101001110100101
00111101010101010000100010111110
00111110001101011001100110111111
00111101100100010111100000111110
00111101100101001011010100100111
00111100110101011011011001111000
10111101101011100101011011110001
10111100110100101001110001100101
10111101101001011000010010110111
00111100010011000001001101101010
00111100011001101010110110000111
10111101001010111011000100000101
00111101001000110111001111001001
10111100010100000110111100010000
00111100100101011001010110011101
00111101101000001001110000110000
00111101101110110101111011010111
00111101011001100110001100000101
00111011011011000111010001101111
00111101110100100110000001000000
00111110010010001001101011000101
00111110001100011001000110000100
00111110010011010001111010101100
00111110011101110000000011011110
00111100100011110101010110111001
00111101001001100110110010000010
10111101010001001011000110011110
10111110000011100110111100000100
10111101001001000100001100000111
00111100000111011001101000101000
10111100100000110010011101010001
00111100111101110101111001111110
10111101000001110001010110111001
10111100100100001010010011011000
10111100010011110011000111100111
10111110000010010011001010011000
10111100101001100111101010110001
00111101011101100110110010000011
00111100010001000010101110000011
10111110000110000000100010000101
10111101011001000100111001111011
00111110001001111000110001111100
00111101100011100011011001110110
10111100010111110101100100000111
00111100000111001100111011110111
00111101101100111110010011000010
10111101101001010010111100010111
00111101110100100000101010110011
00111110000000000011001111010101
00111101010100010010101011010011
10111010101000110100110011010001
00111101110001011110010001011101
00111101000100110101011011000101
00111011001111101101101100000111
00111101001110110110011101100100
10111101110001100001011001010010
00111101100010010010101101111000
00111101101101110100001000000110
00111101101001101000111111001001
00111101110110001010110001000010
00111100001110011101100101110011
00111101000101010010111000101111
00111100000011101101110000010000
10111110001001010001101100001111
00111101100001101101010101110110
10111101001011101001110001001010
10111101111110111110100001001000
10111101000110010111100101011001
10111110000001000100000101011000
00111101101011110000110000010010
00111110000000111001111111011100
10111011101110110110001001110100
00111101010011100110110100111110
00111100011011001111010010000011
10111100111110111000100001111101
10111100101101011111010100000001
10111101111011100111010100001011
10111101000110000010110100111110
10111100011101010000001000110110
10111101110100010010000101110001
00111100011100111010111000101010
00111101000101010100100001111100
00111101101000000110101100100001
10111100010001101111111000110101
00111101000110001111101001101101
10111101100000110010101001110100
00111101001110110100001100111001
00111011111010101111011101001111
00111100010011010011000011001001
10111101011110111101111011000010
00111101010100010001000000100001
10111101101010010100101011100011
00111110000111100100100011001101
00111100110110100000001110000110
10111101100111100000110101111010
00111100001101010010010010100000
00111101100010011010101010101010
10111101011000010001111110000101
00111110000011100011010000110010
00111101110000011101001100011010
00111101011000111101010101001111
10111101011111110001010110010011
10111101100101101000110110011111
10111110001101001000011100000001
10111101110110111010010001110011
10111110011011111010001110110111
10111110100111111010110110101010
10111110011010111011101010100100
10111110000010101011101011110111
00111101101001001001100110111001
00111101101101111100000111111000
00111101011111011001110000001100
10111101101100111001111110001010
10111101101000000011110100110011
00111101111000110011000111101111
00111101101001010100010010110001
00111101100010100100001000110111
10111110000011000001000010010010
10111101111001100111000001110001
00111101000010001010000000000011
00111101100001011000001110001100
10111101001111100000011100011011
10111101111011101101101110001110
10111101100010101000011001101010
00111100011001111001100001100100
00111101000100111000011010011000
00111100101111011100111011111111
00111101100110011001100101001001
10111110001011011110111001000011
10111110001101110110101001111111
10111110000100111011000101110101
10111101000010001000101100110010
10111110000000010000011111101110
10111110100011011010100101111000
10111110110110110001001000101110
10111110010100000110101000010011
10111110001110101111110011001111
10111100001100010000111111010110
10111100110101000100000011101101
00111101101110111000101011110111
10111101100001101100010100011100
00111100101100101111010100110000
00111101111101111110111101100110
00111100111100000000110101100011
00111100101001011111101101001100
10111101110100000110111111100100
10111101101111100101100111101100
10111101111001000000010001101110
10111101101010100100110010110100
10111101101000010011001010101000
10111101101100001001110100100111
10111101100100011111110011000011
00111101100011001010010011110111
00111101010010010010110110010110
00111011101110010101010000111111
10111101000101001001001010110101
10111101111110010000111100000001
10111101010100101111111010110000
10111110001110110010011010101100
10111101001001111101011010110100
10111110001100100011010100111011
10111110101100000000011100010111
10111110100011000100101011000010
10111110011111010001000000101101
10111110001010100100110001111011
10111101100010011000111001001011
10111101101011010101000001101001
10111101111110011000110101101110
00111011010101110010011010100101
00111101000000011111010011000011
00111101101110001011001101110111
00111110000110111111100111001010
00111101001011000010000001110101
10111100110001100100011011101100
10111110001000011100111100111000
10111110000100000110001101101101
10111101110111010110100110000000
00111100101000111001000010101100
10111110000011110101000010100100
10111101010111101100010101001011
00111101101110010101010011001001
00111110011010100011011111011011
10111101101011110011000001110011
10111101101001010101011010001000
10111110001100000001101100010000
10111110001111101111001100001010
10111101111100011000111111010100
10111101101001110101000101010010
10111110001100101111101011111110
10111110100110110010011010000010
10111101100100010011010010001001
10111101000010100101000110110101
10111101011010100101100011100000
10111101100000000001010000000000
10111101101101100000100100000100
10111110000101111101100010001100
00111101010010011101110010111101
00111011100110011000101000110111
00111110010001010001101011110100
00111101110011001110110010011111
00111100010011010011011110100110
00111100100010000110101001000010
10111100010010001010110110111000
10111101110010101001110100100001
00111101111010010010100101000110
10111101100100001000110011001000
10111101101101000100111010010011
10111110001111101011111011011111
00111101100111110011001000110001
00111110001011011010000111011101
00111101011010100000001000111110
10111100111001011000110100110101
10111110000101011110011001000011
10111110011001010101101101100111
10111101110100101000000101111000
10111101010111101101101110011001
10111110000110110011100100111010
10111110000111101011011101100011
10111100110110000011100101001011
00111101101010100011101100111110
10111101101100011110011101010011
10111110000000111001001001011101
10111110100100111100010111100001
10111101110001000011101110100001
10111010110111101110101111000111
00111100001010100001111000001111
00111110000001000101111000000001
00111101110111110001011100010011
10111101111101100000110101101100
10111101111101101001011111101010
00111101001110000110010011110011
00111100100100101111000001110101
00111100100000000100101100111000
10111101101111001100100001001111
10111101000100001110001001010101
10111101111110111111010100001100
10111100000101001111011110111000
10111101111000001110100010101101
10111101000100111011010111010011
10111101100101101100111100010111
10111101101010001101010011110011
10111101101110111110001100010100
10111110000000000010011010011010
10111100110100010111000110100000
10111100100010001100110010010000
10111101111011010011111010101010
00111101010110001101110011011111
10111100101101011100101111111001
10111110000011110011100100111100
10111110100101010101010110001100
10111110100110000101100100110100
10111110001011011111111100110001
10111101100110001111010001010011
10111100100001010100100100111101
00111100000110111100100100000010
10111110001100000110101100000011
10111101000111010111001100100100
10111101011000100101010011111111
00111101100010000001001101100001
00111010011011010000000111001000
10111100110110110000000000111110
00111100111100110100000111000100
00111100000101101101111100100001
10111101000001101011100111001000
00111101101010111010110100110001
00111101100001101001000100001110
10111011000110100111100100010011
00111101001010011100110111101101
10111101100001100000111111110010
10111110000000010001100010100110
10111101001100011011000011010111
00111100011001111010110010010001
00111100000000000111101000011001
00111101010000100010100010101011
00111101110100110001000100011101
10111101101001100101100110010000
10111110011000011111010100001110
10111110110010000111111100101010
10111110101100001001000010100001
10111110010111110110100000110011
10111100100010000111110011011111
00111101101100011011101010010111
10111011110101101111111110111100
00111100000011011001110101010011
10111101000111011000010000000001
10111011101001011011011101100011
00111101010001010100101100100010
00111100101011000100110011101101
00111101110000000101011001110010
00111011000100111111000001000000
10111100111111100000111001101111
10111100000001000101101011011001
00111101010010011011101101001100
00111101000001101101111011110010
00111100111100101010101101111010
10111101101011011001000011000010
10111100111100110010011010010110
10111101101100101011011100100101
00111100011010101110110111111011
00111101011010111110111101100101
10111010100111101001100000100011
00111101011000100000100010001010
00111101010101110011001010011111
10111110011111000111110001010101
10111110110101010001011101111000
10111110111100011111101000011000
10111110011110010111101001011011
10111101101011100100101001000011
10111100011001101000111100010110
10111100010101001101000000000011
10111101010110110101101111001001
10111101100000011011010010001010
10111101111000100000101110011100
10111100110110110111000000100111
00111110100011111001111010111001
00111101001110001101101111010101
00111101101110011101010000101000
00111100101110101101001001111010
10111101110010000100000101001100
10111110000110101000100010110101
00111101000111011010110011010111
10111100100000111101000100011111
10111110010111100110110101101110
00111010101010111101110011011101
00111101011101010111011111110101
10111101010101111101000011001111
00111101101011100000010001010001
00111101111101011011100100110001
00111101101001100101100000010111
00111110001010111001111100110110
10111101000100101111111111010011
10111110100000110000100101101011
10111110111010000110010011110010
10111110100110111111000101110111
10111110000101100010110101111000
00111101110100000010110000001100
10111100100010010001101100110101
00111101010001100110101110101110
00111101000010001111101010100100
10111011110111100011001100000010
10111100111001110001110110110100
10111101010010011110101101010100
00111110100011101001010101110100
00111101110110111001100101111100
00111110010001111101111110001001
10111100110101000011000110110011
10111101110110111001011101010010
10111101110100011110101101000111
00111100110000100101001101111010
10111101011101100110001101000110
10111110000000000101010110000010
00111010111010100110001010001100
00111110000111111000011110100001
00111101101100010011110001110100
00111110001001101101100111101110
00111011101000000010010011111000
00111101110111000100001010111110
00111101101101011011011010011110
00111100110110011100001101100110
10111101111011110100001000110011
10111110101011010001100010010000
10111101110101011010010010111101
00111101110110110000011000101011
00111101110000111101100100001110
10111010110101110111001001110110
10111100100001001000011110100101
10111110000010010101101111001111
10111101100011011100010001011101
10111110010001100000111001110000
10111101101101011110111100000110
00111101100011101010010100010001
00111110000101011010001101010110
00111101000110011110100010000001
00111101000110011111010111111100
00111100111101111010100110110010
00111101010101001001101101011111
00111101111001011011101011101100
00111101001110100111010101010010
00111110000100100001110101100110
10111101001010011010101100100111
00111010111011000010111011111101
10111101000000001011111000001010
00111101010000101001000000110110
00111100101000011000100110000101
10111101011100010011010001101110
00111101100101011100000011110000
00111101001100100010110101010111
10111100011000010100011110010111
00111101010000010110010101010111
00111110010100001111010001010000
00111110000000100111111101110001
10111101001001001110010111111110
00111100111110101110000101100000
10111100001010001101001100100000
10111101110011000101000011000011
10111101111000000110100010001110
10111101110110111101000000110011
10111110000011100000101101001001
00111101000001000101010011110101
00111101111001001110110011011101
00111101100111100011001000010101
00111100100011111110100000101000
00111100000001110100110101111100
00111101110000110101100010001011
00111110000000011110111011000110
00111101000101011001110001011101
10111101111101001100001000000011
10111101000011100110011011001011
00111100000111011000010010100011
10111101010110101110111011010011
10111010010001101100000001010110
00111101101011001110100011111101
00111100111110100101000100010110
00111110001000100101101010110001
00111110000101110111000101110100
00111110010001111100010000001101
00111110011010000111001111111101
00111110001101011100101011111010
00111110000000000101001000100001
00111101000110010000010000001100
10111100110101111010000100010011
00111100011110001100000000110011
10111101100000001011001011011100
00111101011111111110010010000011
00111101100111011011001101100110
00111110001010111101100100001001
00111110001010011011010100111001
00111110000001010001110101100111
00111101011000001011101111110111
10111101011010100111011110111010
10111011100111101100010100111010
00111101101100110010101000000011
00111110001100000011111100000000
00111100111011111001000100101101
10111101101011001010101001010010
10111101100011110101110010001000
10111100110110001110010011110110
00111101101110110100010001100010
00111101000100011110101000101000
00111101101111101100111101011110
00111101111100111010000011010110
00111101110111111100101011101001
00111110101011110001001101110011
00111110100000010011110011001001
00111110100000011101100000010000
00111110011110101100101110101111
00111110001011011000001001011000
00111110010100100000110110110111
00111110000011000101101110100000
00111101010011000100100010101000
10111100011010010000111111111100
00111101101100100000111000011101
00111110100101011001001111100110
00111110001000001011111000101010
00111101001111010000100110001110
10111101101011010101011110111100
10111100000000110111101110000011
00111100100110011000101101011000
10111100000110000100111110001000
00111101010100000111011101100011
00111101100010001010000000010100
10111100010100111000110110110111
00111101010001001011110011101010
00111101000101011000110011000100
10111100100111011111100010010000
00111110000111011001000001100110
00111101100110011101111101100000
10111011111001110011010000001100
00111101110111011010011110101010
00111101111110110010011000100011
00111110001001110110101001111010
00111110100100000111010111010101
00111110100000011010100111001011
00111101011110111111100110000100
00111110000101011100111011011001
00111101010100110111101001000011
00111110001001010111000001100000
00111110001100011001100100011010
00111110011011111001101010011110
00111110001101011101100000010001
00111110001111111111010011111101
00111110001110011110001110011001
00111101101110111111001101111001
10111101101001100000010110001000
10111101010010011011000100100111
10111101100100011011100101010111
10111101000010001111011011011101
10111110001000001011101100011011
10111101111011000110101000101110
10111101010100101111101100011100
10111101111111001100110110011001
10111100001100110101001010110000
00111101000001110001000110110011
00111101100110000100001101100000
00111100001011101111001110000110
00111101101111010110001110011010
00111100100001000011000010001111
00111101101001110001100001000000
00111101101110000101111101101111
00111110010010010011101000000001
00111110000001001010011111011100
00111110001111101000101110111100
00111110100010110101010110011110
00111110010111000011101000101101
00111101010010001011011101111001
00111101100010100010101110111010
00111110010110110000101111111111
00111110100010111101010100100011
00111110001100111110100011011110
00111110001011101110001000101010
00111110001000111001001011100110
00111100110110100101001110100101
10111101100111011101001101111001
00111101010000110011110101110010
10111101001110010000001100111000
10111101000011110110111100100100
10111101011110001011011101101111
10111110001111101111011100011001
10111110001110110101101101100001
10111101110111001110011010100010
10111101011110100000011111001101
10111110000000010110110110011111
10111101001100011010010111000000
10111100011001000111010010111011
10111101010111000100111110100110
10111101000010001100011000100001
10111101101010010001111001111110
10111101110000100001111010010010
00111100101111100001111010000101
00111110000110100001001001101000
00111110010100001101011100101110
00111101011011100011000110111101
00111011101100011000001101001010
00111110000100111001110100000010
00111110000011011100000010110010
00111110100100000101010010001010
00111110000000110100011101011010
00111100100010000001100101101010
00111101110001111010111110111011
00111100110011101011000100000110
10111101000111101110010010101000
10111101100011111101001100010111
10111101100001010110110110111101
00111101100000110110000001000001
00111100101001110110111010101100
10111101001000110001011011111000
10111101100111110101001000101001
10111101000101001101010101000001
10111110010001110111111011000000
10111110000111010010000011100010
10111101111000011111100010110000
00111101000111001001011110011011
10111101100101001111000110000111
10111101001001101110010100010111
10111101111000111110101100011101
10111110001110011110000100010101
10111110100110111011011011111010
10111101110110011010010101101111
10111110000001110010001111111110
00111011111001110110111000000101
00111101000110110011000101010110
00111110010011010000111011111110
00111101111100100111000100111011
10111100110100011010010111110000
00111101011011011011000101001011
10111101001000011000111111100010
10111101100010000111010001010110
10111101000110000110101100000100
10111100001111001110110101011000
10111100101001010110101011001110
10111100101110011011111001100010
00111100101011011111101000000100
10111101010010010010101010110000
00111101010001100100101011011110
00111100111000001001101011110000
10111101010100101001100001011000
10111101100011010101111111100101
10111100010010101001100100000101
10111101100100110111010100110100
10111101111111100000100111110111
10111101100101110110000110011110
10111110001001101001000110010001
10111110000100100111001010001100
10111110000000001000000111001001
10111110010001000101000010100001
10111101110101001001010101000110
00111100110100010000101011111100
10111011111101000000000011111000
00111101100010100101111111001011
10111011101110101001011011010010
10111101000000101011111000100101
00111101011110010010011001011001
10111101100110110101101001011101
10111101010110101110011001100000
00111100010011010101100110111000
00111101101001011010010100011111
00111101000111010001010000111100
