00111110001001111010001010001011
10111101000010010111001010111101
00111101001000111100011011110100
10111011100100101101101110100000
00111101011110000100000011100110
10111100010011100100010100011000
10111100000001000010001111001000
00111010100101000011101011000000
10111100101101010011111100111000
10111011100101111000101001000000
10111101100101101111011101110011
10111011010010011011010100000000
00111100100011111011000101110100
00111101110011100010100011000110
00111101000111011111010011110101
10111110000011110101110101011010
10111100010001000111111110100001
00111101100101011111100010010111
10111101000011000101101001101100
10111100000010010000011000001000
10111101000100000000100010100101
10111100110011001110000010001010
00111010101111111011101001000000
00111101100000010001100111010101
00111101100000100100111011110011
00111100100010100000100010001000
10111101000100101111010110111001
10111101000100100010010111110101
00111100100101110010110001111000
10111101001010010101111100001100
00111011101101110000111001100000
10111101100001110111011100000100
00111101100111111101000010110111
00111101000000111111110010000010
10111101000100011010001110001000
00111101111001001000010110101111
00111110001101100001001011100111
00111101101010000110011001100110
00111101110100111101011011101101
00111110011000100010011001001101
00111101010100101111001100111011
00111101000100111001000000010101
00111101101111101100101001010110
00111101011101000110110110001101
10111101001001111011100111001111
10111101100111101101111111110000
10111011100000000011101101100111
00111110010101101110011011110111
00111110010011110011011000101110
00111110001000101111111000001101
00111110010111000100110010110001
00111110010101011000101010010011
00111101110100010110000110100110
10111101100010111100101100001111
10111101000000100001111101110101
10111100101001110101011111110110
10111101011011011011010100110101
00111101100110000100011101011011
10111010011110000011100000000000
00111101100101000000010010110100
10111101111001100101011000100101
10111101001000101010110111111111
00111100000101010100101111110111
00111101001011001011111111110001
10111011100001001110000011000101
00111110000001001010101101001011
10111101001010101110100001111010
10111110000000011111111101110111
00111101111100100110011110001000
00111100010000111101110110011110
00111101100011011011100110101011
00111100111100101010001100111011
00111101000110101010111001000111
10111101001101110000101010100100
00111110001101111010111001101000
00111110001000111110010100011111
00111011001110111111111101000100
10111101101000111000100110000011
00111100011011100010101100011100
00111101111110010001010100000001
00111110000010000110100000010000
00111100101101111000001100100010
00111101001100100111001110101101
00111101100100001000110110110101
00111101100000011001010010101001
10111101000110111101000001010111
00111101100101101110011001100011
00111101101010100001111010110110
10111101001111001000111010110110
00111100010100011011110100000011
00111110000000101111000110010000
00111110010100010100111110110100
00111101110011011010001110110000
00111101111111000011111110011101
00111101111001110100111111101001
00111101111011001111100011110011
10111100110111100000001010010101
10111101111111101111010101111010
10111100110010100010100110110000
00111101010001101111010101111010
00111110001110110110110100001110
10111100110000101101101000000010
10111110001110001111111011000010
10111101010011010010010110000111
00111101010000110111000011111100
10111100110011000000110100110000
00111110000110000100001101001011
00111101000100101111100000101000
00111101101111001011001110011110
00111101000010100110101111010101
10111100010001011100010100000111
00111101101011001100111000100000
00111101000110010101101001111110
00111101100010101011010000111011
00111101010000100110000110000010
10111101110101101110100001000011
10111101001000010100110001101000
00111100010010000100110010100000
00111100101101101101011110110111
00111101000010101010111001110111
00111101110001110010000001101000
00111101100001001010101111001000
00111101100010001111000101101010
00111101010110111001110111001011
00111011000010010110100001010011
00111101001000001001010001111101
10111010011111100100110011110000
00111101101100100111110000001111
00111011001000101110111011000011
10111100110010000110001011110001
10111101011111101000110101010010
10111101001111101100110101111100
00111101011010010001001101010000
00111101000001110110100111101011
00111101110000000010011000100001
00111101101000101001101100011000
00111110010110100001101011010000
00111110010011001000111100110100
00111110001111100001010001111100
00111110000110000111001100011100
00111110001000000111010110111001
10111011101011100100100001000000
10111011000111111111000101100000
00111101010000101010000110111110
10111110000110011011010110100100
00111011101010111001000100011011
10111110000100010010010111010001
10111101011010101101011110101010
10111100100111001101001101001111
00111101011001000101011101100011
10111100101000101110111101011010
00111101100010101100101010001110
10111101010111010110010010001101
00111100010101101100111101100100
10111110000100001111010000001100
00111101010111001011011111101010
10111100010001000100011010000001
00111101001100011010010011101111
10111101101010010011011010001101
10111101110011001000101010011100
00111101100000001011011110001101
10111100101000110100100100101100
00111100000111100011011100101111
10111101010101100001010101111111
00111110000100111100100010111100
00111101111010000110110000101110
00111101101100001000111000100000
00111011100111001001110101111010
00111101100100001110011010000001
00111100000001010100101110001000
00111100100000001010000011110011
00111101000010110010011101101001
10111101110000000000110010001011
00111101101010000000110010100111
00111110000010110111101111010001
10111101101011110011101110011100
10111100111100101100110111001111
00111100110011011011110110110000
00111101101010011101100010010000
10111101100111010010001101001101
10111010110100010100000110111111
10111101110010110011010011101111
10111101110101001101110000010111
10111101110111001010101101001110
10111101110011011010101000110101
10111110010110100001110011100010
10111110001010110100011110110100
10111101111001111010010111010111
10111110000010010010011101010101
10111101001010010001010010000011
10111110010001110000010111011110
10111110001000011011001111010110
00111101011100011111000010001011
00111110001000010000101111100101
00111110000001000010101111101101
00111101110000000011000101100110
00111101101000000111101100011101
00111100100011001011111110001000
10111101100001011000111110101000
00111101000100111111010101000111
10111110001010010011101011010100
10111101100000000110011110101000
00111110000111100000010010100100
10111101110000010110100110100010
10111100000100110000001001001111
00111110000001110000011100011001
00111101001010101001001001110010
10111010111110100011001011111100
00111100000011011100110111111010
10111101110110101000011111000110
10111101110000000011001011111010
10111110000010101100000101000011
10111110000100100101001111101011
10111101100001110110000011100000
10111101111110111010111100110100
10111110001110110011010001110100
10111101100010000000000010101110
10111100111111101100110110100010
10111101101010011000110111110001
10111101011010000110011011011011
10111101011010010000001000010011
00111101001010001010011111111110
00111101110000000011000100001110
00111110010011101110001110110111
00111110001011111100101100011001
10111101100010011101111110101001
10111101101110011110101101000110
00111101111011011100101010001000
10111110000000110111010101000100
10111100001111101111111111000101
00111110000010011100000000001000
10111101010100111101000001110110
00111101110000011111101100101011
00111101101100000011110001000010
00111101110110001100110110100001
10111101001111101000000011110000
10111101011100101000010000001101
10111101101011110110000001010010
10111101010010010101110000000100
10111101101100000110101101011101
10111101110100101100101001101111
10111101100001100110110110010001
10111100000111001111100011100011
10111101010011010001001000000111
00111100001111001010101011110100
00111101111101111000100110010011
00111110000010001001011011000001
00111101011011100101011011000011
00111101001000000110011000100111
00111110010101011111001100011101
00111110100010011010001100100110
00111101101100100001100011001110
00111100110010001000011001000111
00111101011101000010010100110110
10111110010110101101000101001000
00111101011010101000000101100101
10111110000101011110110011110000
00111101100100111000101110101100
00111101110100100100000000100100
00111100010001110110110111001110
00111100111111010100111100000101
00111101011110110011101010010000
10111100100111010001001110101011
10111110000001100101111101100001
10111101100010001000100000111010
10111110000100010101101110110000
10111110000110001001001100010011
10111110001100001110101001011101
10111101111011101000110100110010
00111101000001111111111111001011
00111101000110001101110100100100
10111100000101010000100000000101
00111101110000110011110011011110
00111110010010001001101000000011
00111110000001101010110101001011
00111101010110001111000010110101
00111110000010011110010000011100
00111110000001011011111110100010
00111110100000110011111100111111
00111101101110011000001010101010
00111100100011010110000110101001
10111101000001100111101000100100
10111110010000100101010011101110
10111101010100001001101100101111
10111110000010111110010111110100
00111110000001100000110000010000
00111100110011010011101011101100
00111101011111110111001111010101
00111101110001010001010110110011
00111110000111000000111110000000
00111101001010111011110010001010
10111011111101011111111011101011
10111110001100000111000110000001
10111110001000010110000010001010
10111110010000010110001011101010
10111101000001000010011111110111
10111101001110101001100010101110
00111100110111010011111110010001
00111100010101110011011111110000
10111101010001100111101010100000
10111100101110010101000110011100
10111101000001100011000100010001
00111100110001110100110101010010
10111101000011000111110101001111
00111101000001011100111101101010
00111110100010100100110010100010
00111110001101001010010000111001
00111110010110011110010100110011
10111101110110010100100010101000
00111100111100010100001111110000
10111110000000010110101111111111
10111110010101010011111000110100
10111101010000010111110111011111
00111100100010100011010110011001
10111100110110101010100001110101
00111110000010010111001101110011
00111101111000111000111011001000
00111101100110000100001010100101
00111101110001000011000011010101
00111100110110001101111001100010
00111011110111110001111001010001
00111100010001000000010010001111
10111110010011000100100011110000
10111110011110011110000101111010
10111101111000101100000110010000
10111011110010010111010000000100
10111110000100001100101111001110
10111101111000101110101010011100
10111101110001000010001010001000
10111110010110111100101010110110
10111110000001011111101110001110
10111110011000011001011001110000
10111101100100101001100100000101
00111101000011010110000001111111
00111110001110010011001100110011
00111100000111100101111100111110
10111110001101111100100010000001
00111100011010100010011100000000
10111101111100100100010111100101
10111101010010011100011101111000
10111100101100101110100111101010
10111101011000011100011000011000
00111100110010110010011000110001
00111110000101111000111110101000
00111110001100110000100000000100
00111101000001100001110100010010
00111100001011010101100111100110
00111110001110100101101101101011
00111110000011010100100001011011
00111110000001110110101101001110
00111011011101001111101000111100
10111110100000010010110011110000
10111110001010001001000111000100
10111100010100011101011100100010
10111101110000000110100110011111
10111110010010101100011111111100
10111110010101111000100001111110
10111110001110101111000100100110
10111110001101110010101100101110
10111110011000011101100010100001
10111110010011100111110110010110
10111101011100011100011101100011
10111101110001110110110011011010
10111101111000011101110011010001
10111110001010000000011101011000
00111010100101110011110100000000
10111101110110100010110110001101
10111101110000001111011010110111
10111110001001000011100010011111
10111101110111001000100001000111
00111101100100001101010010100100
00111101111011101001101001010000
00111101110001000011000010010111
10111100100010100011011000110000
00111101011010001001010101010100
00111110000010001100010011001110
00111101110001011101011111011111
00111110001010000100000010101110
10111100111010110101010111100011
10111100111001010001110010101111
00111101010000110100110110001001
10111100100000111011110011101110
00111010111110100100111101100100
00111011110100111001101110101000
10111011100000110111100100110000
10111110001110111110111000000011
10111101110110000101011010101011
10111110000101111011110011001101
10111101010010101111111100010000
10111101010000011100100000010011
10111101111000011011111010101010
10111110000010001011011000011011
00111100011011111100101111110101
00111100111110111101101011101100
10111101011100010100011001010110
10111110001001011110111100010011
10111110001100000110101111101000
00111101010000000111110011011010
00111101101101010010110000010001
00111100110000110001000011010011
00111101001010010101101010010010
00111101011111101100101110100110
00111101011111101010011010101011
00111110001010010111101000110011
00111110001011000001000111001000
00111110001011001101101011100111
00111101011111011110100101111101
10111101000111110100011110011001
10111011101100011101100011101111
00111101111100000010000100100110
00111101010110100000010110010111
10111101110000011110111000011000
10111101110101011001100111011011
00111100000001111101110110010101
10111011111010100011100001100001
10111101010011111101010000011101
10111101111101010111010001111110
10111101111001000001010010001000
10111100100110010010001111100001
10111110100001011001100100110000
10111101100000111101001100000001
00111101111011101011101001100110
00111101001010011110111001011100
00111101100001000010001110001110
00111101101101100110111101001010
10111100100011101011101000100011
00111100110100001110111101011110
00111011100110010000101101010101
00111110000100101110100111001000
00111101110100101001100111110011
00111100101110101001001110010110
00111100100100110001101000000110
00111011001101101111001001101111
00111110010010000101100001000111
00111101110101001000110101111111
00111101100110100000110000000010
00111100111000011100001101111011
00111101111010111101011100110110
00111100011100101010111101110010
00111011110100100001011011011111
10111101111110111100011001110110
10111101010101110010010011100101
10111101100101101111111101001111
10111101001010010000011010100110
10111100110111101100010000001111
10111101101100110111110001001100
00111101101010100000101000111010
10111110000001000010111111110001
00111100100010011011011110101000
10111011011100111010110110100000
10111011100111011010101111100111
10111110000011110000101010111001
00111011100000110100111010101000
10111101010100011100010000101100
00111101000101010000110110010110
10111101010101011101001101011101
00111101010110100111111011100001
10111101001011000011101010101110
10111100101000110000000011011010
10111101001011101010111010001101
00111101100111000111001001000010
00111101011110101010101111011001
00111101100111000111011100001010
00111100011100110110110000111010
00111101101110001001110110111101
00111100111001011100100010000111
00111101100110011111111100000101
10111100101100100110111111110001
00111101010011001001110001110010
10111101101100000010111111110101
00111101010100101100001111101100
00111101101110011101001011110100
10111101000001111011110000101110
00111101001000110011100101111111
00111101101001011011011111111100
10111110001110100110000101110011
10111101111010101111011001110110
00111100000100110101101001010000
10111101100000001010010110000011
00111011100011110001110110100001
10111011010011111001100011000010
00111100110101011010001000110101
10111101001011000010010001000000
10111100101101011000010100110010
00111100111111000100110001010000
00111011110100110110000001110100
00111100111110000000100000111101
00111101110011000000101010011110
00111101110101010100100110000101
10111101001000110101010000111101
00111101101000101100101110100011
00111101101010100000101111010011
00111101010011011101001001000111
00111101110110101101010011010000
10111100101101011100010101011001
00111101110110101110001100110000
10111101000100101011110010000100
00111100111110010110110101010000
10111101101110001000101000110011
10111100111100000101011110110110
00111101001110110110011001000001
10111101010101111010101011101010
10111101100010101010100001111110
10111110000011001010000100000101
10111011111101000001010110100010
00111101001101000010010010110001
10111101001101000000000001010111
10111101010110000100100010000010
00111101011000111000000011100111
10111100100101000011010111011011
00111100011011011110010101000011
10111110000110001010001111000011
10111101001100010000011111010000
00111101100011010111010101011110
00111101011101111110101111111110
00111101110010100001100010010011
00111101010100111101001001101110
00111110001011000011111111101010
00111110000101000110000110110000
00111100101110110001100001011011
10111101011110010010000100011100
00111101100101001001000001100110
00111010101101001011110000011010
10111101100001101100000010010010
10111011100001111010010100101010
00111100100011010011010011011100
10111101101110000000011111110011
00111100100110001100100011011001
00111101010011100001010100010101
10111101000001101111101000011001
00111101000001101001001111011101
10111101100101011101010110011110
00111101101101111111001011000100
00111101001110010110111010101100
10111101011111100101010100110010
10111110001010100011001000000001
00111110000111010000010111100001
10111101000011101111001100000001
10111101110111010111010001101000
10111110000001100111100101101000
10111101000010110000110110001010
10111101010001000100111101000100
00111101100010001110101100111011
00111011110000011110000000101010
00111101101111010001010110111110
10111010110111111110101110010001
10111101001101011100010110001101
00111100111101100011001001101110
00111101000010111110010000000101
10111101000000111101100110100000
00111100111000011001101010001000
10111100101001110010010110011110
10111101101101101110100110110001
10111100101111001010000011110010
10111100101111010000111000000000
10111101101000100101100011010010
10111011111001111101001100100100
00111101101110110100101010100000
10111100101010100010011110111101
10111100100011110101111011101101
00111101000001001111100001001010
10111101011100001001000011000100
10111100100000100100100100001101
10111101001000011010111101001100
10111101100101111000110000111001
10111110011001110100101111011010
10111101111110011111000110011100
10111110000111111100000111110111
10111101011011101011100111100100
00111101101001101111111111010110
00111101110011011100110000110111
00111101110010001100010000011111
00111101101100000110100110111001
00111101011101011110100011110101
00111100100000100010001001000101
00111100001000101101110001111111
10111100111101101000010111000010
10111100111101011001110011000001
00111100111100111010101111010111
00111101101011101011100001011000
10111011100101010100110111110110
10111101010011101111100010000110
10111101100111101001101100110110
00111101100101110010010000011001
00111101010011111110011011110100
10111101101010110010010101111101
10111101011010100110011000010001
10111100110111000011111100000001
00111101100110000000101111101010
10111100011001001001010001011001
10111101111000010110001100101111
10111101100011100110011000111010
10111110001011011000010100010110
10111101100101000100101100001000
10111110000011111101011101010011
10111110011000111010000111000011
00111101000010101010110000101110
00111101100111001111000010011101
00111110000101001111111111111111
00111011001111111110001110001100
00111101110101111001100101001100
00111101101010100100000111011001
00111101110100001111111010100011
00111100010111100110110100001110
00111101111001111100101010111100
10111011001101010110110101111110
00111110000010000100101111101101
10111100101110011000001011101110
10111101101111101011010010100100
00111101110010111011010111011000
00111100011100001100001000100100
00111101111001000101110111111111
00111110001111010010101000110100
00111011110110000000110100101100
00111101011101100001001110110110
00111101111010111101010101101001
10111101100000111100101100111100
10111100010110110100110000011001
10111100011100010001000110100100
00111010111110110110101010010110
10111101111101010001110010111001
10111101111110110101110101000011
10111110010010110011001100010000
10111110011101111000011001001100
10111110001110100100011110111101
10111101011110100100100101011110
00111101101111110101111011101111
00111100101110011001100000111101
00111101001111110000101101010111
00111101001011111000000010010111
10111011111000110111000000010010
00111101010110101100000001001101
10111011101010011101111101011010
00111100011100011101001000111010
00111011101111010101111001001111
00111101100101001010100111100011
10111100001110110100101111001101
00111100110111010101001001010001
00111110000011011010101101001010
00111110001100011101011100001010
00111100111111000101011011110011
00111100010011000100000010100010
00111101000101100111001010001011
00111110000110101010110010011111
00111101011101000101101011001010
00111101010100001000111001001010
00111101000101100110010001111110
10111101011111000001111101011101
10111101100100110100111110111000
10111101101111110000110100010001
10111110100001001100110000001110
10111110001110000101001111111100
10111110101011001000101001101100
10111101100110000100001111010110
10111101010000011011000010001011
10111101000001011011011001000111
10111101100010010110011010001110
00111011100000001011000001010011
00111101001100100010000011010001
00111100110101001111001111011010
00111101101011010111011010101100
10111011000011001111101111111011
10111100010010001010001010110100
10111100010011110000110000010111
00111110001000000000101100110010
00111101110100110111011000010000
00111110000000011000101111011110
00111101101111011011101000000000
00111101100100110001100100100001
10111101101000100010111011001011
10111101000001010001001010110010
00111110000000010000010011000010
10111101000010011111001010111011
10111101100100100011001001101110
10111101000111100100101101000001
10111101101110110011111111111010
10111100110110011110001000001011
10111101010011001010011010010100
10111101111111000101010010001111
10111110001000111101000000100000
10111110100000100011111000010101
10111110001100010111001010101011
10111101101011000010111000011110
10111101101001011000000000101000
10111100101111101001011100101011
10111101011100000111001101111110
10111100101000010111101101000100
00111101010111001111100100111011
10111100110100010101101001100011
00111100110100000100001011110001
00111101100010100100100010011010
00111110000000000101101000010110
00111101111010011101111011101011
10111100011110010010101110101011
00111101100110011000101000010110
10111100011011101001110100101111
10111100001100111011110011000000
00111101100111101001111001010100
10111011011001011001100001110100
00111101101101110000111010010101
00111100101100100111100110101000
00111100111001101010110111100000
10111010110010100110010001000000
00111101110110100000100110100111
10111101000001111100001011110011
00111101101000000110101011011010
10111101011010110000100101001000
10111110000010100010101101001011
10111101110111110110010011101110
10111110010100110001101001100000
10111101110000011100110101100000
10111110000110101010101101010010
10111101100010001000000101110110
10111110010011000100010100100110
10111101010100110110100001111011
10111110001011001000111111000011
00111100101000100111010110000111
00111101101000001110111110100111
00111110000010110001101111100011
10111101000011011000011011101101
10111110000100111110111010111100
10111101101011111011011110100100
00111101111011011101010110110101
00111101101110101010000011011000
00111110001101011100000001011001
00111101110101000001110111101011
10111101010110000011000101011111
00111101100000100101111100010011
00111101000110101111101011000110
00111101101000100100101101001101
10111101011000111011101111101000
10111001010100111000101000000000
10111100111100111101101001000000
10111101000100110101101110100000
00111100101111011101000100101000
10111110010101111111101111010011
10111110000010100011111010101100
10111100100011101100110111111110
10111110000110100100100000010010
10111110100111000101000111101101
10111101110101001010110111100110
10111101010111010100000101000110
10111110011100010101011111111111
10111110101001010011111100100111
10111100110011110000010111010101
00111101000100000110110000001111
10111101100010100011011110110010
10111101011011000011010010011110
10111110000101111001100100001000
10111110000001101101110010110010
10111110000111100111110110110010
10111110010001101010011001010010
10111101100010100110010001110011
10111101111000001001100110011111
00111011000110101101011100100000
00111100010011000110101011011000
00111101000111110001000111010110
00111100001000000100111000001000
00111100100110010011010001100100
00111101010100110010101010111110
00111100110110000111110010000100
10111100100011000000101110000110
00111101010010000011101001100010
10111101111001010010100010010101
10111101101100101010010100010001
10111101111001000111101111001011
10111100101110010110111101011100
10111110000010000111011111110010
10111011011110110100101011100110
10111101001001001100110011011000
10111101111011011010011000111111
10111110001101000101001011011111
10111100111001100110000000101101
10111101101001100110101000100111
10111110001100000100101001111011
10111110011100011000001111100011
10111110011000001000111100000101
10111101100110100111111010001110
10111101100001110111110011010101
10111110000000011001110110100111
10111110000001101110000010110011
10111101001001010011000111101000
10111101101000100111100110001101
10111101010110110111110100110011
10111100011001110100010111100000
