10111101101001100011110011100000
00111100101011010101100010010000
10111101100100000001100000001110
00111101100111011110111010110011
10111011010000011100011100000000
10111011100100101100001011110000
00111101100101101010011001000001
10111011011000100100010011000000
10111101001000110100100101010001
10111101011111001010110100101010
00111101010101011010011110100110
00111101100100000110011000011011
10111101001011101001111000011110
00111101001000011111000111001010
00111011110001010101010000010000
00111101100100010000110111010101
00111101100000001100001100101001
10111101010100000011011011000110
10111101100111100000011010100101
10111101000111111110111001010000
00111101010100100100010110000010
10111101001111010011110001011000
10111101011101100111110000010100
00111011011100010001100011000000
00111101100000000101001001111101
10111011100000001011010101000000
10111101011011110010100001000000
10111101001011000111111011000111
10111100110100101010101011110100
10111101100111001101111010101010
10111100101010100100101001111110
10111101001100010001100011001010
00111011010011110011100101100000
10111101010111100010000110011010
10111101100111011100101101100111
00111100101000111101111000100100
00111101000101000000000100100011
10111101000110111000001010010110
10111101101110000111001101011111
10111101101110001000110000111100
10111110001000011101100001100101
10111110001110011010010101111111
10111110000111000111010011110111
10111110010100111110101000011001
10111110000010111001011011101000
10111110000001110010000000000111
10111101101110100001101010101110
10111101110011010111001101011111
10111101100001100110111000100101
10111101001000000000011100001111
10111101011010101111111111011011
00111101010111101010011110101010
00111101100000111001000110011101
00111101100110001111101011100001
10111101010001111100010011011111
00111011100101000110011001010000
00111011110001100010111010010000
00111011101100011101100101000000
10111100110110000100010111011000
00111101001011011001111001001100
10111011001011100100100101100000
10111110001111001000011011100101
10111101101100110000011011001000
10111101010000100001000000010101
10111101011111100000011110111000
00111100111101000001000010011001
00111110000000100011001010101011
00111101111111000010011011001001
00111101100111001111101001011100
10111100110101010110000011111010
00111100010001001110101011001011
00111100011111100110101111101001
10111110000101100100111100101111
10111110011001001101111101101111
10111101011110110100101110101011
00111101101001110110001001111110
00111101110110011100001011101101
10111101100100010000000100101011
10111101011111111110001100001011
10111101100011001110110101100100
00111100101000110101100001100000
10111101110101111010011011110101
10111101011000010101000111010111
10111010101100101110011001000000
00111101100001100000110011101011
00111101100010010001111011001001
10111101001100000000010100100011
00111101001000010000110000100110
00111100111110101100111101000100
10111100111110010101100010001110
00111101101110110101101011011111
00111110000111000100010011100010
00111110010110000101001110100000
00111110101111101001000111001010
00111110100111010000001011110101
00111110101000010000111010110101
00111110011010011100100001001111
00111110011100000111010000100010
00111100110010110000111011011111
00111100001010000010000000011011
00111101100011100000100101100001
10111011000110100100010111101100
10111100110101110010100011110011
10111101000110000110011001001011
10111100001100010011100110000011
00111101100001000011110101010010
00111101001110110100100010000001
00111011101111010111111101000010
10111110000001000111100110010010
00111101111001111100010101101111
00111101000001001010111100101101
00111110000000011111110111110110
00111101010010011110000101101010
10111101100101001011001101001110
10111101100101001101011111100011
10111101000110010001110000000000
00111101100111001011000101000110
10111101111100000001101000111110
10111101010001011001110000001110
00111110011101001111100011000001
00111110100100110101011110100101
00111110011010110000000000011000
00111110001000100101110010011100
00111110100101101111110111010000
00111110100011101001000100001110
00111110000110010101111111100101
00111101101010110010111000011110
00111101101110111110001111111010
00111101101000010110110001000101
00111101101001001000111111011010
00111110000000010000001010011011
00111101010100100001001100101011
00111101010010011100011110000111
00111101010111111101010101000000
00111100110111010000100001101111
00111101011010011011110011010011
00111101101111011111111100000011
00111110001101001111000111001110
00111110100011110101100100011001
00111110001000100111100010010100
00111100011111001101101101111000
10111101100111101100010010111101
10111101100100001011011011110100
00111101000001100011110001010000
00111101110101111100011110000001
10111110001110101000110100100010
00111101101011000010001000001100
00111101110010100001010110000101
00111101100111110010111111010110
00111101101001000111000001000110
00111110001101001100101000100000
00111101111111001101111110110001
00111110011011101100111111010000
00111101110001010001001100001100
00111101111010000010011111001100
00111101100000100000011100101110
10111010110010011110110000101011
00111101100001001100011110111001
00111101101001111010110111111000
00111101101001100110000011101111
10111101001001010100111111001101
00111100101111011011000101111011
00111101011101111110001011100010
00111101111000100000111110000100
00111101100010010111001011010011
00111110010110000100100000111111
00111101110101101111001101101001
00111101001110010101100110111101
00111101000101111101111011111010
00111101001001011111000000110110
10111011010000000100111010011101
00111100000000011101010000010011
00111101101001110010111110111001
10111011110110101010011011101101
00111101001001110001000010110000
00111110000100001010100101100101
00111101000010110101100001101101
00111110000110010011000100101100
00111101110110110100010001100101
00111110000001000001110001101101
00111100111000100100010011110011
00111011100010001011000011001000
00111101010000101001100101011011
00111100100110001100101111111100
10111011100100000100111110100000
00111110000010010001100110001001
00111110000001100101100100100001
00111101101011010001000110100001
00111100111100110010100011001100
00111101111101000001101101001001
00111101011110110110000111101101
00111101101100011011011000000000
00111101000100000001111000000100
00111110001001001101001110000101
00111110100111100111001010011001
00111110000110111100010110000100
00111101100001100001101100101001
10111100001101010100101000011101
00111101111110010011000000100001
00111101010011101011010101000001
00111110000001111010110000111010
00111110000011010111110110000100
00111110010111011110100100000101
00111110001000100011100001101111
00111101010101111011011111010000
00111110000000011010100000110111
00111101010010111000111110011001
10111011001110101100110010100110
00111101001100000101011111110110
00111101101011001010010001111010
00111101101111111001011111101111
00111110000000010000010100100101
00111100110100001010010001100000
00111101101010011001010100101100
10111101000000101101111101001010
10111100110010101001100100110000
10111101100001110010001100011010
00111101111100011101000110111111
00111101101010101111011101110010
10111010111101001011100111100111
00111100111001110001111010011010
10111101000000000111111001010011
00111110000010011100000111110000
00111110000110010011001001000110
00111101001110101010100101111011
00111101001011111000111101111011
00111100001001100010100010100100
00111101011001100100111100110000
10111101100001101001011100010110
00111101110001001111111100110101
00111110010101111000000000110011
10111100100111010001001111100011
10111110000001111101001110101011
10111100001001101000100000101101
00111101011011011100101111011100
00111101101111010000100001000010
00111101000001000111101011010100
10111101101001101110011100000101
10111110000001101010001100111010
10111100111001111000011000111001
10111101000001001101000101000011
10111110000101100111001111110011
10111101001001001111110010000111
10111101001011110111010011100010
10111011111001001101010111111010
10111101100001001001000101110000
10111101100100100001110000000011
10111010110101010111000110011101
10111101101111101011110111101111
10111101101110001011011000110010
10111101110001011000110101010011
10111101110010100010111000001001
10111100010001100110011101001101
00111100101101011000000000101001
00111011011110111011011110111000
00111110000111011100001010011101
00111100111100011101010010100011
00111101111000001010100110110110
00111110001001100111110011011000
10111101101011011111111111000100
10111101101111110110101011100101
00111100011110000110111011100100
10111101101111000101011111100010
10111011010100000010110101000011
00111100100001000011101101101001
00111101000110011010101001110111
10111110010010000111010100111101
10111110000110111110011100000101
10111101100011010011010001111111
10111101101111011100010001100001
10111110001101011011011101111101
10111101101110001101110110111101
10111110100001111110011101100010
10111110010011001100010110011111
10111110011011000111011011011110
10111101010110010011011011111110
10111110010111111101011100001011
10111110011010111000000010110010
10111101101000111010110011010111
10111101110010010011110010010000
10111101110101100110100001001011
00111101000001100101101001011110
10111110000111001011100110010001
00111101001110101101110101101010
00111101111101110101001100000100
10111011100111000001101111111101
00111110000100100000101110001101
00111011111011100001110100010000
10111101101011001100111001110011
00111100101110010110001100100001
10111101110000110101101000101010
10111101111010000101000101011110
10111110000111001111011010010110
10111110000001101101001110111101
10111100111100110100000101111100
10111100001110001110001010001010
10111110001001010001111011110101
00111100011101000001110111001001
10111101110001001001000111110100
10111101110101001010000000101011
10111110000000101111101001000011
10111110010111000001010011111010
10111110000101110110100010011001
10111110010110111010111000110100
10111110110010111110101000101010
10111110111000110101110110110101
10111110001011000111111100100000
00111101101011110100001100111100
00111101100100010011111110101111
00111101100000011100110001101001
10111110000101010000000010001011
10111110001001101001100101010011
00111010101001110000111101100100
00111101110001001011110001001110
00111101111011000110101010001011
10111101011111110000100010110010
10111101010000011111010110000011
10111101110101110001100110011000
10111110001100111010011111101110
10111100100100110010001101100101
00111101101111101000111111011011
00111110010011110100010000000000
00111110000001010110001110000000
00111101110101010111110100000101
00111110000000011111110100010001
00111101101100000111000001011001
00111101111100111001110100101010
00111101110011110100001100110100
00111100110010111101111101001111
10111101101011001010101011001100
10111110001011111111101111110000
10111110011110001000110100101110
10111110100001000001001010001010
10111110110111011001110101011110
10111101101110110110011111001001
10111100010000111101100001100100
10111100110001001010001000010010
10111101000010100111001000100011
10111110001010000001011010111000
10111110011111011001001100110010
00111110000011111111100010111101
00111101111001110101011000100100
00111101001011000100110111101000
10111101110010001111001111001110
10111101010111100011110001111000
00111100111001011000010101101100
10111101100100100001010000011001
00111101100100011000100010111100
00111110010111110001110101000010
00111110001010100010001111101011
00111101111110110100101000010101
00111101100010110110110101111001
10111101000011011001011101011101
00111101110101001011001110011001
00111101000000011010111101111101
00111101101011010001110010110001
00111011011000110101110001100000
00111101011001111010001001110010
10111100111101111100110001011100
10111100110010000111111011111110
10111110000010011100000111111011
10111110101100010010000010111100
10111101110110000101010010111100
00111101010100101101111011010110
10111101010110001101001010101011
10111101100100000110110110011011
10111101110010111011111100111000
10111110100000100100001111010111
00111101111111111010011111011110
00111100110000100001110001011101
00111101101101001111110101101000
10111101110100101101011110100110
10111101000011111000100101111101
10111101001100010010011000111000
10111101000000111001000100011001
00111101101001010001010111010110
00111110000011111110000111011011
00111110000011001100110111010001
00111110001000101111100101000110
00111101110101101010100111000110
10111101000111011011101011011010
10111011101000100101000111100100
00111101011001101101110010001101
10111101001101010000110100000011
10111101001101101111000110101001
00111101111101111010111101110010
00111110000111111110110001000010
00111101100001010010101101110001
00111100100101100101000011010110
00111101001000001110001001101111
00111100101001101110110001100101
00111101000000101100110101111011
10111011100010000110010111001100
00111101100110100101001100101011
00111101001100110100000001100010
10111110010000110110010011110000
00111101010010110001100111100010
10111110001010100011101100001100
10111110001111110011010001111011
10111110100100110111110011100001
10111110100000101111100111011100
10111110100011111010110000110000
10111110001110110011111000100001
10111110001001000100110100001011
10111101101100010000110110100101
00111101010100011010000111001101
10111101000010100110110110111000
10111100100111100010010111000110
00111101000110101110000011100100
00111101001001000110010001101101
10111101100111000001110010010010
00111100001000101000011101100011
10111100011111111110001000000010
00111101101101101000010011110100
00111110000011000001000110101011
00111110000000100010110101001101
00111101100111000100100010100110
00111101001100100101001100100010
10111100000010010001000000111111
00111110001010000111000110110111
00111101011011011001011001010110
00111101010110000010111110001000
00111101000111010110001111001010
00111011111001110111101111010110
00111011011101001111101011001001
00111011111110001110111000000011
10111110011111001011110000100111
10111110100001111010011111000011
10111111000110110010110110110101
10111111000110001111111101001100
10111111000000101100111011110110
10111110110011010100110100010100
10111110101001001100110011101111
10111110010100011010110111000010
10111101101111011100100011001001
10111101111110111101000000011111
10111011110001100010110010000100
10111101101000100110101001111010
10111100110001100111111110001101
10111101101011100001010101101101
00111100000011101010001110001011
00111101101011111000010101110001
00111110001010011000110100001011
00111100110000110010101001010100
00111110000001100100000110000001
00111101101010000011111000111000
00111101111010101101101010100000
00111110001110101111111111101111
00111100110001100001010010110101
10111101010010110100111011100101
00111101011101111000101000101101
00111101111000111011100101101001
00111101101001111000100101101001
00111101000001010100101010000011
10111110000010110001011101010110
10111110101000110100010101111011
10111111000001111011001100001101
10111111000110110101100000001010
10111111000110111011001010010011
10111110111111111110001101001100
10111111000101111011100000001101
10111110111010001100101110011111
10111110100100001101000111101010
10111110000111010100101010010001
10111110000100001001101111000011
00111101000101100000000101000011
10111011010111010100111011000000
00111101011100110100010101010000
00111101110010100011010011000111
00111101100011101011100001011000
00111101001110010110011101101110
00111101111011111101000101001010
10111100001000111001001111110101
00111110001011001111000101111111
00111101101001111101011111010100
00111101110001010010101101001101
00111101010110010110100011111100
10111101001010001000110111001000
00111101101011111110000000001000
00111101110110010010011101000001
00111110010111101000111101101110
00111100100110111000100010101001
00111010001010101101010010110001
10111101100110111110000011111000
10111110011000010110110111101000
10111110001000110000001001110011
10111110101000000011111000101111
10111110101001001101111000010000
10111110111100001111101101000011
10111111000011100001010111100101
10111110101011101111000010101010
10111110100010010100101101010000
00111011000001010111011100100000
10111101101100111010101011010100
00111101110110011010111110010101
00111101001001110000000001101110
00111101010110110011010101101111
00111100110101000010111111010010
00111101100010001101011010000110
10111101001100011010011111011011
10111100010011010000000001101001
00111100000100011001101011110100
00111110011000001101010110110000
10111100100011111010100100110111
00111010111000101100100001000000
00111101101110100100001000101001
00111100001101001111011101110011
00111101101001111101011000101011
00111110100001101010101110101111
00111110001100110001110111010111
00111101101101110011100111000101
00111101110000111000000111100000
00111101100000001111101101100010
00111101100101110011101000000010
10111100001100111111100101010110
10111101001100110001100001001100
10111101100111111010001011011101
10111110001111111101010100110110
10111110000000001000010110100011
00111011101000100011001001010001
10111100110010011111000110100011
00111101110110101110110001001111
00111101001011001111001101010110
00111101100110101111010001100101
00111110001100011110111110100001
10111011001101001001111000000100
00111100100110010101010100001010
10111101010011111100011100001101
00111101000100101100110110000001
00111101001010101101110000011001
00111110100010001011111100100100
10111100101000000000100000111000
00111110000101111101111101010011
10111101000110111000100001000101
10111101101101001000111101111011
00111110001101000011001100110111
00111110010011010000011110100111
00111110011100011000111001010001
00111110000101010000011101111001
00111110000110101101011110111011
00111110011100010111111000100010
00111110001110111000101001011001
00111110001110001010010000111001
00111110010000110011000111000101
00111110010011110111000011000010
00111110001110100000010101000001
00111110011101000101010110100110
00111110000110100010111111010110
00111101101011001001111010000000
00111101101000100100000100110110
10111101100000111101001111111000
00111011100101001111000011011110
00111101001101101111001101011011
00111110000010001110000000100000
00111101011011011000011111001110
10111010110100000111111001011000
10111101100000100011101111101011
00111101010111000100011101110111
00111101110111111111001001110011
00111110000110101100000100001011
00111101110011011001011101110101
00111011100100100110000100100000
00111100101111100110110010001100
00111101100110001101110000110101
00111110000001100110010001001111
10111100001100100111101010000110
00111110000111011010010111101001
00111110010110001111011110011001
00111110000110100010100010110101
00111110101000001100011111101000
00111110000100010010011011001101
00111110001010011110101001010111
00111110100100110011001001001101
00111110000100011010101000000000
00111110010101001100110101000000
00111101101110011001000101100100
00111100010000100000010111011101
00111100111110000100011100100101
10111101011010001101001111100011
10111101010000110111011110110111
00111101100100111111000110100001
00111101100100110111101100000011
00111100100101000100011111000100
00111101101010001111001011100101
00111101101010001100000110011100
10111100100101110101001000100100
10111101110111000100001010000110
10111101101011011100111011010101
10111100001000100001100010111011
10111101100001011010111111100011
00111100100011011000010010010111
10111001000011001100110001100001
10111101101110011001111011000011
10111101101100000111010011000111
00111100100101110100100011001110
00111101101011010100110011101110
00111110001010110110000111111000
00111110011110101000011111101100
00111110100011011101101000000000
00111110100011110010111111010100
00111110011110011011101101011110
00111101110100100110000010101000
00111101011010000101101000011100
00111101101100010000001100110010
00111100001001100011100011000011
00111101000100000101010000010011
10111100111111010000111000101100
00111101011000001000010111000010
00111101001011101001001101001110
00111101001110010000011000101001
10111101010010011100111101000111
00111101000001000001001111100110
00111110010001110011110011101110
10111100010011110010010001010000
00111100010011100010111011001000
00111100110101011100011111001011
00111011010101110000000111001110
10111101100110001000011100010111
10111101000001100001010111000011
00111101000011001101000010101101
10111110000011010110100110101110
10111101100010011101000001011011
10111101000100001111000110100100
10111101010010001001110100001011
10111100110110110111111100111010
00111110000101110000100111111010
00111011011101111011100111011100
00111100111111110110110111100001
00111101101010111100011110010011
00111101111001101001110110011001
00111101000110011110101001001010
00111100111110011000111000111011
00111101000101010001001111100101
00111100011101100011011110001110
00111101011100011011111000100110
00111110000000100111111010010100
00111101111000000101100110001001
00111101001100111101010011111111
10111101110111001000000100100001
00111101000101000100100100100100
00111110000001100000100100001001
00111101011111111001100001011111
10111101110111010101000100000011
00111101101111111100110011000010
00111100111011001100011100100111
10111100011010011000001000011000
00111100110000101101101110001000
00111110000110110110000111111001
00111101110011000110100000010100
10111101101001100010000010001101
00111011101011111111000010000111
10111101001011110010111011110111
00111100010101100011111101011111
00111101110110110001010010011110
00111101000100010111011111111011
00111110001011001111101100000010
00111110000011001011000011111001
10111101010010110110101010111110
00111100001100011100000111011010
10111101110000100001010000111110
00111100101000000011010011110011
00111101101110110110110010011010
00111100101001001000111001100111
00111101000000010010010000011010
10111101110010110110110100011101
00111101011011011110011000011101
00111011101011011101011010110110
00111100100100101101000000000011
00111110000111111001000010000111
00111110010001110100010111001010
10111101010000001110001100100010
00111101101110110011010001100000
00111101010101001000000110010110
10111100110011110001101000001110
00111101001000011001000011111100
00111011000010111011011100010010
00111110001101010001100100010110
00111101100010000011001011000111
00111101101110011101100110111110
00111101001101101011110010000011
00111101111101100001000001001101
10111100110100011100110001010100
10111100011011010010100010110001
10111101101000111100110110010000
10111101100011101000011101101101
10111110000010011101100100001001
10111100110011110100001111011011
10111101011010110111010111000000
10111011000100110001111111011010
00111101101011001011011110010101
00111110000100111010011011001100
10111101100100010111100110010100
10111110000100001000000000110001
00111100100100110011010011000111
10111101100100010110101000100000
10111101000100001101010111010100
00111101110001000101111011111101
00111100110011000101110000101011
00111101100101101111111011000101
00111101000000001101010101000100
00111100010011001010101011110000
00111011110010101101110011110000
10111101000001001101000101000100
00111101111110110010100001010000
10111101011011011010000111010000
00111101001100010001000100101110
00111101010000101100110100111101
00111110010111111001000111011111
00111101110100001111100001011100
00111110000000101010010101100110
00111101110110101010010001011011
00111101010000110010011000011011
00111110010010110110011011001000
00111110001000000010001110110010
00111110010010111101000110001111
00111101100001001101110101100011
00111110001100010101101011011111
00111110101001011010111110000000
00111110010111110010000111010100
10111101101011101101001101010001
10111011111001111111000101100010
00111110000000100001110011001010
00111100100101001011001001000010
10111101101111001110111010100001
10111100000011010000111001100101
00111101011100111110101110001110
10111100000100111111111100010000
00111100111111111000011111000000
00111101000001010011001100010110
00111101100000100100011101000001
00111100011001000100111011011000
00111101010011000011110111001110
00111101101110001100100110011100
00111101111001111001000110100101
00111110000100110001000110100001
00111101100000011101011101010000
00111101101000110110011011001100
00111100010111111100110000010101
00111110001000000011011111010011
00111110001010110100011101100100
00111101101001001000000101110010
00111110001101010010111111111000
00111101101001111011000001010100
10111100110101111000001000010101
00111110011010100001100011100101
00111110000101001100000000011000
00111110001101000000110101010001
10111101101011110010001101011110
10111110100101111001111010111000
10111101110011010110011111001110
10111101100000100000011111101011
10111101101100010011110110111010
10111101001000110110011101000101
00111101100101011101000010101001
10111100011100011100100000111000
00111101100101100100011011000111
00111101100000000110100001010001
00111101100001110100100110011101
00111101001111011000100111100110
00111101000001110000000000001010
10111100111111000110010001011000
10111101001110110110001011110001
10111100100010001111101111100100
10111101101110101100001000000100
00111101000011000000110000010100
10111101001010100000101010111110
10111101111111011100010001100111
10111101110101000000001101101100
10111101011011111101110011011001
10111110001001100010111101100111
10111101111111000111000100101111
10111101011111000101011110101011
00111100101000001110110000110011
00111101100011010101001011100010
10111101110100011010010010110010
10111110010100111011111001011111
10111110000100001000001101100001
10111101101011010101001000100011
00111101100110100011010101000010
00111101001101001101011011110101
10111101010011001101100100111000
00111101100010101111100010010001
00111100111111110010010111000100
10111101100101110110000000000101
10111101100110110110101111011000
