10111100100011011101101110111110
00111100010001100110011100001000
00111100100000001000011110110000
00111100111000010100110110101000
10111101001110101010100111110011
10111101011011111010010100011001
00111101011000010111000010001010
00111100100010001111011100010000
10111101100101000100111111011010
10111100000010010011101110010000
00111100001010101110111000000000
00111101010110100011011000101010
10111011010100100010101000000000
00111101111000010101111111111111
10111101010000001101111111101011
10111101110011011100100011101111
00111101000001001011011001001101
00111100101001010010100100110000
10111101011111011000000100000000
10111011011110110001011010100000
00111100000011110001111111010000
00111101001101001110111010101110
10111100000000110010100110101000
00111101010001101100100001001110
10111101010110011000000011010010
00111011010111001010100011000000
10111100111100001011111011101010
00111101100110100010010001000101
10111100111011001011111001111110
10111100101010101100101010011100
00111010001100101100110010000000
00111101011001110111101010000010
00111010100101101011111000000000
00111101010000001100010110000000
10111101011100001110010101111000
00111101011110001011110101110111
10111101000111010101101001011001
10111101001101001010001001000100
00111010111101010111000000010010
10111101010100110110010101011110
00111101100000010100110000110001
00111110011110011100001110001001
00111110010101100111011100010110
10111001111111100100111001001101
00111101100001111001110010011100
10111100010111100101110000001110
00111101101000110100110101001110
00111101111001001110100100011110
00111101111001000011101000101001
00111101110010100111100100000011
00111110000101001111110100010100
10111101001011001000001110000010
10111100100100011100011111100001
00111100111101100010011011000000
10111011010001101000111011000000
00111100101101011101100110010100
00111100111111001110100110010000
00111101100001010110010001100001
10111100110110001110001101010010
00111101000111101000000001011111
00111101001000111100101010111111
00111101101100000111100001000100
00111100000000111001101010010001
00111100000001101100011101111100
10111101011011010000010110011111
00111100101101111111100110100110
10111101001001010011000011011011
10111110000111010000100101111100
00111101011011100110111000101011
00111101010001001111001010000100
00111101111100111011001001110101
00111101001111011111001010101011
10111101010101010010010100101101
00111100101001101100100010110100
00111101110010110101010000110110
00111110010001001011010110111100
00111101111011001000000001111110
00111101110001100011100111100000
00111110000000111001011000111001
00111110011100011000100111110010
00111100000001101011111101101111
00111100010100010010010001110111
00111100100100100111011100100100
10111101100011100001100000111100
10111101000100111011001100100011
00111101100111001111010111101011
00111100100010011100011000111000
10111100110111001100001110111000
00111101111010100101000011101011
00111110000001000010101000000110
00111101100001100110001010010000
10111101011000100001110110101001
10111101100110001111100010100110
10111110000101100001000111010110
10111110010010101101111011010000
10111110100110101011010101001011
10111110010000001011100010011000
10111110001100100010011111100101
00111011110000000100000101110110
10111100111011010101011010001001
10111101010111011000110011011000
10111100011010010000101101111001
00111011101100101110100010010111
10111100111111100111000110101000
10111101011011010010010010001000
10111101001110011110011010010110
10111101000010110010011101001111
00111101010010010011000010110110
00111110011000011000110111101010
00111101010111000000111001101011
10111010111100110110101111000111
00111100100101110000110110011111
00111101011101000111010110110010
10111100111111011000000001011010
10111011011110010011000011110111
10111101101100001100010000000100
10111100100011011010010111100010
00111100010101110101010011100101
10111101010110011001100100010100
10111110000100111111111000100100
10111110010011101011111100101101
10111101110110110011100001001101
00111101011100001011100000010110
10111101100111110000001101010010
10111101000111001110101100011110
00111110000101101010010110111000
00111101101011110001011101000111
00111101010101001101111110000110
10111101101001101110001011011100
00111101000111011101111111001010
10111101001101000111101110011111
10111100100110100011011100010111
10111100010111000011111010111001
10111100000010101100000110100101
00111101001111000001100010001001
00111101101011010010111100110001
00111100100000001011101101111010
00111101000001000111110010100101
10111101110010110010110011010110
00111101001011011001010100100111
00111101101110001101110001010101
00111101011111001000100011100010
10111100100010100011101100110000
10111101101010011110111010001000
10111101100101001101011001100010
10111101010110111110100101011000
10111110010010110010101000110011
10111101100001000000000001110101
10111101110111001111111110010110
10111101000111011000010110100111
10111101001010100101100011000001
00111101110111001000101101100111
00111110010111001110101110010000
00111110000000101111110101000001
00111101011101010010000011010111
00111110001000111110110011000101
00111100100001001111011010001111
10111101010000111010101010001001
00111011010110001010000101110011
00111101000000000110100000100011
10111100000110110101111101001100
10111101000001110110001110110000
10111101001100101001100010010010
10111101011111101111110001111000
10111101100001000001011110010011
00111101110111011110111011000001
00111101101111101111001100111100
00111100110101100100110110001110
00111110000111000010011000110011
10111101001101100010001010101100
10111101010000100010111010100001
10111101010001001100111001000011
10111101000101101101011000100111
10111101100110111000111110110001
10111101101000100100100000000000
10111110000011010011110100000110
10111110000101101100110100010000
10111101111011111001000010100000
10111110001101110111011010000010
00111100110011011100001010111001
00111101101010011111011111101000
00111101100001010011101101100001
00111101100101101010100001110111
10111101011101000101110011100011
10111101001100110010110000001110
10111110000011001110100010011010
10111101100011001001011001100010
10111110010000111111100110000000
00111100011101000111001111101000
10111101100001101000000110010010
00111100110101000100001100100101
00111101000011111110100011100101
10111100100001101010100110100110
00111101000100000100111010100101
10111101000111001011011111100100
00111011111111100100110001011001
00111101001010001110011110001000
10111101000110100000110000011100
10111101011011110010000100101101
10111100110011000111001101010111
10111110000100011011101001101000
10111110000000111001101110010000
10111110010001100100111010010100
10111110011001100010001111001110
10111110010001100011110101100011
10111101101011100000111000010100
00111101001010100101101110101000
00111100110000010100011011101111
00111101010001001000100110000111
00111100111100110010100011001101
10111100111001111100111011010100
10111011000101101100010001001101
10111101011111110101001110100000
10111110011001100100010001111011
10111100111000010001110000100001
10111101001110101010001100111011
00111100100011010111011100100111
00111101100100000110001110111100
00111101101100010000010101110010
00111101101011111110000001110101
00111101101110111111111111001000
10111100011101001010101110011101
10111110001000011110000100011000
10111101011110101010010100110011
10111101011111000001010011101110
00111101100111001010010010110111
10111110000000011101100111100100
10111101101011111110101001010101
10111110000011011001011000100111
10111110000100010001001001011100
10111110000011110011111100011011
10111110000001101011011101110111
10111110001100010011000001110010
10111110000000110010100101110001
00111100100111010101111100010110
00111101110111011011001011101010
00111110000001001011110101111100
00111101110011000101101001010101
00111110001010000100000110000001
10111101101110101000111010100100
10111110001010010111001111000001
10111110000001011110001111011010
00111100011101101100011010000000
00111011001110101000001011111000
00111100100000100100110001101000
00111101001000011100110110110011
00111101110111111001111111100111
00111011001000101101001100100111
10111101101110100111001110110001
10111101011011100100100010011001
10111101110111110001011100000111
00111101100010010101100100001010
00111101000101111110000110111101
00111101000100010100000111110000
10111101101110110110101011000010
10111100000001011010010001111110
10111110010001000000001001101010
10111101110000011111110111010100
10111101101010010001101011010111
10111110010110000001000100011101
10111110000011001001100101000001
10111110001010001010110010101001
00111100100000011110110100111010
00111101101111010100111000111111
00111110000101110001011110101001
00111101110101000011001001101110
00111101110010011010100001010000
10111101110111001101110100000000
10111110000101010101011101010111
10111110000101110110111011111100
00111100101000100110000001011111
10111101000101000110000010010011
00111100001100010011110001111011
00111011100010110010101010110101
10111100011010000000000000000000
10111110000010100001111000110011
00111100100011011110101000101101
10111011101000001111111001110101
10111101001100101111011001011011
10111110000100111101101000110111
10111110011100111101110100001100
10111101001111001001001111000001
10111101001110010000010100110110
00111011001000100001010011110010
10111110000011001000000011111110
10111100111110001100000111011111
10111110001001100010011111110100
10111101111100011110111001111101
00111100101010101110100001001111
10111100101100110001010111110100
10111100010100110001010010011100
00111011011111000101100010001100
00111101000101011110010100000011
00111101110010011111110010100111
10111011011010011100101011100100
00111101101010001001110111010101
10111110010101110111111101101111
10111110000110100100110011011000
10111010111110100100011111000001
00111101011000011010010100011100
10111100000001000010100000001110
10111101010111000101100110001100
10111011110110100110000110000001
00111110000000111100010011101011
00111101110001001111000100111001
10111101001010101111100101000001
10111110010011001010110000101000
10111110100111001010011000001111
10111110000001111011110010001111
00111101010111010100011011000110
00111100101111100000101000001001
10111101111001000110100111100001
10111101111010000111111110001010
10111110100000111110000001110011
10111101100010111000110101111010
10111101100111001110010000101101
00111101000011011111011011110001
10111101101100010111000001011010
00111101010010010101110111011111
00111101010000110100111000011111
00111100101101101011011100000010
00111101110011110001111000100110
00111110001010110011011001111010
00111100011001100111101101001000
10111101101111100000100110111110
10111101100110011101110000101111
10111100111110011110001100101101
10111100100111011000101001001001
00111100100111100000111110001111
10111101110010110001101110000000
00111101000100001011000001010101
00111100110000001000100110010101
00111101000100010011001000101010
10111101101000011100100101111101
10111101101010111011010100000100
00111100111001111101100010101000
00111101000000101001011001010001
10111101100110001001000001011110
10111011011111001000111011101101
10111110100011011001101111010001
00111101001111101010011011101111
10111110100001111011011001111000
10111110000101111011110011101110
10111101000100011100000010110011
00111100001111101010010001001101
10111100111010001101101001001010
10111011111110101010010010011000
10111011111011110101100111010011
00111110000010100101110100110001
00111101111001111011110100000100
00111101110000111101000111110110
00111011001111001001101101000101
10111110000110101010111100100110
10111101011000011010001100100111
00111110001101101111101001011001
00111100101111110001011101111010
00111101001101101011000110101110
00111100001101110011010001110011
00111110000111101010011110011110
00111110001111010111111100011110
00111110010111101100101101110010
00111110011010101111010011101011
10111110011000100110111011000100
10111110011000110101010101101111
10111110000110110100010010100111
00111100100011000000101010110000
10111101111010100100111101001001
10111101101101000100010101110101
10111101011010011011010101000010
10111110100001100000001010111000
10111101101100110111000110011111
10111101100001001000110100011110
00111011111001000010110111001101
10111100110110011110100111011100
00111101010000111010011110100001
10111100010100010100000011000110
00111101101010111000001110001100
00111101100011001101101000111111
10111101010001101111011110000110
10111101111100100001000010001001
10111100001101011101110010000111
00111101110100010110000111101011
00111110000000111111110100111000
00111101011010110000011110100101
00111101110111111101000011110011
00111101100111100000010011001100
00111110000000001111010001000001
00111110001110110011100001110100
00111101101010000110100011111011
10111011011100000000111110011010
10111110001110110101010011011000
10111101110010100110110110110110
10111101110110011000110001011010
10111101000001110101011001100010
10111101100101011111011010111001
00111100001110110110111000100100
00111100001011011101001100101111
10111110011100000110001010110010
00111101000010011111011110100101
10111101000000100111110100100011
10111110000000010111000101000010
10111101100101001101000110101000
10111101010001110000111100011100
10111100100100001100101110001110
00111010111101101100011011100000
10111100110001111000101000110001
00111101001010001011011001011011
10111101111001011010001110000000
10111101100000010111100101100010
00111101110010010000101001000011
00111110000010011100011011111010
10111101001100000010101001111001
00111101111000111101010101001111
00111101011001010110000100010001
00111110011010100110011010011111
00111101110110010100101010000001
00111110000000001001010001100101
10111101100001110001110111100010
10111101100100100000011001010111
10111110000011000110100000110001
10111100111010110001001000110111
00111100000110010001001010000010
00111011111010110010111001010100
00111101011101011101100011101011
10111101000010011011000101110000
10111101111110100011001011011110
10111100110101101110000110110001
10111101101001110110010101101100
10111100101110100000001011001011
00111100010010111001110100001011
10111011101100000101010010001001
00111101000110110000001001001111
00111101001010011101100001110000
00111101110000001001111011101111
00111101000000111101010100100110
10111100110011100011000110001101
10111101000101101111010000000100
00111101100000110010010101000101
00111100111110111100000111000100
10111100111011011101000001101000
10111010011111111110010100100101
10111011001011101000101001101011
00111101101001111110000010101000
00111101101011101111101101001011
10111101001000001111111011011010
10111101101110000111111010010111
10111101100010100111110011100010
10111101111101000011100110011011
10111110000111010011010111010001
00111100100000001111011011010111
00111011101111000001010011100010
00111101001110011011110010100111
10111100101010101001111100110100
10111110001000010101101000111111
10111101101000011100110000011111
10111101010100000011001000100011
10111101001111010111101011111111
00111010000011001101000110010100
00111100111011000010101101100100
10111100000001010001100010110100
00111110000110111101101101000010
00111101100011111111100000010011
00111100001011000111110111000010
10111101100111001110000001100110
10111100101010011101110111010111
00111100010010001100110100010000
00111100011101001100001100001001
10111101001010001101100000110111
00111100100011011100111001101101
00111101010110111101110101111000
10111100010110000101010100110110
10111100001111111101110001110010
00111100100100111100110011001100
10111101111011111110011010000110
10111101010100111100111110100000
10111110010101001011101011011011
10111101100101101111001110001001
00111101001010011001101111010110
10111101110001001111000001011111
00111011001100010110010100011101
10111101110101110101011010100101
00111101000011010111101110001101
00111101101111001110000101011111
10111100100000001001010000001010
10111011110001001001001101010111
00111101100100110001111111011001
00111101100100010000000000010110
00111110010000101011011001111110
00111110010101111010101110110001
00111110000001100000010100010010
10111101000001011101001000010101
10111101110001000100010010001110
10111101100001000011000010011001
00111101101101011000011000000110
00111100110010011011100000000011
00111101000000100100010111100110
10111101100111100111100110000101
00111101010101000000000100010100
10111101010100110011010100011011
10111101011000001001011111100100
10111100110101011011000010110000
10111101100111111010101000011110
10111110001111010110110000111001
10111101100110110100110100101000
10111100001000001000001111011000
00111100110010101101100100101000
00111101000110110111001101000001
10111101001110100011011011011111
10111110000010001001010111001111
10111101001011110100000010010011
10111101110100000111110101100010
10111100011100111010100000110101
00111100111100111000001100100110
00111101110010010100010011011111
00111110010011010010011001110110
00111110011000101111111011011010
00111110001100001100100100010000
00111100111000011111010011101101
10111110001010111100011100111110
10111101111010100111010100110011
00111011000101101011101010010000
10111011101011111110000100011011
10111101101100010101110000101100
10111101101101000110111101100001
10111100110110110111000110100011
00111100011010000000000000010101
10111101101110111001101100010000
10111101000010101000000101000000
10111101101101000100001011100001
10111110000010111111111000100111
10111110000000001011100110101010
10111101101100000110010011010110
10111101100111011010011101010001
00111101100011111110000111101110
00111101111101000101011011001010
10111110001000000111100000011111
10111101111000100011101110000110
10111101000100001100110011110111
00111100100010010011111110000001
10111100110110111011000010001010
10111101000011010100111010110100
00111100110000101110010101001111
00111110001101110011001011110110
00111110011111100110111111011011
00111110001101000010011000111101
10111100101010001111010001011011
10111101111001000001111000000110
10111110000101111111111011001011
10111100100001100011110001011000
10111110000011001101111100101011
10111110100000100010001111100100
10111101111000011101001110010000
10111101001100001100101110101111
10111101011100100010100010110011
10111101001010100100101001010101
10111101111001111011001101111011
10111110000000010001001010110101
10111110011100111110100111101011
10111110011001111101001110011000
10111100101111011110101000111100
10111101111100011100111111101010
10111100000000111011111001000000
00111101101101111000101001101110
10111110000110101000010001100111
10111101001001100010110100101110
10111110010001000000000110111000
10111101100111001000011110101110
10111101011110100000110011100101
10111100101100111011101110000100
10111101001000010000011100000011
00111110000011010100101001101110
00111110001110001011010011011100
00111110000010101101000111010100
10111101000001110111110110110110
10111110010110111001110010000011
10111110010001101110010100100110
10111110001011101110110001111000
10111110001001110001011001110100
10111110001011110010111101011010
10111101111100111000111100011000
10111101011100001101010111001100
10111010101100011101010101001101
10111110000010000000000000101011
10111100101001101110001011010111
10111110010000001011100110110101
10111110000111010101100010110110
10111110011010000111010100101101
00111101110001101011111001111101
10111101100100110010100110111111
00111101010010101110101001000010
00111100110100101110111000101101
10111110000110100011001001010100
10111101111101000111010100110000
10111110000111101000101001010101
00111100100011100011111100010000
00111101110111101011100110011111
10111101011001010110111011000000
10111100001110111110111011011100
00111101100010111110001011000101
00111110001001011110101101110000
00111110000110010001010111101001
00111101100111010001000101100100
10111110000001000000000010010101
10111101101011000001101000001010
10111101111001010001110100100001
10111101101101110001011011010000
10111110001011001110010010011101
10111101101001000101101010000100
10111101100001110100010101000011
10111101111011101111010001110000
10111101111001100001100010001110
10111101110111111100010010100001
00111100011011101101010000101111
10111110001011010000110100000010
10111110001000101110001010101001
00111101110100111000001111001100
00111101011010011001001000000011
00111101000110101011010000001001
00111100010100110001100001110110
10111101011001110001100101011001
00111101000011101011100001111111
10111101001111110001000110011101
10111100110011011111100000000100
00111100111100100100111001110011
00111000011100000001100101010000
10111100100000010100110110001010
00111100111100101010011010010110
00111110000111010011111101001111
00111101001000000101100010010111
10111100010100010111000001110010
00111101000011000100100001100000
10111101101001000001000001011110
00111011100100100011111100111001
10111101000101110111000010011010
10111110000110111011100101101000
00111100110010110000101111011011
00111100110010111111111001101000
00111100110110101011111011010001
10111101110001010100000000011111
10111101101000001011100101100000
10111101101110001101101100111100
10111110000010000000111111011111
10111110010011100110110111111011
00111101010001010100010111110000
10111100101101001111000110000111
00111100011101000110111111110000
10111011010011110011111001000000
10111110000111011001101000100101
10111101101111001011111011100110
10111101101010101001010001001001
00111101001010000100110001000100
10111101010101010111000011010100
00111101001001000110111111110011
00111101101110111111000110000010
00111101100010100111100010011101
00111100011111110100101011001000
00111101100111111001010001001101
00111101111001000101001100110011
00111110000010100001101011110100
10111011000101110011111101001101
00111100111111110000110010111011
00111101100011000111001011100010
10111100010000011100001010000110
00111101010011111010101111011000
10111100000110010010100101011010
10111101100100100001001110001101
10111101111010011011010000101111
10111110001100101101101010110110
10111110000011011100101000101100
10111110000010010100101001101011
10111101110101000101001001110110
10111110001100000011111000000101
10111100111000101111010010110010
00111101010101001011101001100110
00111101000100010111100100110110
10111101101010101101011101101110
10111101111101101011100000001000
10111101101001110110001100001001
00111101001100101011111011001111
10111101000101100000001111001011
10111101001010010010110011011001
10111100110110011100100100001100
00111101100111001101010001000010
00111101111011011010010011000011
00111110001101001001000010001010
00111110000001100110100101010011
00111101011110101011000111101010
00111101001001001100011101110100
10111101101101110111110111010011
10111101000001010000001100001111
10111110001111010010010000011011
10111110001000010011110001100101
10111101111011110110001111000100
10111110001111010011111111101101
10111110010110001110011011011101
10111110000010000111000011010000
10111110010011111101110100100011
10111100100001100100001111000101
10111011100111000010101100010110
00111101011000110111110001011101
10111101001110100010011010010111
10111101011001001010000100101010
10111101001111111101100010110010
10111101111010110100001000111000
00111101100111101111101111110110
10111101001011000010100010000110
10111110010110010110011001100011
00111101010000001000001101100111
10111101010000111010111110000100
10111101000010000110011010110010
10111101110000001100011100010010
00111101001000110110110011001010
10111101010000011110011011000000
00111100110101010011100000101000
10111010100110001010111100110000
10111101000101010111001101000001
10111110000010001000000001011100
10111110011000011010111010110101
10111110010100010011100101100001
10111110011100011111001010111010
10111101110010011110100110110001
10111101110100111111001110111011
10111110001110100100010010101110
10111101001101101010010011111000
10111110000000100000111001110011
10111100001110111101010101101001
00111101010100000000111011101000
00111100111110000010111101101011
00111101100011101011000101011111
10111100100101100010000001011100
10111101100110010000110111111000
10111101000010000000000001010011
00111101001000101011111001001100
10111101010001110110010001111111
10111101011110100011110000100101
10111101110011011001011001011000
10111101111010110000110100000110
00111100111010100001101111000010
10111101101010100110001101110000
10111101111001101010000010010100
10111101010000100101101111100110
00111101100001101101101110111000
10111100100010100010100000111101
10111110001011000010101010101111
10111110011001010010110101100010
10111110101000011100100010111011
10111110101000110110110000110100
10111110100100010000011010001100
10111110010010101001001010110011
10111110000101110011110010000111
10111110001110001110000010111101
10111101101001001011011011000000
00111110000101011100110111001000
00111011001100000101011101110111
00111100011011111111111011010110
00111101001101111001000011101010
00111101010011100111111100110010
10111100100011000000000001111000
00111011010100111100000110000000
00111101000001110010100011101010
10111100101111100010100110110110
00111101100110100000101011001011
10111100011011000101110101101011
10111101000010111010101111001101
10111110000101011110100101100100
10111110001011010001000010001000
10111101111000001101011110001100
10111110010011101110010110100110
10111101000001101110010101011101
10111101001011110110110010001001
10111110001000110100010110010100
10111110001100110010100000000010
10111101101000001001100110100001
10111101000000101010111000000001
10111110010010011001111110001101
10111110000100001000001111010101
10111101111000100010101100011100
10111101110100011101011111101101
10111100111110000010011111110010
10111100101001111100000101010010
10111101100010111110000011101011
10111101001011000101101010111010
00111101000001001011010001010100
10111101000010101100110001111001
10111101100000000011111000111101
