10111101001000100111000000100110
10111100111110000100111001110110
00111101000011010011110100101010
10111101011000011100011111110101
00111100110110110110001110001000
00111101011101111000110010010010
10111101100001111100000010110111
10111100110010100101110010011010
00111101000111000011001000101110
00111100110101000001011110000100
10111100100111011011111101111100
00111101000101111110001010100110
00111101011100111010111001001010
00111011010110111010010111000001
00111101100000111000100101011111
00111100010110000010111010000110
00111100111000000000010111110110
10111100111110100111001100100010
00111101100101101000000110111101
10111100000010001101101101001000
10111101001111100000100111100110
10111100001101111101011111101000
10111011100010000011001110110000
00111101001110000111111000010010
00111100010010001001010110111000
10111101100010111101101101010000
10111100100101111101101011111100
00111101001011101010110111010000
00111100110110001100100001110000
00111101000110110101010110101010
10111101100001110010010000001010
00111100110100100000010100101100
10111100011001011000000011110000
10111101010010101010110000111010
00111101110000100010101011111111
00111110001000001101101010010001
00111110000010111100001001110000
00111110001011111101100100110110
00111101001110000111111000110110
00111110001000110111100110101110
00111110011111001011100001001010
00111110100010001100010010010101
00111110101010001011000110110010
00111101001001000010111001101101
00111101010111001000001110010010
00111110000011000000111011010100
00111110001011011100100101100100
00111110001110110100101000011011
00111101101110100111010001111011
00111110010111101011111110110101
00111101110010100011111001011101
00111110000101101101000011010010
00111101110111001101001011101000
10111100101110100001000011000000
00111101001101101110010110001110
10111101001101001110100011000110
10111101100000000111000110000000
10111101011111001101110000101010
10111101011011111000101001111110
10111100111111011100100000111100
00111110001010010010110001001111
00111110001001000000001110111010
00111110001101101111100001000001
00111110010000000000001011111111
00111110001100100001010010011101
00111110100001010111101100111101
00111110100000010111110100001001
00111110100110110001111001010000
00111110111010010001100100011001
00111110100110001010100001010000
00111101100001010111111100111111
00111101100110100011100110011001
00111101001110110010100001001110
00111101101001001101110101101100
10111101101111111001011111110110
10111110010001000100100101100111
10111101111011001010001010101100
10111101101000111100101001001000
00111101010100011111011001110000
00111110000100101111010000111101
00111101110100110000111001100101
00111101110001000000010100001110
00111110000110110111011011100110
10111101001100001001110110111111
00111101011100110001010010111110
00111101100000011100110000011001
10111101011010110010010011110110
10111101010110110110010011101000
00111110001110110000001101001110
00111110001010010010011001000100
00111110000100111010110111000100
00111110001011111010011001010011
00111110100001010001000111000110
00111110101001010100100110111101
00111110010101010000110001000101
00111110100100001010000100001111
00111110100110010110101011101011
00111110010111101110000111001100
00111110011011111001000001110000
00111110010000101100010011101110
00111110001001110101111010100100
00111110001110001111011110001110
00111101111010010000100011000010
10111101011110110100101100010111
10111101111000000110001110011000
00111100111011111111110110101100
10111101010011000110100100100101
10111101010011100011101101101001
00111101110111000001111100110110
00111101111010111010011001011011
00111100111111101100101111110101
10111101000110010001000001100111
10111101010010000110001111011001
00111101011111010111101101110010
00111100111011100011011110000001
00111101101110110101000001110100
00111110001000010000110100000010
00111110010101010100010111011111
00111110100001001011001011100101
00111110010010001110111100110001
00111101100111001111101111101111
00111110000111010101100000010101
00111110100110111011110010101011
00111110010100011101100100001100
00111110000000101000001001001100
00111101001000101001111001111100
00111101000111111111110011000110
10111100111110110001000111010011
00111101100100111100110011110011
00111101010110000001111001111001
00111101100110010011100110100000
00111101010111101011001010110001
00111110000100110110110110110111
00111101101010000101101110010010
10111100101010010110011110011110
00111101001101100110101100111001
10111100111001010101100101011110
10111101110001111001100110010111
10111101110111111100001011100000
00111100110010110101101001111011
00111101001100110100011110001100
10111100010001110101101001100000
10111101001110000000110001110110
00111110011001111010001001000101
00111110011001101011110011111011
00111101111110110001000011001011
10111101001111011001001000011100
10111101101011111001111011011100
10111110010111101000000110101111
10111101000001110011101010111101
10111101100110010111011010011101
00111101101000100001010001110111
10111101000100010110111000110011
10111101110011001010111101100000
10111101100000100000101011111111
10111101011101011010000100001000
00111101101011000010100010100101
00111101101100011001001010001011
00111100000100111101001010100001
00111101101101011010000000101100
00111101110011100110000111001010
00111101110000011101101101011000
00111101010100001111110111000100
00111101001111001110010100000000
00111101111111100000110000001001
00111101110011101001011110010011
00111100011011010100000000100000
00111110000110010101100100010011
00111110000010100011111101100111
10111101011101000101101101010001
00111101000111000000011011010111
00111101101011101101100101100100
00111101111010101110100111101110
00111110100000011110000110001011
00111101111110111111101000011000
10111100011011101010001111010111
10111101110010000101100101001101
10111110011010011001000111001011
10111110000001011011100111001110
10111101101110110101101101110001
10111110001001010111000101111000
10111110000101111100111100111001
10111101010111010100111001100101
00111100101111101001010110011111
10111100111100011110101111110001
10111101000000011010000010111001
10111101100110001000000110110010
10111110000000000111000010011101
10111100000110110101001111100001
10111101110011000001011000010101
10111100101101001001111111100101
00111101100010010010010110001010
00111101111110111101111000101111
00111101011010110001011000101000
00111101010111111101001000101011
00111100111110000111110011100000
00111110000011010100011010001001
00111101001111000110101011111010
10111101000000011011011101000110
00111101111110100100101100110010
00111110010011000100110011111101
00111110100010110010100000010001
00111101100110101110011011110111
10111101101010000110111111000100
10111101111100011000101111100011
10111101111000011111000000111001
10111110010001110101011101101111
10111101101001101001101000110111
00111100101110110010111111011100
10111110000100100101000100011101
10111101111101000011011110110100
10111101001001011110010110011011
00111101110010001100111110011000
00111100101101100010110111100001
10111011111010101000111110010001
10111110000011001101001000010001
10111101110011010010000010000010
10111101001101110010111010111010
10111101001101100101001111101100
10111101111101010110001111010010
00111101000110000000111101011111
10111100010000000110101101011000
10111100111000101011011011100001
10111101110001011110001011011111
00111010111011111100100101011001
00111101011000001001110000100010
10111101110000111000100001110100
00111100100111001000011011110100
10111100000001111010011001010110
00111110100110011101101001101010
00111101011011100100001100111111
10111101100010101001011001110111
10111101110010001101101011001100
10111101110110110101111001111110
10111101010101111000101111011011
10111101001110001010100000000101
10111110000101100100101110000001
10111110000000010011110001001100
00111101101111111010100011101100
00111110000101010010001111101110
00111101111010000111011000011000
00111110000001100010111100111111
00111011000110011001100010100100
10111101010011101011110000110100
10111011110010101011000111001011
10111101010100001001100001001010
10111101100110000101011110001100
10111101011110011100100011100000
00111100110000001000101111000100
10111110010000111010110001000110
10111110101011011001101010011101
10111110001011001000101110000001
10111110000011100110010100110011
10111100111111010001100010101000
10111110010100100111110101111111
00111011111001000011001001111001
00111011011001111001100111000110
00111110001100100111010011001100
00111100111110110101111000111101
10111101100011001000011110011000
00111100000100011000111101100001
10111110000000110100010101110100
10111101101010010001101010001110
10111101000001101100110100010001
10111101111011100101001110010101
10111100110111001011010110000111
00111101011011011101010011001000
00111101010001110110110001000001
00111101001111000110101011000000
00111101100010001011110100010011
10111100111000101010010100001100
00111100010101010101110001001010
10111101000110000111011000010001
00111101000011100111110000111101
10111100101110010110000110001100
10111101111001111110000000110000
10111101111000010010000111011001
10111101110111111101101011010101
10111110110000101011011101011011
10111110010011100111000101110100
10111101101100000011101001010000
10111101100100011100101110100001
10111110000100111101100001010000
00111101111011111101110100001001
00111110000111001011011011001000
00111100111101000110100010100001
10111100010000001010110000010101
10111101101011101001111000101010
00111100110011101011101110111011
10111101011101000111000010010111
10111110000001100110100100101010
10111110000001011101100000110110
10111101111111111110100110001111
10111100100011011100100100111101
00111101100011011101011010111001
00111110010001101011010000001011
00111110000000101011100111100000
00111110000101111011000010110111
00111101111001100111001010010111
00111101000101110110110101101010
10111101110111011010000001111011
10111110001010000011111111111100
10111101110101000011001101000110
10111101010101001100010000001001
10111101111001011000101000110110
10111100100101001101110111110100
10111110100101011000011101011000
10111110000000010000010110111101
10111110001101100000000110100011
10111101001000111011000110000001
00111101100110101000100001001110
10111101111100001100111101011010
00111110011001101000100010000011
10111101000010111001010001011000
10111100000111000000000001100011
00111100011100110101100111001101
00111101100001110100111010001111
00111100011000100001001111011100
10111101110111100101101010101011
00111101001010101011101100101001
10111100000001000100110111010110
00111100100010110100100010011111
10111101000101101100010000001100
00111100011110100101011101110011
00111100001100100100000010000011
00111101101100001011011110011011
00111011100111001010001101101000
00111100110111111000011011011111
10111100110110100110101101110010
10111110000110010110111000101101
10111100111011110100100110111010
10111101111100100011111100011011
10111100100011011010001011101100
00111101000000111000100110100110
10111110000110011001011111100101
10111110100000010010100101001001
10111101100011011111010001011111
10111100101111011111101111000100
10111100110100100000110101111110
10111101101101011101001111111110
10111110001011101010110010001001
10111110001010010111100011000111
10111101101010010000010011011010
00111101101001110001110010100100
00111101101111100110110111000001
00111101110010011011100011001111
00111101110111011010101101101011
00111010101001101111000100011100
10111100100101001100111010010010
10111101010101010111001100111101
10111101000010001010010100101011
10111101001100101100001110101110
10111101101011001101100010001111
10111011111100001111110011000000
00111101010100010110010100111101
10111100100101100111111111011011
10111100010011101111001010110101
00111101010011101101100001011101
10111101000111110000110000010001
10111100100011101000010101010000
10111100111001111010000111110110
00111110011110100101010000111000
10111101111000100000011000000001
10111101111001100100000110111100
10111110000111110100100110100111
00111101010101001010100110010001
10111100110011011110011100000010
10111110010001111100101100010110
10111110000100011011001011101110
10111110011010111011010001010101
10111101010111000010101110101110
00111110011101111101010000110001
00111101100011011000110010000000
00111101111100010000001110110111
00111110001100111100101001010000
00111101001101000011010110110001
00111100100000111111001010001110
00111110000000110000011010101110
00111101100000011010101101100010
10111011110100011111100100101000
10111101101001111100101000010011
10111100111101000110110110110100
10111100111110100111100111110011
10111101000000010001001011001110
10111101101111010111110001111110
10111101100001011111011010111100
00111100111100110111000011001000
00111110000100000010001000110111
00111101110000111100000100011101
00111110011010101110101110000101
00111101111011010110110110101011
00111101001001001011111001100110
00111101011101110100111010110010
00111101101100000101011100000001
10111100111000101000001100100001
10111011101101011001010101111000
00111011111100010000011001111110
10111110001110000110011011000000
00111101010101010110011100110100
00111110001000110110000111010110
00111101000001101001000111100010
00111101111000111001011011010011
00111110001111110001001111111000
00111110001011100100111000010010
00111101101010111110000010011101
00111100110000110110011101111011
00111101100111010100100010110000
10111101110111110011011101101011
10111011001101001111011000100001
10111101101011000110100000111000
10111101000101011111010000011100
10111100010001010111000001011001
10111101001010011110101000001010
10111010110111010111001000010011
00111100000111011110011011100010
00111110000000101100110010000111
00111110010111000000100000110111
00111110100111011100011010001111
00111110010100101010111101100101
00111110011111100001110101010001
00111101000011111000110101000110
00111101101010100111010110111011
00111110000000011101001001101101
00111101101011011000110110101000
00111100101001101000001010110110
10111100011111100110010111110101
00111110001010011010010010011110
00111101001001110001100010010101
10111100110001000010110011010000
00111101101010011001001011011100
00111100101010000111011010010011
00111101011101100110011100011011
10111101011001000101101001001000
00111011110101010111111001110011
10111101101001000101000110010111
10111101100101000000010101101101
10111101001101000111010111010011
10111101001000100010011010101001
00111101000101010100011010111011
10111101011110110110010111101011
10111011001001010001010101011100
00111101101011011001101000110100
00111100110111001001001010010010
00111110010000010011101011100110
00111110001000111011101110110110
00111110101001111000000011000010
00111110100101101010110011010000
00111110000011101000100110010110
00111110001010000011011000011101
00111101100111000010111101101111
00111101111110000001110100010001
00111100111111000010100100001011
00111110010110010010010011010111
00111110000010100100101111101110
00111101101010001001011100111101
00111101100001011110100101101100
00111101101011000100100100111000
10111101001111111011101000010110
10111100011100000100011110001011
00111101010101100000000000000010
00111101111011110111001111001010
10111011110011111101011111110011
10111101111011110000101000110111
00111101010000011001100000011000
00111100110110010010011101110000
00111101000101110101100001111101
00111101111100100000110001011011
00111101000110110111010100000001
00111110000000010100011100001011
10111101001110001001101110010111
00111110000110100110000001000101
00111110000001001111101100001001
00111110011011010100001100110110
00111110100010111000110101010111
00111110101101110001001100011100
00111110011101000110111011011001
00111101111110111100001101011111
10111101010001110111000000110110
10111100111000111110110100011101
10111010011100100000010010010111
00111110011011010101001011010000
00111101101111001001010110001111
00111101100111010101101001011011
10111101001110010011011000101100
10111101000010000000011111010100
10111100011001011000100110101000
00111100001100101111001000001100
00111101100100011100011000110000
00111101111101101111000101000110
00111101111000110011011111110100
00111011011111100001101010100110
10111100111101011000000000111110
00111101011101001101100111010011
00111101010100001010001011101111
00111101111010001000101011011000
00111110000011101111001101110011
00111110001110000010001111101001
00111101101001001001001011111000
00111101110001001001101110000111
00111101101010100110011100101110
10111100000100100011001111110100
10111101100001001000001100100101
00111110010100110010100011111111
00111101000010111001010100101000
00111110001101001101000101000011
10111101101110000101101010110111
00111101111111011100011111000001
10111101100100010100110011000000
00111110000100111110100000001000
00111100111001110001110110100101
10111101100011110011000000111101
10111101100101100011110101000011
00111101101101001011101001001101
00111101101101001011010110010111
00111100100011010111110110011011
00111101011101101100101110101011
00111110001100101000010111101111
00111100101100001110110111011100
10111100111101101110101000011100
00111101011001101110100010110111
00111110000011010000000010110010
00111101111011101110011101001000
00111100110000010010001101100001
00111100111010111110010010010101
10111100011101110011000001110000
10111101101111011101001110001000
00111101101000111010011001100100
00111100010001010110110110000001
00111101001000010111000101010001
00111101010001010111101001000101
00111110010011100111010001000001
10111110000001100011110010110000
00111110001110001111101000010000
00111100101000110111001111111010
00111100100111001000011100100010
10111101111001010010110111011011
00111101010000011110010100000111
00111101000010101111000000111000
10111100101010000010100010101000
00111100111000001010000100101110
00111101101011100100011110010010
00111101110011001000011011011110
00111110000111001110101011001010
00111110000010110101010001110100
00111110000010100010001010011010
00111110001011010111100010110110
00111101101111011010011000111111
00111110100010001110101000111011
00111110011011010010110001011010
00111101110011111001101100110110
00111101111010001000101101000101
00111110000101101001000111001011
10111101100101001001100000001000
00111100111100100111100110101101
00111101100100001111000000010011
00111110000100100001101111000000
10111101100001000011011101011111
10111101110011010000110000111010
00111101000111010111001101011111
00111101111010100011100001100000
00111101111000001101101111111010
00111101100110000010111010100011
00111110001011111110101111001110
10111100010100110010111111011011
00111110010110001110100011100110
00111110000011011000011101101011
00111101000010111110001100010101
10111101100010011111000100001000
00111101110011111101010100001000
00111110010101001110111111101110
00111110011001101001011001000100
00111110010010000111010011010101
00111110010011001100101000111101
00111110011111110111101101110010
00111110001011000010110011010011
00111110010100000111000101010111
00111101100111010110111110010010
00111101110110001011110010010001
00111101100111101001010000101000
00111101110101010101111011001100
10111101100011010101111011000010
00111101100110011111011110000011
00111101111110001000111001110111
00111100000100000011111010101001
10111101110010111111100001110111
10111110100001011101011010101110
10111101111001011110101101010100
00111101111000100011001110010000
00111101011000011000001110011101
00111101100100001101001101101010
00111101000000010111101011000000
00111110100010011100000101001110
00111110010001100001111110110110
10111101011001010011110110100010
10111101110110000100100001011111
10111101011101001001100101110010
00111101000110100101111011101010
00111101100000101011011100011111
00111110000011001101101111010011
00111110001011000100111000110101
00111110010000100101000111001101
00111101111000000011111110111001
00111110001111110100111010110011
00111101100111010110100001101000
10111101000110001000100001100000
10111101001111110000110011010110
00111101001111000000100100001101
00111110000001001100000110011110
00111101011000010100010000100111
10111101011101111010110000000101
10111110001000101110110001101011
10111100110010000001010110111001
10111101100001111010110001111111
10111110011101011001100010000110
10111101010100000010100010101100
00111110010011000110101100011101
00111101011010101011101110110000
10111101101010111010001101110010
10111101100001011101001001110011
00111110100010000100100000100110
00111110001101011111100011010010
10111110000100110000101011100000
00111101100111110111101001101111
10111101000101111100010010101101
10111101001001100010011101101100
00111100100000000111001100111010
00111110000001100110010101101000
00111110011011000010110010110110
00111110010110000010110101110010
00111101101000110110100101110000
00111010000101000111101010101100
10111101010110001011010001100000
10111100010001000010010011101010
10111110000001101111111001001001
10111101001100101000111011011010
10111011101110100111100101001111
10111110000001011000101000010011
10111110001010101110010111011110
10111110010101111110110011011011
00111101100010011000111110111100
00111100001010011101111000101100
10111110000101100100101110011101
10111101000101111001101100100110
10111101101001000010101000010110
00111100000101110101110011010110
00111100011110100000111111101000
00111100001100000111101000110000
00111101111011111111101100111001
00111110010011010000001010110110
10111100111001000011100101000111
10111101100000001001010001000011
00111100101101001001110110000110
10111011101000110011000101110001
00111101110010100110101010011101
00111110000110011000000011101110
00111101100011011010110101111110
00111110000101010010011001001001
10111101100101111000100001111111
10111110000000101010010100101110
10111110000110110101100111111110
10111110001110101110010110101101
10111110101110110000011000001011
10111110100000011101001000010110
10111101111100010000110000110111
10111101111011000100100101110111
10111110010010101000100101001001
10111101100011100111110011111010
10111101000000001101111100111111
10111101101001110011010111010111
10111110010011101010011010101101
10111101111010010010001110111100
10111101101111011000001000010101
10111010101001100010001000000000
10111101000110110011100011110010
10111101010001101010010110101101
10111101100100001001010010001001
00111101111011010011111111101000
10111101011011101110010101001110
10111110001001000111000010010011
10111101110100110101100101010101
10111110100000110110111100011111
10111110010100000001101011010110
10111110011101101001110111110010
10111110101101101000000101110100
10111110111011100001110011100101
10111110111000110100000011000101
10111110110010011110001111101101
10111110100100100000110001011011
10111110110001001110110010010110
10111110110001000101000100001100
10111110101100101010011011111001
10111110000101011101100110001101
10111110001101001100110100100011
10111101101010100101001111101011
10111100110000101001000100101000
10111110001110001101110111000000
10111101110011111010110000010010
00111101101011010010010011001010
00111101101111110011111111101101
00111101001101111101000100111111
10111101011111011000110001100001
00111100100110100110101111110000
00111101100001000011000010101111
00111101110001011010001111001110
10111101011101010100101010010110
10111110100110011011111010111100
10111110100000011011101001101110
10111110001110001001011100110111
10111110110000001110001010000010
10111110110111110011011101101111
10111111000000110000011101100010
10111111001010010001010100110101
10111111000011110000000111011001
10111111000001001000000101110100
10111111000000010111000010101010
10111110110101001101111000111011
10111110100101110001000110001110
10111110101001000011011001111110
10111110100111000110100001010111
10111110011001111010100111111000
10111110000011001110010011111010
10111101101111001100111101010110
10111110001011001010100011101100
10111110011010011010101001100010
10111110000010111011110011100001
10111101000111011000000000011110
00111100101011110000111111100100
00111101000100111101110110011100
10111100111001010111010010111110
00111101010100010000010111011010
10111101001100011101100010100011
00111101001010101110101101001100
10111101001110001001011000111110
10111110000101000001111000001011
10111110001011111010010010001010
10111110011110111010001010011010
10111110100110111111001010001111
10111110100011000101100100111010
10111110100010101111110111011101
10111110101100111011101100100001
10111110110000001010000111000110
10111110110101110010111101011011
10111110100101000100010000010110
10111110000001101010000001111110
10111101011101100000100011110011
10111011110001100000010100011001
10111110001000101111010111010000
10111110011001000001110010100101
10111110100000110100010001001010
10111110010101101010111001100010
10111110001110001000101000100101
10111110011101011110001000110101
00111011101011011001011001011000
10111101011011010110100111000001
10111101100001001000000010000000
10111101000110111100010111111010
00111011010111110100111000100000
10111100000000101100000100011000
10111100000000000101111011101000
00111101010010011110001101110010
10111101100111011000000110100101
00111101001110111101111001110011
10111101100101110010111101100111
10111110001110100011110101011100
10111101110100011101010010110111
10111100100111100110011111110011
10111101010100110000111000010010
10111101111100100111010101110000
10111101001001000011101000011000
10111101100011011010100001001100
10111101110001101100111011110111
10111110010001110011111100100101
00111101001010001110111110101001
00111101011101011010110111100100
10111110010101100011110011010110
10111101111100000010100101001100
10111101110010110001010110111110
00111011100010010111011011010111
10111101000101110101000111101110
10111101001001111011110011011001
10111101001001000100110110111110
00111101001110101000010011101010
10111101100110100001100110110100
00111101100101000100101110010001
10111101011111100110001000101010
