00111100100100010101111010110010
00111101011111101111100010010110
10111101011001001101111111001000
00111101010010111110110110001110
10111000111101101100100000000000
10111101100011100110001100011101
10111101001100011000000011110000
10111100100000010101110000110100
10111011100101000001101010110000
10111100110011110011100101110010
00111101001001100000101001101110
10111011010010000100011001100000
00111101001101001110000100100110
00111110000100000101011100000101
00111110000001011101001110100111
10111100100000011110110101101111
10111100011111000010010100100001
10111100101100011010110001010100
00111101010001001110000010010110
00111101001100001010100100000100
00111100100011101010001000001100
10111101011011001010110101110100
10111100100110000010011111000000
00111101000001010101101111100010
10111101001111011111000111110011
00111101100011110111111010101111
10111101010010110100000110100010
10111101101001011111010000011011
00111101100101101001001101111111
10111010101000001001100011000000
10111100110111000010101011010010
00111101100010100000001111101101
00111101101000011011000110001001
00111101101010001100011010100111
00111101011011010010000101010100
00111101110011110101110011001101
00111101110111000011100100111111
00111110011001101111001100110011
00111110000001011011101011100001
00111110000101110011111110100011
00111101011100000011001001011111
00111101110000000010100000100001
00111110010000111100001001101011
00111110000100101110110011100010
00111101001110010111100100000101
00111100101111000110100101001101
00111101011110010111011010000000
00111101001001010010110010001101
00111110000001000111010111000111
00111101100010110000101111010101
10111100100011001111110111111111
00111101110110010010100100000101
00111101010011101001010000111110
10111101001011011011100000111011
00111100001111010011001001001000
10111101001101101010100011010101
10111101001110111010001010001000
00111100100100011010011011100000
00111101100101011101110001000101
00111101100111100000011010110101
10111101001010011100011110100010
00111101101000111101110100000111
00111101111110011111001111001011
00111110000111101001001110100001
00111110010001001101110101011111
00111110010100110111011100101101
00111101110011111011110000011010
00111110000111110100001001101100
00111110110001111010010010110101
00111110010010110000001100100111
00111100000111110011000000001111
00111110011111000001010010010001
00111101111111011001100011000110
00111101100100011101011101010111
10111101000110010010101011111110
10111011001110001101001111110100
00111100110011111000000011111111
10111101100101000101110011011110
10111101111110000101101000110110
10111101100111001000111101001111
10111011011011010101111001100000
00111101011111100010011111000110
10111101001100011101101001000010
10111101100101010001111111000000
10111101100110111000001001000000
00111101001101011110001110000110
00111101010001110110110111000010
00111101010100010110001000100010
10111100100001010101100111100011
00111101100111100111101011001111
00111110001111000110010011010111
00111110001101011110111110011010
00111101111111010010011100100001
00111101100100100000010010111001
00111101101010000000101111011011
10111110000001011101010010100101
00111100010110111101111011110010
00111101110111100101001111010110
00111110100101110100011010101100
00111110001100100000101011101110
10111100001011010100111010100111
10111110100110010110010101101111
10111110100110000000001001110011
00111011001100100101010110000001
00111101011110011001000010000010
10111101011000110001101011100110
10111110000111111000101111101100
10111101000011010011001010000101
00111101010100101100101100001110
00111101011111000111111001011101
00111101101010001001100101001000
10111100100101001111000010000100
00111100111001110011001000010100
10111100100111000010110110001010
10111100100111010100000000101110
10111011101000100111010011100000
10111011000100100101111010000000
00111101001111101100101111000000
00111101110110011001111101111110
00111110011000011110100001111010
00111101000101100000000101010010
00111101011100101110101000100000
10111100110011010001010001000101
00111101010110000011101101110001
00111101101110010010111111111011
00111110000011010011011001011111
00111110010011001100001100010101
00111101101001000000010110110111
10111101101010101101110010001010
10111110101000001100000010111100
10111110110111010011110101001010
10111110100011000110111110000101
10111110000110100111011100101001
10111110001001110111110001010100
10111101001011011010000001010000
10111101011001011100100101111001
10111110000101010011101011000011
10111101110100000010001000101111
10111110000000011101110100100110
10111100001100100110111100001001
00111010010010001011000000000000
10111101010001011110010001001111
10111101100010100011001111110010
10111011110100001111010100111011
00111101000011101111000111101110
00111110100101100011011111101100
00111101111111010100010111101111
00111110010001101010011010001110
00111101111100000000100100111100
00111110010110101001011001010010
00111110010100110010011000000010
00111101101001011010011001111111
00111110000011100110101110111000
00111101001100001010000100100111
00111101001101000101011100100101
00111100010000010000101000101111
00111011010010010101111100000010
10111101101110100001001101010011
10111110011110100101000110101101
10111110101011010010101101000110
10111110001010001000010011011000
10111110100110111100110100000010
10111110011001011110011101101001
10111110100111011011110111111100
10111110100011001001011101100001
10111110000000000111010111110001
10111101010000000011100001011100
10111101100100100001001010110111
00111101001100101100001000000100
10111011110000101010000010000000
10111101110011100111101111001000
00111100111010100001111001111101
00111101101000011101110001001011
10111101000111000111001000110000
00111101100000100010100101001100
00111100100111100110000010111111
00111101110001001011101111011101
00111101100111011011011000100011
10111011111010011100011000111010
00111101011011011101110111100110
00111101110110100011010011100001
00111101101111011010000110100110
00111101110101001101111110111001
00111110000000000000110101010111
00111101010100110001110101110010
00111101000000110010111000101000
00111101100100000011000110100001
10111110001011110110110100001001
10111110010111001001111010100111
10111101111010101111101100111000
10111101110000100100011011110100
10111110010110110000100100100101
10111110010000001100010000100000
10111110000111000110101001110100
10111101010100110000111100111101
10111101111010001010110011010000
10111110000011110010011111000101
00111100101000010111110100011010
10111100110110111100010011101111
00111110000001000100100011000000
00111101100111110101100010110000
10111101100000001010000100000011
10111101001100111111101000000100
00111101110110000111011001000011
00111110001101010110111000011011
00111101001011101011011100101000
00111011100010011011000100100011
10111101001001011111111011011011
00111100101110001101100001001111
00111110001100110000011111100001
00111101110111000000010000010010
00111101001001010001011111100100
10111100100011001111100000111110
10111100101101110111010011010010
00111101111000001000110111100011
10111110000011110111001011100101
10111101100011011010011011111100
10111110000011101100010100110101
00111100010000101011100011100010
10111110001110101111111000110101
10111110001110000100010110111000
10111110000011001011110000110011
00111011111101000001011100011110
10111101110001111110110100100011
10111110000100010001010111000010
00111100001000010101011111111100
00111100110010011000100100000101
00111101111000001100010101110001
00111101110010010100110111011010
00111110000110001001111011010100
10111101001110100111000011001000
00111101000000101110001010101010
10111100110011111111010100100000
00111101101111011001110111110001
00111101111100100010010100110100
00111101101100100010101110001010
00111101111110010010010110110001
00111101111000010011110010010000
00111100111000111000111100000100
10111101001010001110011001010101
00111101010101100001011000001110
00111100101001101100000110110011
00111101010000100000011001110001
00111011001001101101001011000110
00111101001010001110010100100001
10111101100001010101111101101000
10111101111011111000111011011111
10111101101011011100100110000010
10111101110100010100110011000000
10111101000110001110101001010001
10111110011000110011111001010110
10111101100110010011000011001000
10111110000001100010000110100010
00111101010011011000101000111100
00111101001001100010111110000000
00111100100010100100111001010010
10111101010010000010001111110011
00111101110110110000010101101000
00111101101100111100011101010110
00111100101100100111001100100110
00111101000111100011000010101100
00111100111111001010000111000100
00111100000111000110100000011001
00111101111111000000001000011000
00111101011100010001011111101010
10111010000101010110001001111000
10111101111101101001101111111101
10111110010110011101011001001101
10111101010011001100100010010111
10111110000010101000010011110010
00111101000011100011010111101010
00111101000010001011101101001101
10111100101001001111010010011101
00111101101001011110001011110011
10111101001111101101111111000100
10111100101111100000101010010001
10111101111111000001001010111011
00111101110110001011011101001011
10111110000011010000011110010101
10111101001110001100110101000011
10111101000000101110110000001001
00111100001011000111000001010110
00111101100100111100101010000101
00111101101000001110010010101000
10111101100111100100100100101101
00111100110011101000010101101011
00111101111001011011011100101001
00111101100100011110010000100000
10111101000100100111011010100010
10111101100100011100110111010111
00111100111000000011011011101110
10111100101100011011011110111111
00111100011111101110110111001101
10111110001011100101001010010000
10111110100110000111100010000111
10111110100110011110001101101000
10111101101000110001010001010001
00111010000001100011101101111100
00111100000010110100010000000110
00111110000110011011000000101111
00111101010001000000110110111100
00111110000000000011010010000000
10111101001010011001101111001111
10111101100101001001001110101100
10111101001111001011111100100011
00111101101000010111110010110011
10111011101111001110010110010001
10111101110100111101100101001000
00111100001001000100110100100100
00111100100100111101000001100001
00111101110011101001111000110010
00111110011011111000000110010011
00111101110011000110111011110101
10111101001000010000010000001111
10111101000000100101010011001000
00111101010001011000101011110001
00111101100111011011110101000111
10111101110101011000011101011101
10111110000101001101000110100101
10111101001010111001000001110110
10111101001000100011010110001011
10111110100011100000000010000011
10111110100110011000010011101101
10111110000101100000101010110100
00111101000110110101000101100000
00111101011100101101000010101001
00111110010001010001001000001000
00111110000110011110001010011010
00111110001000011110001001111011
00111110000111100101100011101010
10111100100001110001010111000000
10111100010111010011011100010001
00111101100001000000111010110110
00111100101001111101110011001001
00111101100110111100111101111110
10111101110000100000111110011011
00111011011111011111111010001101
00111101110010100110010100111010
00111110010010101111001100100011
00111110000011101101000101011101
00111101101011010001000001000100
10111101111110001101001101110111
10111110000011000001001111010011
10111110000000011001001101011000
10111101101001101001001111000111
00111101000011110110100011101000
10111100110011011101011011101111
00111100101010111100000010110101
10111101101001110111001011011001
10111110010010111001001101011111
10111110001011111111100100101010
10111101001010111001100001101011
00111101110110111110101000110100
00111110000101110011100110011000
00111101110101010001100101011001
00111101100100100001100101110110
00111110010001000010100100011101
00111101001101110100001110101001
00111101100110110001111000000000
00111101100100111110011010100100
00111110000101000011001001110000
00111110010001011011111001100101
00111101100011011100011100101101
10111101110110000111010100001001
00111100111010010100001011011011
10111101100110001001100111111111
00111100000000100000101111101110
00111101110100111001111110011001
00111101100011101001001010111111
10111100100010110001010000011111
10111101100011011110110100101110
00111101100111111011111001001101
00111100101010011100011011111110
10111101001001001001000000011000
10111101000000110101101100011100
00111101101010100011100010100000
00111011100011010110101011100111
10111110000001011110110100010011
10111110000100010100010011001110
10111101110001111101101100110011
00111101100110011101000001001111
00111110000100011100110100010000
00111101000100101011001011111010
00111101100001101001110011110011
00111101011001011100100111110101
00111101000010010010111100101111
10111011111111001110101000000101
10111101110000001000111001111101
00111101101000010101001010110101
00111101000110000010111101101100
10111100011011101011100000000011
10111110001010001100001000111000
10111100110001100111000001000001
10111110001001011001111110010111
00111100111100100110100001010000
00111110010010011000001100000101
00111101100100011110100101000001
10111110000010101000110111111010
10111101001011100100100101001111
00111101011101000000001010111100
10111101011001010110101001100000
00111100111100100100111110110010
00111100111110010000110010001001
00111011010011011111111110010010
00111101101001110101100110111100
10111101101000110001100111000100
10111110000000001001100110000000
10111101010110101001001010001010
10111100010000110100111000011100
00111110000001011001011001100001
00111101000011010000101001101111
00111110000000100010111101111110
00111110010101100101101111010000
00111100100110000100000001011011
00111100000101011000101110000111
10111101110010000011010011110100
00111110001011000000111011010001
10111011000010010000101000001101
00111101111000001010011111101001
10111110000111001101000010010001
00111101101111100101111100101011
10111101111101011011100001111101
10111101111000111111000100101110
10111010100110001000011111010001
10111101111110001110001001101000
10111101111001011011001111010010
00111100110110001101100000110101
00111100011001001000101001011011
10111011000001101011111011101110
10111110000110101010000011110111
10111101100111101101101101010111
00111100111001111101110111000001
10111101011110001110111100111100
10111110011001001001110010110100
10111110010000111101011100100100
10111110001000000010011000111101
00111101001000011000110011101100
00111101010000011001010111001010
00111110010111010111110010010010
00111110000101100101101111101011
00111101100100000001010011000000
00111101010011011011000110010000
10111101001100100010101111101110
10111110000100010001001111101011
10111110001000011111000010111111
10111101100100100010110101101101
10111101001100111010011000110010
10111100100111110111110011100111
10111101001101010100000001001101
10111100010111000001011100111111
10111101100100000111100000101101
10111101100001111111111011011000
10111101110000011011100001011101
10111101111001110100111100000001
00111101100100001001111100011000
00111101110010000111111110111101
00111100001000101001110111100100
10111110001110011111010100110011
10111101000100111100111110110000
10111101110110010000110111001100
10111101100110011101100110011100
10111110010000101111010110110001
10111110011110001010000000010011
10111101101000100101111111110111
00111110000010000010100100101010
00111101111010111001100110111101
00111101100101111110000001010000
00111101101000101000001100111111
10111100010111000010101000011111
00111101010001011001000010100000
10111110000001010100101000101000
10111110000011100010011010101101
00111101000011100001011001000110
10111100101111011101011001101001
00111101010101011001100000001110
10111101000001100000000010011100
10111101100101101011101010111010
10111100000110001110100010000000
10111100101011010111010101011100
00111101000000101011001101101101
10111110000110000001111000000100
10111110011100100001000001011111
00111101110000000010001001111101
00111110001000001010011111101011
10111101111000100111010111011010
10111101111110001100010110001001
10111101101110000000111011100100
10111100001001000110100111000010
10111101111010010001110011010111
10111110100000001110110001110111
10111110010101010101001010100110
00111101001010001001000010110001
00111110000100101110100111101010
00111101110001111111101011000001
00111101101101000110111001101111
00111110000000011010100111011111
10111101100011011000110101000111
10111101101100110000011011101110
10111110000101111010001100111010
10111101011100111000001000011101
00111100101100100011000000011000
00111011111101010011101110010110
00111101110010110111001111111100
00111101001000110011010110101101
10111101001011110111001101000011
10111101001100000011100100000110
10111101110011010111011110011011
00111101100011010010010100000111
10111110100001000010101001000111
10111110100110101001011110101110
10111101101010000001001110010111
00111101111000111101000001100110
00111101100100010110110000110110
00111100101111001101110101011100
10111110000000101000101011001110
10111110001000010011101100010000
10111101110010101010101110000000
10111110011000011010101010111100
10111110010111000000000101000110
00111101100100000000101111010000
00111101110011010110001110011100
00111110000111000011011111111111
00111101110101111000111000000111
00111110000010100110101100101010
00111101000111000001000101101101
00111100000100101010010010101010
10111101110101101001010100000110
10111100100100000010010100011110
10111101001011110101101101101001
10111101011110010010101110101101
00111110010100010010101001001101
00111101110100011100110011100110
10111101100010110101010011010000
10111100101100101000001000111000
00111101110111001011000001011111
00111110000001101100110010111000
10111110000111010000110000111001
10111101111111011101011000010111
10111110010110100000010001101011
10111100100100111011010000101010
00111101101000011111100110111000
00111101101111111101000101010100
10111100000001010111110110010110
10111101110111011011000100010011
10111101110101100010110101000000
10111110011000001010000111111111
10111101011100001000101110100111
00111101001011111110111100010000
00111101111101001111011101001000
00111101110001100110011111110000
00111101001101101000010100111001
00111100010011011010110001110011
10111101010011101010000011111000
10111101010100100011000111100110
10111110000001110111101001001111
10111110001111010000100000001101
10111010001110100011100111100101
10111101110100110001011010110110
10111010110110110011111111011000
10111101110100001111000101000011
00111100111001111101011100010100
00111101001001000001001110110000
00111101101111101110010100101001
10111100011000110000100100101111
10111110000100010000001011110110
10111110001101000000011000011111
10111011011100010011001001111011
10111101011100101011110000110110
00111100101111011100011100001101
10111001010111110010000001011100
10111101101010011111000010110000
10111110001100000101111010101000
10111110000000010110010111110100
10111101101000001100111000011101
00111101000010001011101101110111
00111101111001111001000111110101
10111101000001010000100001110110
10111100111110001101001100001000
00111100110111110101010110010000
10111101101101110011101000110111
10111101101101101101011001001011
10111101111001100111011111011101
10111110100001011011110101000100
10111110010111010000000011100000
00111100100001101110000110100110
00111101001110100000101101110011
00111101000100100001110110010001
10111101001101111000010111001101
00111100111101110100111010110111
10111101101000100110101011000111
00111101100000010000010100000111
10111100110010010100001010110000
00111011000011111000110110111001
10111100110110010111010000000001
10111101010011110010100111110000
10111101100100000011110011100111
10111110100011001010010110111101
10111000001100110111100010111100
10111101111101101000101010110100
10111101001101101100111100111011
00111101000101101100000100111110
00111101110011101010010101101011
00111101101100001010101100101110
00111100010100010000100000101011
10111100001000010000010001111011
00111101011111111100001001001101
10111101110101100000101011111000
10111101100101011010011110100100
10111101100010101100011001001110
10111110000110110110011000001111
10111101000111101101011111100001
10111101010011111011100101001101
10111100011100011001001100000011
00111101111111101100010000000010
10111101100100011100001101010000
10111110001010001011000001011000
10111100111101101111010000010100
10111101010001111011001010001111
10111101001000001010101110100000
00111100101100111101111110000000
00111100100011111110001100000110
10111100101011011010101111010101
10111110010001000110000001010001
10111110100110101101111110001011
10111110010010101110101111100011
10111101101010100011001110010011
00111100011000101110011001111110
00111100001101110111000101110000
00111101110101000110000111011011
00111100010111000110011000111111
00111101100100101111000000011001
10111100100011000000010011111110
00111010111100011010001010011001
00111011100101111100110000100110
10111101001000000101100010111010
10111101101011111010111100001000
10111101101100000101001010111001
10111101000000110001101000010000
10111101110110100100111111001110
10111101101110001111101010001010
00111100011001000110011001010100
00111110000110000010100100111101
00111110000001100010101110100001
10111110000010100010000011000000
00111101100001001110011000010001
00111101001101100001010101100110
00111100000100101001111101110000
10111101010011000001110100100100
00111011011001110101110001101010
10111110000011000110110111010010
10111101110111011000110011001001
10111110010110010000010000101000
10111101110011000010000100111001
10111110000011011010110110110000
10111100101111110001100011011010
00111101010001011110001111011100
00111101110101101001110000011100
00111110000111011111110111100001
00111101101110100111010011100001
10111011110101100110100001111011
10111101010111011110110100111101
10111101101111010000001010011110
10111101111110001000101100100001
10111110011101111000000001010100
10111101111111111111101101101101
10111101110000001101111110001110
10111100001001110001011000101000
00111100100110010000001001010010
00111101100110101001110000000011
00111101010011010000010000011001
00111101101010000001001100110011
10111101111111101111000001111110
00111101010010111001100100001010
00111100111101101011011110010100
10111101011001100010101110000110
00111101000011110001110001111011
00111101110011011110010100100010
10111101011110001010110100110110
10111101111110010010100001000001
10111110100011101110011100100111
10111110010001010100100101010000
10111101101011000101100100001010
00111100111001000001011000100011
10111101011010001110111000001010
00111101111001101111010010100010
10111101101001011000111000010010
10111101010110011010101001101111
10111101100010111011001010101110
10111100100010111001110010100001
10111101001101110010111011010111
00111101110010010100101001111111
10111101110000011000010000101110
00111100000000100100010011010001
00111110000010111100110010100010
00111011100011011000001011000000
10111100111111100110011110001101
00111110010000111101010101100000
00111110010001110101011111110010
00111101000101011010010101101110
00111101101010010110000110011011
00111101101000000000000110001011
00111101001011110110100100011010
10111101010100111101001111100111
10111101000011001110000100000010
10111100101000000101110101011100
10111100100110011110101110101011
10111110000110100000100101001000
10111110011111111011000001100001
10111101111001111000001001110100
10111101010000101101111100110010
10111110001000000001011001000100
10111101010101100111001001011101
00111110000010001010001110111100
00111110000110100100011010001001
10111101010010100000100000010101
00111101100100100000010100001110
00111100001110110011110000100010
00111101100101011100100010011010
00111110000010011101011011110101
00111011101000100110000011110001
10111101000101010100001101000000
00111110000110111001101000010011
10111100100011101011111110110000
10111101110101101110001000111101
00111101011100001010011010011100
00111001101110011010101001000001
00111101000101111101110001011110
00111100110101110000001011011010
10111101011110001000111101011010
00111101001001111011110000011100
10111101001111110010010101101100
10111101011101000101011101111100
00111101011011101111010000101110
00111101100011101111110011011101
10111110000000001110111010011101
10111101100010101001001111010100
00111101100001110111110101010011
00111110000011110011011110101110
00111110010111000110100101100001
00111101010010110110011010101100
00111101100001110010101001000010
10111011000001011110011011100001
00111110000101101110000100010111
00111110000101111100001011100011
10111101010110010010010100110001
00111101111111000001101001001100
00111101011111000000010110011110
10111101010110001111000001010101
00111101111000011100001101101110
00111110011010001110100011111111
00111101101100110110101011100010
00111101001000110110101001100011
10111101010011010000001111011000
10111101111100001000110100000000
00111100101111011011000000100010
00111011100101111110101001010000
10111101000100011110001100110100
00111101011100100111010011011110
10111100001001000010101100011000
00111010101100000100001110000000
00111100111111000111110100100000
00111100011100101001010001000000
00111101110110001011111100101000
00111101000010011011001000100011
00111101101010010000010010011001
00111110000000100101011110111000
00111110000010000001101010111000
00111110010010010100101110110001
00111110000010011110010101100000
00111110000100111110010100000000
00111110100011001110111010101001
00111110100001011011001011000101
00111110011000001000110001100111
00111110100000101011001000111101
00111110100010101111000100010111
00111110010100111000010101011111
00111110001111001101110100100100
00111101011111101000001000110111
00111101110000000010111011100111
00111110000011001100101010110000
00111101100001110000100010101001
00111101001000111010100000110010
00111100100100101101101011000100
10111101010111110001101011110000
00111101101001000101110110111011
