00111101011010010100011011101010
00111100010001111011000010000000
00111101100001000010010110010101
10111100000111010010100110000000
10111101100110010000000000110000
10111101100101010111100000101110
00111101100101001101100011111111
10111101000000001110111101100000
00111101000101011100010011110100
00111100100111100100000101001100
00111100011100111110011000010000
00111101101000100110110100010111
10111100111101100010010101101000
10111101100101001110111111100100
10111101100000110001011101001001
10111100110001000001111000011011
10111001111100110111001110010011
10111100111100110100011101110000
10111101100000010100100010011000
10111011011000111000101111000000
00111100111001010100101000111100
10111101100010100100101011000111
00111011000110101100010010100000
10111101001000000101011101101111
10111101010111101101001000001010
00111100111001111110001110000100
10111101000010011000000000111001
10111101100100101001101101010011
00111101001101011110001100111010
00111101100101100100110110011011
10111101010001000000001010011000
10111101001000010101101010101111
10111101001100110101111100010000
10111101000000111100011101110010
10111101000101110000001101011110
10111101010101001101110011110101
10111110000101111110111001111111
10111101110001111111100010111000
10111011101101011010001000010000
10111101110010110011111110111001
10111101010110010100110010101011
10111110000010111010100011100110
10111110001111101001010010010100
10111110010100011001001110101000
10111110011011001101011010110000
10111110001110000010011000100010
10111101111000010100110000001000
10111011110001000010000000100101
10111101101101001010100010110100
10111101010010001011110000010111
00111100100011000101110101111001
10111100000001111111100000000100
10111101101111111001010111000100
10111100101100010110101110100100
10111101100001100101011000011100
10111101011010101010100110000010
00111101100101101000111110011011
10111100101111011010000111100110
10111100110100101000111001111100
10111100110111111011000111011101
10111101001101101001110101010000
10111110001000111000000111011001
10111101100000100111101010111110
10111110000010110100101100100001
10111101110010110101010000000110
10111101000111110111101111101000
00111101101110111110110111010011
10111101110100111100111111011101
10111101001000111111011110101100
10111011100001110011000100001010
10111101101011010111011000011101
00111101011001000111110011000011
10111100101000001011110011101110
10111110001111111010001111010011
10111110001100010110110000100110
10111101101011111100001000111011
10111110001001110101101010111010
10111110001100011001001010011001
00111100100011000110011101100110
00111110000010101111111000010101
10111101110000101100101010111110
10111101100110101111110100010110
10111100010100110010101001011110
10111101000101101001001001011101
00111101100101011011111101110111
10111101001101000100100100010001
00111101001001100000010101110110
00111101100011111110001001100110
10111101100101111110110001000000
10111101010110100000111010000101
10111101001010101011101001001000
10111101001110011110001010001011
10111101001100100010100111101000
10111110000000010111011000110011
10111101111010110011111110010001
10111110000000110110001011101101
00111101000111011111110010011101
10111110010001100010011101000000
10111101101001010101111110100000
00111101000110100100101100001111
00111101000000110110111011001111
00111100111001010011100110010000
10111011100000011010010101101101
00111010101100000101001000010000
10111101101010101011111110011001
00111101011101000111100101010101
00111110000101101111110010111011
00111110001100110100110100001100
00111110100010011010000110000011
10111100100000010110010100001000
10111110000101011010011000001100
00111101011111101011111000011001
00111101100100101011110000011111
10111100100010111000010100100100
10111100110100101100110000110100
10111101100000001000011101010100
10111101111111110000001101011011
10111101101010111100000010001101
10111101010011011100000010110110
00111101100011101111100010111111
10111101001001110101010001110100
10111101111001101000010111101110
10111110001101100011011001010111
10111110001110100000110001110111
00111101001010011110101100001001
00111101101101100101100101000111
00111101000101011111000001111001
00111110000101011001100100011101
10111100100000100101000101010110
10111101011000111011100101011010
10111101100001010101111001101010
00111011111000001000111011101100
10111101001001100101000111010000
00111101101001000000000100001011
00111101100101111010100110001111
00111110000111000011101001000011
00111110010110101101100101010110
00111110001001010111101100100100
00111110000111001011011110000001
10111100110111100001000100000110
00111101111011111000001010010110
10111011101100010100101001010000
00111011000011011001001111100000
10111110000010100011011100011110
10111101000111111111001111000011
10111101110101010000100110000100
10111101011110101011010111001110
10111100111001110011111111101101
10111100100000010001100011000101
00111101010011110110110110110100
00111101010011110111011010001000
10111100010111000101111011001011
00111110010010011011010111101010
00111110001010100000110101100010
00111101111101100100100011000000
00111101110111010001111100100011
10111101000011110011010100100010
00111100100100111110010001111000
00111101100001100101000101010100
00111101011011000000010100000001
00111101000011101000010001100101
10111101011110001100111111010000
00111100100010111110000000001111
10111101100110000110000110101001
10111101101110110011111001000010
00111110011101110100001111110010
00111110001101000110100010000010
00111101110010101001000110100110
00111101101110101010011011011111
00111100111000010011101101100000
10111100101110011100011000111001
00111010100111100011111000000111
00111101100110011111101010010001
00111101000000101111111010110011
10111110001000100010101001011000
10111110000010010101110111101011
10111101100001001100110101101110
00111101000010100110010001111101
00111101101101001100111010010001
10111100001111011010100000010110
00111101001000110011110011000011
00111101101011101000110110100011
00111110000000110100000000000010
00111100100101010111001000000111
00111101101101010110000010110010
00111101111101010000011101010101
00111101111001000000001001000111
00111100110111000010011100111110
00111100011110110101111011001000
10111100010010110010100101100011
00111010111110000011010001100100
10111101101010100101101011101000
00111101010100111110101000010001
00111101011110110100000100111011
00111101110011011110010101000011
00111011111101111000011011001101
00111101101010010011110001000001
00111101100010101101000000000001
00111001111100111101101100101001
00111110001001101011001000110001
00111011011101010001010101010110
10111101000110110111000011110011
10111101011101101101000101011001
10111101101001100110011111011100
10111101110010110101110000101011
10111101010110011111110100011001
00111101101000100011110110000000
10111101000111010100110101011000
00111100011101000111100101010111
00111100101101111111100110110011
00111101100001011011010110000011
10111100101110011000011011111110
00111110000001111000110000110100
10111011111011000100100101001010
00111100100001110110000100000011
00111101000101001111010001001101
00111101100000011100011100001110
10111100100011001110110000000001
10111101010001001011000111010000
10111101000010111010001011011110
00111101011101101000100001100001
00111100010011001111001010000111
00111101100010100000001001010011
00111101101100101010010001001000
00111101110101111001010010001010
10111100110111011001111101101010
00111100101110001010010111101110
00111100111110111001111010010111
00111110000100110010110010100111
10111101010111100001010101010001
00111101000111011001100000111101
00111100101101111000100011111110
00111101100000100110101101100000
00111101001111100110010101110111
00111101110001000011100000011001
00111101001011001111000111110111
10111100010001100110110111011010
00111101000111111100100011011110
10111100000100111111000101010000
10111100110000101000111001000011
00111010001011011010000001110100
00111100011111111101011111110000
10111101110100010111010110101001
10111100001111000100111010001101
10111010110101111110100010111101
10111100110001101110100011000001
00111101000000011100011010110011
10111101101010100110010011100100
10111100110101111011001110010111
00111100001101010011111110111000
00111100110011001110001110000000
00111110000100110101000000010101
00111100010101001110001111111010
10111101100110010011110000011101
00111101000111001110110001000101
10111101000001000111100111110110
00111101100000100101000111010001
10111100101001100111000101100011
00111100111001000001010010101001
00111110000011101100101110001010
10111100011100000011111100111010
00111101110001000001010101010001
00111101011010101010011101011010
00111101111011101100000100111010
00111110001001000110101111100111
00111101110101110100000110110001
00111101100010001110100100010110
00111101000101000011010011100101
10111101001100111010010110100011
10111101001010111001000010101100
10111101001110100010100000110011
10111101001110001101101100001010
00111101010111011100010111001111
00111110001110010000001001110110
00111100111010101010010000111111
00111100100001011101110111100111
10111101010111100111101100111000
00111101010010110110111000100000
10111101001001110011000111101110
00111100000010011000001010011010
10111110001010101110001010001101
00111101001110111111110010100011
10111101100100001010100010010011
10111110001000101101101100101001
10111101110100010011100001111010
10111100010100111001000101011001
00111101011111011011110001100110
00111110001000000100101000110000
00111101101101110011001010101001
00111011001100111000100110101001
00111110001111111000001101010111
00111101111010110110101001100000
00111110000010101100100111111110
10111101010101010011111010111111
10111101010100111001111011111000
10111101110010000010000100011000
10111101110000000110000100111111
00111101010111100011100101100000
10111101000101011000110101110100
00111100111100011111100100001111
00111110000110110010011001100000
10111100100101011111001001101111
00111101011011111110101011010101
10111101101011000100101010101000
10111100000000101110011011001110
10111110000000100110010110000010
10111101110101100000011111101110
10111110100010001011010111010001
10111110010100111101000111010100
00111101000110010100110110110110
10111101110011101011100010010110
10111110000101101001111111001111
00111101000011100111011111100101
10111100110101010110010001110100
00111110001010110011010101001110
00111101110101000010100000110011
00111110010111000101111100110110
00111110000010101010101001101001
00111110100000111111100000110011
00111110010001000000111000001011
00111101011111110111111011011010
00111101001011110101001101100011
00111101000001100101011011000011
00111101101111100110010001111000
00111011101011011110101001110111
00111100111100110101110001011101
00111101011000001111011111101010
00111101011111101110100101100101
00111100101111010110010110010110
00111101111001111101001000000001
10111101000011110010110100111111
10111100001001100000011000011110
10111100100110000010101010001010
00111011010100110110001011101111
10111100101110100101001000010110
00111011111001001110011010100101
10111101010110110100111000100101
00111100100100001110100001010110
10111101110001001100001101110110
10111101000100001110011000000001
00111101000100000101000001011010
10111100001111011110010001101011
00111101110110010010010010110100
10111100010011010111110001100010
00111110000000011100100011001111
00111101111001111011000101011011
00111100110110010111110111110001
00111101000011110011110011000100
00111101110100101010100010001110
10111101001010011100111110101010
00111011001010011101011001010010
10111101100001010111011101110111
00111101011000000111111101101000
00111101101100110000001011010011
00111110010010101011011001110111
00111100010010100010110111110001
00111101101010000101101100010011
00111101110010011110110110010110
00111101011110000001100011110100
00111101111110011111010111101011
00111110000011001000000100000100
00111101011101100000000111100010
10111101100110000000100101101001
10111101100100010100001010100100
10111110000010111110001011100011
10111101001000011101000010110110
00111011010010011011101000011101
10111101110000101001111111011000
10111011100000100001101110010110
00111101011010011110110110001101
00111101101000001011000010100111
00111101100101010001111100111101
00111101101110101110011100000100
00111100101101001010111110111011
00111101111100000010000001001110
00111101110100100110000001110101
00111101110101001110110001001000
00111101000111001111010011010011
00111100111101001010010011110011
00111101100111000010000100010010
00111110010000100000011010010011
00111110011000010011100001001011
00111110000001101100010011101011
00111110000001101101001110110000
00111101001000110000000100111010
00111110000110000100101101000000
00111101011111110100111000110001
00111110000010000011000100110011
00111101110000111001110000111110
10111101110001010000110011111101
10111110000000010000001110011011
10111101101011110101000111001101
00111100101000101100010010000011
10111110001011101011100011011000
10111101011111001110100000110110
10111110010000111010101111101001
10111101111001001010110110101100
00111010001100000111101001001011
10111101001011100011100100000000
10111010110001111010100011100011
00111101100100010101001100110000
00111101100011111010111101100100
00111101101110000000011001001110
10111100100100101100001100011101
00111100111101000110100000001010
00111100101110110001000010001110
00111100010000110101011010000111
00111110000111011111110001101110
00111110000001010000011011000010
00111110000101110100111100100110
00111110001100001011101011100111
00111101110110110110010110000000
00111110010100110011110110110011
10111001111001111000001010110001
00111101000101101011011101111011
00111100011001011101000010111010
10111100101100111101110100010000
10111110001001011000000011011001
10111101100100100111111111010000
10111110100011111111100111000111
10111101001100001000001000101101
10111101100101011101011010011001
00111101000011100000010110110110
10111101110110110001101000100011
00111101000011111000000101010011
10111101110011000001010110101101
10111101000111111101101101001011
00111101011111111010100010100011
00111101011101100010110010011000
00111110000010000110010011101110
00111101101100010001010101110001
00111101011000110111010000111001
00111101011010110011100011101010
00111101001111001110011110010001
00111100101111010110000111010100
00111101010011111101111011100110
00111110000011000110101101101110
00111110001001111100110001010101
00111110010110110111110110001010
00111101010100110000000111111100
00111110000010110101111001111011
00111101101001010101011011111000
10111101001111100010010101111100
10111100101100101100100010000111
10111100100111110001010100000110
10111110011101000101101100000010
10111101011001100011010110100011
10111110000101010001011010110110
10111101110001100010001110011010
00111101100011010011010111011100
10111101100011001110000011101110
10111101101001100100010111111010
00111101100000000110000010010010
10111101110100001000100010001011
10111101011111110111101000010011
00111101011010010100011111101000
00111011010101101110111000001101
00111101111111110101101111111011
00111110000011011101101000111000
00111101111000001100101001011100
10111100001011000011001010101010
00111101110010001111110101100100
00111101110111101110101101010011
00111100011010110110010001100100
00111101101101001011010011100000
00111101110101010110110101000111
00111101110110100100110001000000
00111101001100011011010101111001
00111101100100010101011100000110
10111100011101100110001100110011
10111100110010100111110111000001
10111110001011010100001101010000
10111100110110010110111111011010
10111110000011100001110001101101
00111011111100101100100110101100
10111110000111011100110001111010
10111110000000110011101001101011
00111101001001110101101100101110
10111011101010011101001101001110
10111100011110110110110111010110
10111100100000001100101001101010
10111100101010101011101110000010
00111100111010010001110100001010
00111101001000011010101111011110
00111101110111011011011101000011
00111110001010011001101010101101
00111110001011001001010100101011
00111101100010001100000001111110
00111100111000111111000011001100
00111101001000001110100010010000
00111101101110000111101101110110
00111101011001000100000101000110
00111101110101011110000011010110
00111110000111000101100011000001
00111110000001011111111000000010
00111100010000000010000100000101
10111010100001111100101110011110
00111101000010000000100011011100
10111101110101111001101100011111
10111101101000011101101110010101
10111101101101001100101100111010
10111100100111101111011111111010
10111110001100111100101001001001
10111110000010001001000010000000
10111110001000010000110010001100
10111100101000100110000011000111
10111101110101011111000110001100
00111100010100011111101000101100
10111101010001001011110011000001
10111101011011110010111100011111
10111101001110010011100001110000
00111101100000101111000111000000
00111110001000000100001001011101
00111100101010000110101110111010
00111101110100111111101000100101
10111101001111010000100110010010
00111101101101110110011110001010
00111110000111001011101001101000
00111101110100011100100011100000
00111101101010111111101101010101
00111101011001101101100111011100
00111100000000001111001000011011
00111101101001111110100110111010
00111101110001011101101000011011
10111100101101001101101000000001
10111101000000010111001101100000
10111100000000101100010001111010
10111110000000111000101100101111
10111101101100110000101101001101
10111011010101100010110000000001
10111110001111101000100000011110
00111110000100001101101101111110
10111101101101001110010001000000
10111100110001011010000100110110
10111101100101000010000100001100
10111110100110010100101001101100
00111101011110000111110101011111
00111101000011011111001000000010
00111101011100011011110110010000
00111100010000100111001100010010
10111100010100011000010110110100
00111011111111100111101001100111
10111101000111001001100110101001
00111101101001111101111010101101
00111101000010001101111011001100
00111101100101111110000011001111
00111100001011111001100101001110
00111101010000111100110101111011
10111100100000111001110101000100
10111100111110011110001000011010
10111101001110111100110101101111
10111100111111010011000010010001
10111100101100011000101101010101
10111101000100101101010000010100
10111101101100100110000100011011
10111110001101110101010011000110
10111110000010011100100010100100
10111101100011111001100000101111
10111110010001000110100011110000
00111100001010101000110111001010
10111011110110110010011000000010
10111100100111010111111001111000
10111101101001111101001001111000
10111101001100000000010000000110
00111100101001111011111011100001
10111101011100010011110101110111
10111100010011010001001010110000
00111101000010110001110100011111
10111101110011011000111101101001
10111101110011011110111101101100
10111101110110001101100110101110
10111100101001100000110111100111
10111101101101101001111100101100
10111101110011010101101000110010
10111101100011000000101100001100
00111100111011100000011000011000
10111101001100100001010011001110
10111100110111011111011100010110
10111101100011001101110101111011
10111101100010001110001011111000
10111101100000010111111100010011
10111100100110100001000101000110
10111101100101110011100011101011
10111101010100011010100101101011
10111101100101111010000110101100
10111100101101101010000010001110
10111110001100101100011111010011
10111100111111000010000111110001
00111101010101111111001000111000
00111100110001001110001000011010
00111101101011000110111100010010
10111011111100111100001110000011
10111101110011000111011101010011
10111101011001001001111101000001
10111100111100001001100111001100
00111101100000011110101101010010
00111011110101100011011111010110
10111101001001001100101010111111
00111101100011111101001101101111
10111101100010001001110100111001
00111101101000010011010001010010
00111101110011100010101100011011
00111100101010111010100000010111
00111101100101101110100100110000
10111100101110100110101110100101
00111101010100000110111000111110
00111101001010100001000011111011
10111101111001010010010011110010
10111101011100000100011000100011
10111101011110010101000010111101
10111100100110001100101101000100
00111101001010011000000111100111
10111101100001000111101100100111
10111101010100011010111101111111
10111110011011101010111010100110
10111110011011111001101110011010
00111011100100100001010001111010
00111101001110110001100011000110
10111011110000010111000001110010
00111100110100000010101110101000
10111100011001111010010101000011
00111100100001001111100001011100
10111110001011001011011100001100
10111101010000101100100010100000
00111100011111000011111100001000
00111101010001100100011111110110
10111101000110000000010011010011
00111101000001010101110010001110
00111101010001000101000110001000
00111101110110100011010110101111
00111101100111111100110110101100
10111100110000011010111001000110
10111100111101011011000111001010
10111101000010011010100111110000
10111100110000101011111010001000
00111101010010000100011101111001
10111101011001100110001000111100
00111101010110011100000001100100
00111101011111101011110110110110
00111110000010010011100011110000
00111101011010100010111001000101
00111110000001001111111000011001
10111110000000000100101000101000
10111110100101000110111101101000
00111100111111101000011111001001
10111100000111110110010000001000
00111101001011101000110011110110
10111101101110001000000110110101
00111101010110100111011000010111
00111100101111010101011000111110
10111101100100010111011110010110
10111110000000001011010111000001
10111100100010010001010000000001
00111101100110011101011111111101
10111101110111100111111011001001
10111100100101000101101101011110
10111101111101001111100010111100
10111101011100000010001111110100
00111101100100110011100000010101
00111011101100111000000001000010
10111101001100101001101010101010
10111100111111101101110100011011
00111101011110000111101010010101
00111101100100100000100100100000
00111110001011110100010011000010
00111101100000110001100010101100
00111110011110010100110100111000
00111101001011000111111011110111
00111101111110010001000111011001
10111101000011011101011101010100
10111101110110000010011000100111
10111101111100011000110010011001
10111101010010111110100111010001
10111101100010110011111000110011
10111101011100110100000000110011
00111101111010001111111110010011
10111101101010111001101111000100
10111101000100011010001100111111
00111101001010110100011011000001
10111101101111110001100011110101
00111101010101111011010010010011
00111101011010001111111001011100
10111100010110010110101010011010
10111011011001010010011110000000
00111101110101010010111101100111
10111011110110111110000011000001
00111101100111111110001100001101
10111101111100100111110001000001
00111101010101110011101011000101
00111101010101001101001011011001
10111101111101100001101011001011
00111101110110010011100101100101
00111101010011101010101111010100
00111101110000110111100000001100
10111100100101100010000100111010
10111100001101000000110111101111
00111100001111111011111000001101
10111110001100001011000111010110
10111101001111110010011111001110
10111101100110100111110010101010
10111100101010010110000111101000
10111010011110111001111100000000
10111101101000110101101111110100
00111101100101101100110111110011
00111101100001111110100010111110
10111101011010101110000011111010
10111101110100010001110010011011
10111100100111100111010010011010
10111100000100101001100010111001
00111100011100010010111100010100
00111100100101101010101010100111
00111101100001011110010001011111
00111110001010011001001100000110
10111100100111101010111110111010
10111100100110100010110011010110
00111101010000100101011010011000
00111101100100100110101000110010
00111101100111101111001110100110
00111101110101010101011010101111
00111101110010011101001011000000
00111100110000011011101001110011
00111100111101001011111111011110
00111101100100000100111000001110
10111100110111011001000011001100
10111110000000100001110110110111
10111110100001000001010001010010
10111101010011101101110001101111
10111101100011000001111100110000
10111100100110111110000110001010
10111100010101010001100010010000
10111101010001011111011010001111
00111101100001010110011001101111
00111101100110110110011010100101
00111110010010100111000110101000
00111110001111011001110010010111
00111110000111011101110110000110
00111110001010011111111100000010
00111101111110110110001010110011
00111110011100110110111111110001
00111110001001010110011101111010
00111101111100111100101100011000
00111101011010101011001001001010
00111101010110100101010110111101
00111110010111000000000110010010
00111101001010011111100000101011
00111101010110011011011001000101
00111100000010000001111110101010
00111101110001011101101011110001
10111110001101111000101101000001
10111011110100010110000011111011
00111110100001010000001101001111
00111110000011111001010101000100
00111110001011001111111100001101
00111100100011000111100011000001
10111101100110000010000101000011
00111101000010111111010101110000
00111101010110111111100100110010
00111101001000000011111110000010
00111101011111011111110011100010
10111101000001000000111100111111
00111101000000111011001001100110
00111101001001110110111100110111
10111101010000000011100001010100
00111101010001101000101000100010
00111100000010110101101001011011
00111100100111000011110110001001
10111100101111100100001110111110
00111110000000011100101100111110
00111110001000111111110011110011
00111100000111001011100010100100
00111101011100010010100011011100
00111110001011001101110011110011
00111101110011111011010011101111
00111100100100010111000101101000
00111110000110001011011001110000
00111110011110100000000000111001
00111110000011000110101110001110
00111101100101001000111100110111
00111101001101111011110101010110
00111101001011101100100010110100
10111101011111001000101100110101
10111011111001101111111110110000
10111101100000110000001011110111
10111101100100001100000011100110
10111101100001011111101011000000
