00111101100000011101000100000011
10111101100111011101101001111110
10111100100001011111100110000000
00111100101010000011000111110000
00111101001110011101100010111010
00111100100110001000110100111000
00111101011010011110110001111010
00111101100010000001011101101011
00111101001111001011000001011010
10111101010100010010100111101000
00111101100010110011111100011101
00111101011100001110001101001010
10111101011110110011001111000001
10111101000101011001101001111101
10111011100111001101000111111000
10111101011110010000000000100010
00111100011000111111111111011000
00111100101100001010000001101100
00111101100110011010100101010001
10111100110001110000001101010110
00111100111101010101111010010000
10111101000110100001000000010000
10111101011000100100111101101110
10111100111100101001110011111100
00111101000101101101111111111100
10111101100000111100000110000110
00111101100000011101001110000101
00111101010001001010011111111010
00111101011000011011001011101110
00111101001101101100110110111110
10111101000110011101001000110111
10111101000000101001110101111100
10111001011111001101001000000000
00111101001010111000000010011101
00111100100101010010011100101111
00111101110111100100011001011100
00111101011111010001100010110000
00111011100100101001110101001011
10111011100110100111111100000000
00111101110110010010001010001001
00111110010000010000100000111110
00111110011101110000001111110001
00111110001111100110011111000100
00111101111011100001010110010000
00111110000000001101011010000001
00111101111100100011110110000001
00111110001110101111111101001000
00111110000000100111100011111111
00111101100011001000010011010111
00111101101000111101000111101101
00111110011101110101100010001001
00111101011101001001001111011100
00111100111010100100101010100100
10111011011000011000110100100000
10111101010110000001001011111000
10111100100111110100001111100010
10111101001111100001100010111110
10111101000010100101001000011110
10111101100111010011111010001110
10111101011001101111111000100010
00111101100101000110000101100001
00111101100110100101101000000011
00111101010101110100001011010010
10111010100011110011001000000011
00111101110100101000110101001101
00111101110011011111001110001100
00111100010000000110101001000101
00111101110001110110100101000000
00111101101101111100010111110110
00111101011001100101000011011001
10111100101010011110111101100100
00111100100111110100000010001101
00111101110011001010100011000001
00111101111101000110101111110001
00111101001111111101001011011111
00111110000011101100011010000100
00111110001000011011000001011110
00111101111010100011110101111111
00111101110101100011100111110110
00111101110101010001100001110010
00111110001010111111001100110000
10111101011010111000101110010010
00111001100111111111011010100011
00111100110011110000111000001100
10111100001011001000010110011000
00111011001000000100000011100000
00111100000000111111011011001000
10111100111010110001111010111000
00111101110101100101011011101100
00111110000101111110000001011001
00111011110011001001101111001001
00111101100010001110111101001000
00111110000010000111111011111110
00111100010110001111011001001100
00111101101010110010011100001101
10111101110110101111101100110101
00111100110011000101001000001010
10111110001101101111010100001111
00111101000000101111000010010110
10111101000111101110011100011100
10111110001010001101001000100111
10111110000011001101111110111111
10111101101110010010110101101000
00111101010011010000101001000100
00111101111110111001011100000111
00111110001100111101011111011111
00111110000001001100010011110000
00111101100001100110100111100110
00111100111100011011111111110000
00111100100010110111111100011111
10111100000000010100100100011010
00111001110001011011010010010111
10111101010001010010101000111110
00111100100101011001100011010100
00111101000101001100101011111100
10111100001001011100011010000000
00111101001101111010010111000101
00111101110011011001110101011001
10111101100011111001101011010011
00111101001111110010111110000000
10111101001111110000111100001000
10111101110001001000000000111100
10111110100001111101010111100000
10111110000100011101000010110111
10111110100010001010011011000110
10111110101001100111100000111110
10111110000011000100101000111110
10111101111001000111001001110011
10111101101101101000101111010010
10111110000100101010100110011100
10111101111001001100001011001000
10111100100100100001110101000000
00111101111011001001101110000011
00111101011101100101000100001000
00111101110111000001110010000010
00111101111111111011101010111100
00111101101001000110011010000110
10111110000011011011101101110110
10111101101000111001111000001100
00111101111001010101111100011001
00111110001000001111001010111101
10111101001110101111001011101101
10111100011000110111001101011000
10111101101010100011100010101100
10111101011111110010110001000000
00111100111010100100110111001010
10111101100011000100110000111110
10111110000001010010100000101010
10111110001001110110111001101010
10111110010110010010011011110110
10111110000000011101011110000101
10111110000010001110101100111001
10111110001011000101100011111001
10111110010011110111110110001100
10111101110010101101000000011101
00111101101011100111101001111110
10111101000011100111110100110101
10111101111010111011101010001111
00111100001010110011100101100010
00111100110010100000101011011011
10111101101000101001000011101110
10111110000001101001111111101111
00111100110100110001011000111101
10111101110100001111010001110011
00111011000011011110111101101101
10111011111000001101010001010101
00111101010001011001010100100011
00111101101111100111100010001111
00111101111110000111110110101000
00111100101010111100111010110000
10111100110111101010000111000101
00111101111001001011010110101110
00111011110010010100101111000000
00111110000100011000000001100010
00111010100000000010001110111111
10111101011110111110000000001001
10111110001111011011110110010110
10111110001011111010000101010101
10111110110000000100001010010100
10111110001100001110101110111001
10111101100101011010100100011111
10111110001100001001111100010000
00111100101011111111111101011111
00111010010010101001001100001011
10111101000011101110001011100111
00111101100010101011000001011001
10111101011100101010000101011111
10111101010111001101101000101001
10111100011101100111110010110100
00111101100001001100000110111010
10111100110011101100100110101101
00111010111010010011101001101010
10111101000100110011100000011011
10111110000110100001100100111111
10111101010101111101011001111110
10111101101000101100011000101001
10111101011000101111001111000010
00111101010100000011000100101101
10111011101111001001001011000100
00111101110100111100010100101001
00111110001001110100000110011001
00111101100001001100000001100100
10111100000100001100110000110010
10111101011001000111011101111100
10111011101100001100001010100010
10111110000100000100110010010111
10111110001001111101111001100100
10111110001100110000010000000011
10111101101111011000101111111101
00111101010000100001110100000010
00111101101011100010010110000000
00111101111000111101010000100110
00111100010011011000001011100111
00111101001000110110110000101011
10111101010100100100001000101010
10111101010111001110001101100100
00111100111000111010011101101110
10111101000110110101001001000011
10111101111001111110000001011010
10111101100110010101101101000110
10111101010110111100110100001001
10111110001110000010100110000010
10111101100011011111111111000001
10111101100101001111010110101110
10111101101001111001011101000111
10111101001000100101110110111110
00111110001111110100110001001111
00111110010100111001001010101001
00111110100110000011110011100101
00111101101010101010100111001100
00111101110111010010001111101100
00111101111010001101111110011011
10111101011000111110100110110011
10111110010001010001001000110101
10111110100010000100111011000001
10111110000110001001100000110000
10111101100101111011011000100000
00111101100101011110101001001100
00111100101000101110100101010010
00111011111101001110101100000010
10111101100100000010111000001000
00111101000011101110010011101110
00111101001000011011011001110000
10111101101110011111100000101011
10111110001010111010001001010001
10111101010011100100000100010100
10111110000100100011100100100110
10111101111001011010110000110101
10111101101011110101100100001000
00111100010001001110111010110110
10111110000111000111010001110011
10111110010001010000100110000010
10111101111100100001100011111010
00111100111011111011100101000000
00111110001010110001010100010001
00111110100000000001111001011100
00111110101010000100010110000111
00111110010001100011001100110111
00111110000011100000000110001101
10111100011001000101001001001111
10111100001011000110011010101011
10111110010001001000011101010101
10111101110011001101111011001110
10111100110001010000010001000010
00111101111010101010110100101111
00111101100101110000101010001111
10111100100101101000101100101110
10111101000100100001001101100000
10111101110000111111011101100000
10111100110101010110011010101111
10111011001111010101101101101000
00111100011100110011110110000000
00111101010100001001010010011100
10111100100010110110001111001001
00111101000101110001000101001000
00111100011100001010111010011010
10111011100000010101001111011001
00111110000011011010011101110111
00111100001010010001100000101001
10111101100111010110001111100000
00111110001010110110111010111100
00111101001010011100111000101110
00111110000010101010001010101010
00111110010001001010111001011000
00111110001110001011110100000011
00111101110110000100111010110001
00111110001110000100011010010111
00111101101100000101001110101101
10111101110111000011011110110001
10111110011100111010110010001001
10111110000011011001011100010111
00111101011011110011101111100011
00111110100011101100011101001011
00111110001000111011111111110000
00111110000101000100100010000110
00111101100010110110000001010011
00111100100010101100011011111111
00111100101010101101011110000011
00111101100011110011100101100110
00111101111110100110010111011011
00111011111101101000010110000001
00111101100001110111000010011100
00111101000100011100001010110100
00111101110000010000010110110111
00111110001001101001100100010000
00111101111101101001000111001100
10111101011111100110110010111011
00111101001100101101100001110101
00111101101101000101000100101001
00111100110000110001010000100111
00111110010010011111000111110011
00111110000010100001101100001101
00111110000000011000000010001110
00111110001110011001100100000111
00111011100100000001000111001111
10111101010110100110000011111001
10111100100100001000001111010111
10111110010101101111011010111001
10111101000100011000011100100111
00111110001001101011010101001000
00111110100101010110000101001001
00111110001100100011000000011010
00111110001000011000011011111111
10111100100111101100101001110110
10111100100100111111000010101011
10111101011001001100001010011011
00111101100011110100101001000011
00111110000101011101111111011100
00111110011100100000010010100000
00111101100101110011110110100101
00111101111110000011001011111100
00111101110111100011001011101001
00111110100111100011101110011110
00111110001010101010000100100100
10111110010100010111010000000111
10111100100000110111010110010111
00111101100100011111101010101000
00111101110000110011010001000000
00111101101000100110101100110010
00111101101111100000011000000000
00111110100111111111111000110111
00111110000111011010001000101101
00111101101110100001011110101000
00111101100000011100010001100101
10111101100111100001110011000110
10111101110011110011111011001101
00111100011010001110010110001001
00111110000010110110000011110010
00111110101101010011001011111011
00111110100000010010111011000111
00111101110001100001101000011001
10111100101010011101111111000001
10111101111011111001101110101110
10111100001000101111011000001010
00111101000111100000011001011101
00111101110010011111110001101110
00111101110011101011111011101110
00111110000010100001001000100111
00111101110011110011100100100101
00111110010010001000100010101011
00111110011001100010100000101010
00111110010001011000111000101110
10111110001010001101011001000010
10111011100110110001110110110011
10111100111001110101001000101001
00111100000111110011010110101000
00111101100010101111100110000001
00111101111001100110111111010100
00111110010011101001000110101110
00111101100000100011000000011001
00111101010110111111000110100111
00111101010001111100111101110010
10111101100111000110110100110001
10111110000101111111101001001101
00111101000100001001110001011100
00111110010101010010101101000010
00111110101000001011110101111110
00111110000100010010011111001111
00111101010011000000010000111111
10111101011111101000011110001011
10111110001101111100010001101111
10111101110101100110010100110001
10111101111100000101111010111110
10111101011101001111101111001010
00111100110010000110111111011110
00111110000011111010101111010011
00111101110011100010110110000000
00111110010100100110011001111001
00111110001010110011110110001011
00111110011011100110100111110001
10111101111011000000111100011111
10111101100110110001001001101010
10111101010101010010000001011100
00111110001000010110110100111011
00111101111100011011011111100010
00111110001100001110011011101110
00111110011011110101111111110000
10111101111001101100010110001100
00111101001001011001011000100100
10111100110001111111000011111111
10111101000001110101001100111111
10111010101001101111101110111000
00111101001111110110000111001110
00111110010001110000110110110000
00111110011101111111111101110111
00111110000010011000000010001100
10111110000010110110001111010100
10111110100001101100100011001110
10111110010101111101000010111000
10111101111010110010100100010111
10111101001010010010011001001010
10111011100001111101100011001010
10111101100011110111110000011001
00111101100001000101100000001100
00111101110110111101011000001111
00111110010010000011001010010001
00111110100101100010110000000100
00111110000001010111100111101000
10111110001111111011010010011111
10111110000001100110111100100111
10111101011001101100010100010011
00111101011000011100000000111011
10111101101001111101111101010110
00111101010101001000010011101110
10111011000101101001011010010101
10111110000110001011011000001111
00111101111001001101100111100110
10111100011100011110111111100011
00111110001100111100011110101011
00111011000001011010111100100011
00111101101101011011011100000010
00111110001100110111110111101001
00111101111101100000101110110101
00111100011110111010011101100011
10111110011010011011100101101101
10111110101100110001101000101111
10111110001001010010011100110000
10111101100110010111111010010001
00111100000001000111011010000110
00111101100000001100011101100101
10111101100000010011010100111000
00111100101101111011011110001001
10111100001110011010011011000010
00111100111100000001110001110111
00111101010000101101101001001101
10111100011101001101001111110000
10111110011111101111010110100011
10111110100101011100110000001101
10111101001000110100000111000100
00111101110001100001000111101011
10111101000111100100010111100010
00111100111100000011011110100000
10111100101000011001100101101010
00111101110100011000110100101011
00111110000110010001100100111001
10111100111100100110010011011101
00111101110001011011010101101101
00111110000100101110110000001010
00111101111101001100010111110000
00111110000110000100000111011001
00111100100100110101001010011100
10111110001101010100001100010000
10111110100010011111001001110101
10111110101101111100000011001101
10111110000111010111011110100100
10111101000001010000111000001101
00111100111100000001000011011000
10111101011000001101010101000000
00111100100011110111110101000001
00111101001100100011100010000100
10111101011100111011100000011101
10111101101011001101000011011101
10111100101000101001110100011111
10111101010100001100011011111110
10111110000111111110100011110100
10111110100011000101001111000010
00111100110011111111101000001110
00111101000100000001010010000010
10111101100010001110011010001010
10111100111010111010110111010000
10111101110011110110010000001000
00111101000001111011101000101000
00111101000100001110111110101111
10111011100110100000001100111100
10111100111001110110010101000110
00111100100101110000101111100100
00111101101011001101010110000110
00111101111001111001000001000010
10111101000010001100100110001100
10111110100011010001101000001101
10111110100010010100100000110100
10111110011100100001001001001110
10111110010000100100100010001110
10111101000001000010000001101011
10111100000111011010001100101111
00111110001010110100011011010010
00111101110001101001111011110011
10111101011011110101001100010101
10111100110010001110100011001011
10111110000001101001001000001001
10111110000110000001100001111101
10111100100111000101110110010010
10111110000010111011000010010001
10111110010111011000101000000100
00111100001011110110110011100001
10111101101011101000101110110000
00111100001011111100010011010010
00111101110010011101000111100010
10111110011111110011100010100000
10111100000110101011010000010011
00111101100111001011010101100010
00111101000100010001010110010110
10111100111001011100000101010101
00111101111001110011110001111001
10111101000100101001010000110011
10111101110000101000101011001011
10111101101101101100100100011011
10111110011010110011101000111110
10111110011011110101100000010111
10111110010100001110110000100100
10111101110100011010101100000100
10111101110100011011110111001011
00111101010101111011010111011011
00111110000101010011010011000001
00111101100110001001100111011101
10111110000111011100111100111010
10111110000011011100010010001100
10111110000111100011110011111000
10111101110101011010000001100001
10111101010000011111000110101010
00111011101110010101001110000011
10111101101001110010010010011110
00111100110011110010001001010101
10111101101000001010100011010100
00111101010101010101101111110101
00111110000010100011010110000001
10111110010111000110000101000110
00111110001000000110011001101111
00111110000000110000010010010101
00111011111110010011001011100110
10111100001110110001111111101111
00111100100111110110010111110000
10111100110111100110000010011101
10111110000001000110110110010010
10111101100101000001011010010110
10111101100110010011001110101100
10111101110100011111100111001101
10111101101001100000001000000011
10111110001100010110011101010001
00111100100100000100101111010110
10111101010101110101001111101010
00111011101011001010011100101001
10111101101000001110111110111101
10111101100010110011001111011110
10111110010011110101111010110100
10111101110111111010011000111000
10111110100000011110110100010100
10111010000000101001101100110111
10111100000110101000100111111010
10111101101110010110001100101001
00111100000111011000110111001010
10111100100100110000110000000000
00111100101110111100110000011100
00111100010001011100101101100101
10111110001110110111111100010111
00111101110001001100011001111111
10110111011111111011001000011110
10111100101001000100100111100011
10111101011110000010101110001011
10111101010101101111010011010110
10111100001010001010111000100110
10111100110110011100111010001000
00111101011001000110110010100100
00111100011111010010111011010100
10111110000001011010001001000011
10111110000011110011011011111001
10111110010011010010010111011111
10111101110101000100000010110000
10111011001110000111011110010000
10111101101001000110111000011010
10111001101100110010001011011110
10111101111011101110101010001011
10111110001001101100001101010110
10111110000011011011011011011110
10111110010000011001010010000011
10111101101101010001101101110010
00111101000110001100111011100100
10111101101110000100101111100100
00111100001110110110111011000110
10111011100100011110011110100000
10111101101010000101011100110101
00111100100100011001101111100010
00111100110101101101011000110001
10111100111001010101010100110101
00111101100010001101001010001101
10111100110001010111000001011100
10111100110100011111110010011110
00111011101001000010011100111011
00111101100111010100001101100011
10111101000101100011111011101011
00111100100010100110100001000011
10111101101001101100000010011010
10111100110001010000001100011111
10111101111000011000101011010101
10111101000011101000101110001010
10111110000110001001000101001011
10111101101111101101111010001111
00111100110101101000010101111100
10111101100111000011001110001110
10111101011110110101011000011110
10111110000001001011110001111011
10111110001100000111010111000010
10111110001100010110010000100010
00111100000011101100011101100001
10111101111111000100111011111001
10111100110111011010111000100111
10111101100101010001101111100110
10111101100010010010110111100010
10111101100101100010110111110110
10111101100111001001011110101101
00111101101101110100111100111111
10111101111000111000110001001111
00111100001110000110010001011001
00111110001111000011100101100101
00111101000010111111000010011010
00111101101001110110101100100101
00111101110000101000110100110111
00111101101010101101010110001111
10111101000100010111011100111000
00111011001001101011111001001101
00111100101110001100100100000111
10111101011010010011000110101010
00111100100000010111110001001011
00111100001000101100010111111010
00111100000011110010100110011110
00111100100111101111010001110101
10111101000000111110000100100110
10111101011011111111000110111101
10111101001000101001111010101010
10111100111111111001010001011110
10111110000011110001010100101000
10111110011010101101011111111001
10111100110100101000001010010100
10111100110010111011000111010001
00111011100000101000101011110101
00111100101000011110000011000100
10111101100000001110101000001000
10111110000011100110100111111110
10111100111011101111111001010001
10111110000010011001001001111011
10111100101010110000010111000000
00111110000001100111100001100010
00111101110100100010001011001100
00111101101001100100010100000110
00111101101110100000111110011111
00111110000111000001100000010001
00111101011001110111101001010010
00111100100111100101110001001010
00111101111011110100000110100101
00111101001100010100011000010011
00111100110101001110011000001000
00111100010011100001110001001011
00111101111011000011011110001100
00111101010110000111111010011111
00111011111111011000110101111011
10111110010100101000001000110001
10111101010011100001011000010011
10111110010000110010100001100100
10111110010001100101110101010100
10111101100000101000100011111110
10111101000101011000000010011001
10111101000001100011111111011000
00111100111001100001101101100000
00111101011010010000101110111010
00111010101111101011001100000000
10111101110000111110010101110011
00111100101010101111001010111100
10111101100111010100001101010011
00111100001101111111001101000110
00111101010011111111110100110101
00111100001010001111011100101000
00111100001011010011001011000110
00111100100101010001100100100001
00111100010010010110110000010010
00111101000001011010001100100010
00111101011110000000111100010001
00111101010101100100001101111101
10111100011001001001110010010111
00111101111011111010111000001111
00111110010000010001001000111101
00111101111101110110011001000011
00111100100100011000001010111101
10111101011110100011001001110111
10111110010010000101000011100000
10111101111101111010000100000000
10111100111000000110010111100000
10111110000001111010001001011101
10111101011010000010000111100001
00111100010010111110111010101011
10111100100010100001001101001000
10111101011110011001100000010100
00111011111110110111010111010000
10111100111011011011000001110010
00111101100101010011110111010001
00111010100010110011000001000110
10111100110110101000101100001110
00111100000011101001011011011101
00111100101111011000100101111110
10111101100001011111100010010010
10111101110101001000111001110100
00111011100100111011111011101000
10111101101001011100010000001011
00111011111000000010110101100011
00111101000010011100100101000111
00111100110000001101011100111111
00111101111111001111110000100001
00111110000110000001110001011111
00111110001010001011101111111011
00111101101111111100000100011011
00111101001110100000110010100111
00111101001001110011001100101111
10111101101110000101110011000001
00111101101100011000011011000001
00111110011000101101000100000000
10111101101010000111001110110011
00111101001101111101001111011111
10111101010010101010110010111100
10111101011100110100100011010001
10111100110111010110001011100100
10111100100111011010101100100000
10111101100100010100100000001111
10111101001010100111011000110001
00111101000101101110011010111000
10111101110010011110011100001000
10111100011010010100110100011001
10111101100011101100011010010001
10111101100000010001000000111110
10111100110000010000100011001001
00111100111001100100000001001010
00111110000110011100001110000000
00111101001111101010010111011110
10111101000111110011111011110001
10111101011000010010000001010111
10111100100110001001010011011110
00111101000111000001010011101100
00111110001011010110000111010011
10111011111111000000010100010100
10111101000010000000101011010110
00111110001000011001110010100110
00111101101101001011000000010000
00111110001100110011111001001011
00111110011011010110111110000110
00111101100111111101011011011011
00111100101000010001001101111011
10111101011000111010110101100101
10111100101000011100000010001110
00111101000100000001000111010000
10111101100001110110010101110100
10111100101001101101001001000000
00111100110011001100010010111000
10111101010010111110010001111100
00111101000100001011000010011101
00111110010001101011011000101111
00111100111001101111000100001101
10111101001110001111100001110101
00111100101010111110010101100100
00111101100011110000010111110111
00111101100110001011010000110110
10111101000000000000110000111111
00111011100001011111100101110000
00111110000110000000000110011011
00111110001000000110011101101111
10111101100010110110111111110101
00111011110001000011010001011111
00111101101011110001110100001011
00111101101110011100010001000100
00111110000011000000110110000010
00111110000010010010001110001101
00111110010101010111111001110011
00111110011110111100101110101111
00111101111101110011001001010111
00111101001111101010011000011010
00111100111100001110000100111100
10111101100101100100110111111000
10111101000011001000111101100011
