10111011101011110001000110111000
10111101000111001110010111110001
10111101100101001110111111000011
10111101010100111111000010100011
10111101000110100101011111000011
10111101000001001100001011101000
10111101001101100010111001010000
00111100001000011101100000000000
00111100110100110000111000000000
10111100000000100110010011100000
10111011011001110101001010100000
10111101100100101010000011001100
00111101101001011110111101101111
10111101011101100110000011001100
00111101111010101010111010001011
00111110000011111001100100000111
00111101100001001010110111110111
00111100110101000110110110111100
00111100111011111010011110101000
10111101100110001100011111110101
10111010101000111010011011000000
00111100100010011000100010000000
00111101101000010100011001101101
00111100000111101101111011011000
00111100100111100100101001111000
10111101100111011101000010110000
00111011101011011100110010100000
10111101001100001100010010111000
00111100001111111011000011100000
00111101010001011100001000011010
10111101001001001000010000101011
10111101100001011110010011010001
10111010111010011011010111000000
00111101100000101111011100011100
10111101101010100110010110000011
00111110000111011101011111110011
00111110001000000000000011011101
00111101110001001101101000011111
00111101011011111000111011101010
00111101110011010110111001101110
00111100110111010001101100010101
00111101011100000000011111110011
10111101010010100000101101111001
00111101110000010110100001000011
00111101110111101001000011110010
00111110000001000000011101110110
00111110000011100100001011111110
10111110000001110010100010110001
00111101001100111100011111011001
00111101110011011000111101110011
10111110000100100101011010010100
00111011101011101100100001010011
00111110000010010111010100110111
00111101011011001111100001100010
00111100000100011101100111011000
00111101000101100001010001110110
10111010010110011111110000000000
10111100011101111101010010111000
00111101011100110111010010000010
10111100101011000110000000001011
00111100000110011100001011000110
10111101001100011100011010100110
10111101010111010011110101100110
00111101101110111001011011010010
00111110001000110101011011011110
00111101100111111011110010101101
00111110000101101001110110010010
00111110011110111111001010001001
00111110001010100100000011001001
00111110000110111001110010101101
00111110001100011011010001000011
00111110010101011110111111110100
00111110100100011000111101001110
00111110010011010011000011010101
00111101101001010101010001110001
10111100100001110100011100010100
10111101111101101011011011011101
00111100011101111000111111101001
00111101110010101001100100110101
00111101100000101100000111111000
00111100110100011111111000110110
00111101010100010000100101110010
00111101100001001111011111001011
10111101101000101001111101100001
10111101011011100001101010000100
00111101011100010001100110011010
10111101100010001100111110010101
10111100100101101101110011000011
00111100010000000100001010011110
10111101001001001010001111010010
10111101011000100101101000110011
00111100111100101101001011001011
00111100110011000010010010111110
10111100001010111110010111111110
00111101110111100110000100110000
00111101101000001001000001110010
10111101011001111000101110101010
00111100101010000001101100111001
00111101100111101011100111000010
10111100110110011110100100101110
00111100111111110101000000010111
00111110011110111110010010100110
00111101100101000101001011100000
00111101010011100011110101000100
00111011010011001101111011001001
00111101001101010100111111101010
00111011101110001111110011111010
00111101011001100001100010101101
00111110000100111100110010011010
00111101110101001000001010100001
10111101100101011001011010001001
10111101000000001100110111101101
10111100011111010110100010101000
10111100001111010011000001011000
10111101010100111100110111001101
00111100010110010000000100011011
10111101000111010011101111110010
10111101011001010101110111011111
10111100111111011111010101111110
00111100100101011001110110111010
10111101011100001110011100110110
10111101000001111010111001110010
00111100110011011001110111101110
10111001011011000100011110110100
10111100101010101011000001110100
10111011000111110000011100110101
10111100110110110100100011101010
00111101001110101110011111111000
10111100101101101000101011010000
00111110000101011101011001001111
00111101110011010100110101000111
00111101110000001000110111000110
00111110000010101100101100101111
00111101011000010000010111101110
10111100111110100110001101010101
10111101100110000100101010010001
10111101010011111000000110111111
00111101000101010000011110000000
10111110001011011110100110010010
10111101101001111110101110010010
10111101010111111000000110101000
00111101001011000110010111111010
00111101010001111111010111011110
00111100010101000001110110000001
10111101000000101100000010011100
10111101100010000100100010010101
10111101110100010001110101001100
10111101111010111001010111010011
10111100010010001100000110000010
10111101110011111011101111110011
10111110001100111000100010100000
10111101101011011011101111110111
10111101000100011100000011000011
00111011101000010100100010011101
10111101101100101001110100111101
10111101001111100110100001000001
00111101110110010110110110111001
00111011000100101111001100111110
00111101101110010110111110011000
00111110010010001111100101101010
00111110001001100010011111110001
00111101101110110101110111100001
00111110010101100010000010001100
00111100101000001110011110011011
10111101011101001111111110001011
00111101010110000101100001100001
10111100011111011011110100110001
10111101110110100110011111110101
10111101101101011000110100001001
10111101001010111101001101011010
10111100001110110100110110001110
10111101011110111000001101110111
10111100111011001000001110011010
10111101010101000100110110011010
10111110000000010101100101110001
10111101111011001110101000100001
10111101111000000110011110110000
10111101110000011000000010010001
10111110000101011001011001111101
10111101010111101001100011100000
10111101010100001111110111001101
10111110000000001110001110010100
10111101001010100011100011100001
10111101110111101100100101011101
00111011100010110100110010100000
00111101110000100101011001000010
10111100001001101010000001110010
10111101100000100000110011100111
00111100011001000001110001110000
10111100110100010111001010100100
00111101101011011101000100011010
00111110000011100001010011100111
00111100110000100011111110001111
10111110001000111010010010110001
00111101111100010111010010011000
00111101100001100111111011000110
00111100001100011000100010101011
00111101000111100000100111010010
10111110000011001001001111110100
00111101000011111001110010011111
10111110000101011111000100011111
10111110000011101001011110101011
10111110000011110001011100101111
10111101101100110111010000000100
10111101100000001001010111101011
10111101110011000100101110111110
10111110000001111000011100010001
10111100010000110000010100100100
10111011000001110011110100111010
10111101100001001101011011001000
10111101110001100000011000100001
00111101000100111001111101000011
10111101000010100011001100101110
00111100111001010011011001000110
10111110000100001100000011111100
10111101110110111000110110111010
10111100101000111001000100111101
10111101100011111011000010110010
10111011110001101110001110000100
10111101000101101011000110010001
10111110000010101010100111001010
10111100111101111111010011100010
00111101111010011111110010000001
00111100111111101101000101010100
00111011110111010100111111110100
00111100100000001101111010110000
10111101100011110011100000001000
00111101001001110110001011001000
10111110001011011000010011010101
10111110100001111101110111100010
10111110010101100011111001101011
10111100101010111001111100110100
00111100010101011011111001000100
10111110000111110111011001100001
10111100110010100101101100000101
00111101001011101111010111010101
00111101100011000111100111001001
10111101001001011001000001110010
10111010100011101111100111100000
00111101101110010100101010110001
10111100101110001110101001001110
10111100001010101110001000100100
10111100110110111100110110010010
10111110011011101010101110011010
10111101110000000010111101000000
10111101010100010111011000111010
10111101011011100101111100111011
10111110000101000011011011001111
10111101101001001110010100011010
10111101100011011101111110001111
10111110000100000000111111001111
00111101110101111110111100001101
00111101100101000011100100111010
00111101011011010101110110100100
10111101111100100000001101101111
10111100100001010111010000111001
00111101100100110110100010001110
10111101100111100000101001100010
10111110000000100011100010000011
00111011111101000000100001101011
00111100101011010001001110111000
10111100100010000011011111010110
00111101110101000101110011001000
00111101110001010000111111010000
00111100100100110010001011011010
10111011111000010101110001100111
10111101011111000010010000110000
00111101001101111110000110000110
00111101010001001101110011100001
10111100111001000111011110011001
10111101000000110001101110000101
10111101110110010100111110001000
10111101011000101011000111101011
10111101011011001110011011111111
10111101101000010010010011011001
10111110001011010100011000111001
10111101010001110000010011010100
00111010110100101010101011001011
10111101110000010110111100111011
10111110000001000110101100011011
10111101111100010001110101010000
10111100101011001110001101001001
10111101011100110101100001010100
10111100110101011100111101101011
10111101100100001110000010001100
00111101000110111011000110101100
00111101110001111001001000001111
10111011101111001000000100100101
00111100101111110000100001001010
10111011001000010100011111000000
00111101100100110100111001011100
00111110000000100111010010101010
00111101000000000101010100101111
00111101100010011000100001101000
10111101111010011111100010100111
00111101001101011101111101100101
00111101100110001110111100000011
10111100101010010001100010010110
10111101011010101100001001100010
10111110001111111010010111101011
00111100010010111100100010000000
10111101011100101101100001111010
10111101110001000100111011011101
10111110000111010110010011110100
00111101110101011110101111101111
00111100110011100100100011111111
10111110001111010101110111111000
10111101101101111110010111011111
10111100011100110011000011000101
00111100101011100010111100100011
10111101101001110101011101000111
10111110000101000010000001000010
00111101110101110000100101001100
00111100000010101000100111011101
00111110000111011011010111110101
00111110000011010110011000011000
00111110010000001111111000000011
10111100110101001111001101001111
00111100110101101001111000111011
10111101110000101010001110111100
00111100100101011010000110111100
10111101001001101100100010000101
10111110001010010000001110100100
00111100100110010111001110101101
00111100100111000110001100011111
10111101111111100101111011100000
10111110001000101111100100110111
10111010001011011111000100100100
10111100101000111100100111100110
10111101100111110011010110111000
10111101100100011111101010000000
10111101101110100010010010000111
00111101101110000001111111100100
00111100101000101000010111001010
00111101100100000010011111100010
00111101100011000100010001001010
10111101000001010111100110101001
10111100111011111100111010110110
10111101011101111001110000001000
10111101111001011011101111010111
00111100110100111001011011010100
00111101111010101110101010001100
00111110000100001110011111010000
00111110000001101111110101101011
00111101100000110111001001011000
00111101001110011101011101101111
10111101000111011110000111011001
10111101010101100011010001111111
10111011111101000000111110111011
00111010111110001001010110110011
10111110000011100100000001010101
00111100110101010011100101100011
00111100001100001100100100101110
10111101011010111110110100110010
10111101111100010011110011000001
10111101010110110011000001010010
00111101001010001001101011100101
00111101011001000010111001100010
00111101010011000100100101001001
00111101011011001101100001000111
10111101000100100110100010011011
00111110001001010100010110000001
00111101011111010110100101110110
10111101001000111011110001100100
10111101101011001011011000000011
00111101011011111101001111100100
00111101010011101110010110111101
10111101011001110110010011010111
00111101101000110000101000001010
10111101111111100101111110000010
10111101110010101001010101110000
00111110000001010100010011101101
00111101011111110001000011010111
00111101100111010001001011111101
00111101100001010000110111111011
10111100100001110100110000110001
00111101101001100111011011000011
10111011100010111101011100110110
10111011001110011101100010100000
10111101100001101101010011111011
10111100110001011101010100010101
00111100111100101010100110110110
00111100000000111001101001110100
00111101011000110011010011001000
10111100111110111001100111101010
10111101110000001011010011100000
00111101101100000000111001010010
00111101110100110100100011101000
00111110000001011010110001110111
00111100010110100100001000001001
00111101100001001111101110011101
10111100010010100011010101111111
00111110000100010011110010101011
00111101011100011010011010101011
00111100011000011000100100000011
00111100000010110101011011111001
00111101101000111000011000000011
10111110000010100011011111000010
10111101001101101000111111111010
00111110001011101011101100010100
00111101101000000000101010101011
10111101000011010000011011101111
10111100010111001101101001101110
10111101010000001010110010101010
00111011111110011110010010100101
00111100101000110101101101100001
00111110000010100110010010000000
00111101101100100000010000011100
00111101100000001000111110000010
10111100111011010010101100101101
10111011111000001010100100000000
10111101110000101111011010000011
10111100111010111100010001011111
10111101101111110101100100111001
10111100100100101000101100111001
00111101000001010001010110100001
10111101101001110101110000000001
10111101100111001011010001001001
00111110011011100101001000010000
00111110010101001110100010001001
00111101101101101010111010100001
00111100110010111110001011100111
10111100110011111111010100101001
10111100101100110001100011111000
00111101101111001110000000011001
10111101011010100111110011101110
00111101100101011000010000011011
00111101011111000010010101101011
00111101100110000110100111101001
10111101000110000100100011011110
00111001111000110101000100101000
10111101000000110010011110100000
00111100011100100001100001100011
00111110001110111001001100111111
00111101110001010011001000100100
00111110001110101001101111000001
00111101010100110101110010110000
00111101100011111001101100000011
10111101011010101000111010001010
10111101100111010110000110001000
10111101101000101111100000001011
10111101000001111111001000100100
10111101111101100100010010010001
10111101111001101110011011011001
10111101101001010010010000101001
10111100010000010101101101010111
00111110011101110010010001111010
00111110010000101001100011100111
00111110000000100010111111011001
10111101101010000001100111100000
10111101100111011011000110000111
10111011111000111110110110100101
00111100011011100110101100000111
00111100110011010101111001111110
00111101100101010010111010011011
00111001111011011100100001110010
00111010101010001000100001001010
10111101000000110101000011000111
10111101011011101100011111100101
00111101101100111110101000110111
00111110000101000110010100001000
00111110001101010111111100100100
00111101111110111111100110110000
00111110000010000110001001111100
10111100000000111000010111110011
00111100100011010100011101001110
00111101010100001100010101100110
10111101010001101111011011111001
10111101111001001101100101111010
10111101100001101111100011101011
00111100010011000001011101110001
00111100010010100010111100010001
10111101110100011100011011000111
00111101101111100000001110011010
00111110100101110101010110111101
00111110001110111011001111110000
00111101010001000110100110010110
00111100111011010101000000001100
10111101111000100001010111110001
10111101010110011000001000101110
10111100011010001111011001100111
00111100011000001110000111001110
00111101110010010011010110100111
00111101011000101011111000010101
10111101001001101010001111100000
10111100010111101000000011100101
00111100100011110100011011100010
00111110001111000010110011000100
00111110010100110000110100010011
00111101111010001010011011110001
00111101011100100011001010111001
00111100100011101111001001110100
10111101100001011101010111100100
10111101101011011101111000010010
10111101101000111000110010010000
10111101111011011011010010010011
10111101100100110101011100100100
00111011100000000101111110110011
10111100101000100011100000000001
10111101011011101101100011110001
10111101110101001100110011000010
10111101101001101101111111000101
00111110001010000001101111011001
00111110000011100101101000011101
00111110011101001101111010101111
10111101100111011110101000001011
00111101010010100100011000001101
10111100010110100001000101110101
10111101100110110110111010010101
00111100001110110101100010011010
10111101111000101100010011110001
10111101000011010100110100010000
00111101001110100111101101000011
10111100000101110011001001000011
00111110000101011001100100100000
00111101100011000011100100010101
00111100010111110000011101101001
00111101100100110001001111100110
00111101100101010001110110010110
00111101101001101000000011000010
10111101011100011110000011101011
10111100100100111000110100000011
00111101100010010011010001100010
00111100010010100100111101000101
10111010001011000110000000111011
00111011010110010001111011111110
10111100101010011001000010111001
00111101101110011101011111010100
00111101011010100110111110101111
00111101010000000101001101000010
00111110001010101001110011010010
10111100001101100000001001111000
00111101111110011101011111011110
00111101010010001000101001100111
10111101101010001100011111010100
10111101000101100011101001000101
10111101000100011100001110111100
00111010110001100111000111111011
10111101000001000011110001010011
00111100011101001100110111000000
00111101001111000011000011010001
00111100000011111010000010001101
00111101100000110101000101010111
00111100110001010010011001000010
00111101111000100010001010100000
10111100111010101000001110011010
00111101111000000001010100101001
10111101100110000000011111111001
00111101100001100011101100011010
00111101111101101001100100111101
00111101011000110010100110011110
00111101111101001010000000010111
00111101000100000010000010111101
10111101100001011001000101010100
00111101011010011000100010110111
00111101101100011101000100110010
00111101100011100010101001101100
00111101100000000011011011011110
00111110010110011100010011101011
00111110000011101001100110000000
00111101001111000011011100010011
00111101000111101000101110111100
10111101100000001001001101110000
00111100001001110100110001001011
00111100110100110001001011000011
00111101110101111101110111000101
00111100110111001001111010110011
00111101100100101110001000110110
00111011010101111101100010110100
00111101101010101111100110010110
10111100110000100100010010110001
00111101010111101000100110101010
00111110000001100110110000101011
00111101000000101101110101001111
10111101011111001101100111101101
00111100001111101011111010110011
00111101110001011000000010011011
00111101101000010010011101111110
00111101100011000111010110100101
00111101101001100001011001100100
00111101000001110111110000001111
00111101101110111001011100110001
00111101111110101100111000111110
00111100010001111011000001111110
00111101110011101000000001001000
00111100111001010111011100000100
10111100111011001010101100010110
00111110000010100101000101101111
10111101011010111110010111010000
00111101110110101011111111101000
10111101010111110010000010110110
10111100111110011101010001111001
00111101011101011100100101110011
00111101111100000001000101101110
10111101011010001010010111001111
10111011010001100001000101010000
00111101110101111001101010111100
00111110000110010001100111001100
00111101101111110011001010100101
00111110001000100011100010000101
00111100110000001111110100101101
10111100110011001100110011111100
00111011101100010101011100101100
10111100000110001111010111001110
10111101101010111110001001110110
00111100010001001001100111011111
00111101011011100101001110011001
00111101110010000000101000000110
00111101101000111100110000010110
00111101101000001111111000000110
00111101101001101100010010100011
00111101100111011110110011010001
00111101001010100011100101010000
10111100001011010110111101110111
10111101001010010000110100111011
00111100110011110110011100111110
10111100100100000111001101010011
00111101110100111010000000101011
00111101001001111011011000110000
00111100110100110000101110110010
00111110010101010110001110101011
00111101111111100001100010001011
00111110011001010101010110111101
00111101101111010000110111000000
00111101001000000111110010110011
00111100111110001110011100011010
00111100110011110100100000010100
00111101010110001101011001101011
00111011100001011011101110010101
10111100100000000010000001001101
00111011101111110101010001001111
00111100110010110101100000111111
10111101111001011101100010110010
10111110000001101010000111101110
10111100101100100110110010001100
00111101100101111100010000000110
00111100110010101101111001011001
00111100100001001000000111000011
00111101010000101011101001000110
00111101000111101111011010100110
10111100110001001100100101010101
10111101101000100000100100000110
10111101101111100010111110111001
10111101100010100001101011110000
00111100001011111100111110111011
10111101011011000111110001011000
10111101000100010100000110101100
00111100110100011100000110101000
00111101100100100011110100010011
00111101101000000110010100110000
00111101111101011010101111111001
10111101110000101100000110010111
10111101011000001001110110111010
00111100110001100101001100101011
10111101100111001001001111000000
10111100111100101011110011000010
00111100100100010101110101111011
10111011110000110100101011001000
10111101101111111110101001101100
10111101010011011100011110110000
10111101110011110111110000101010
10111101101011111010111000001011
00111100101110101100010010010110
00111100101000001110100010011001
00111101010011000011001000101010
00111100000111001100000111111011
00111101001010101101011101101100
00111110000101000101001110001000
10111101110110111101010010101000
10111110010000111011101111010000
10111100011010100000111100101110
10111101001000000001010110101010
10111101100001010100001111111100
00111101010011100111111000101110
10111101100011110110100001111000
00111100101011111110010101100000
10111110000010001101110100000111
10111110000110000011010110100010
10111110001010110001001101000000
10111101110001111111010101100110
10111110100001110010110011110111
10111101110011010000001101100000
10111101100011101010011011110001
10111110001100110000110010010110
10111011111001110100111011101001
10111101111111010010001001001100
10111101111111111000101110000101
10111101100101011101000010110111
10111110011011101101111011000100
10111110001011011100000001000110
10111110001100011110111110101110
10111101101101110010010100110011
00111100101000000110011101101011
10111101100110101111100100010111
00111100110001111101010001101011
10111110001110001010001100101000
10111110100010101011100000010110
10111101100101011011100110001111
00111110000100010011100100111011
00111101011001011010111000011110
00111100111010111110001110011100
10111100011110110001010100010000
00111010101001011110110000000000
10111100010000000011000100000111
10111101100111000001101000000011
10111110000110101001000000000110
10111110100011100010100101000110
10111110000001011010011001000111
10111101111011110100010011111100
10111110100011001011100000000110
10111110100101001100000010111110
10111110101100001101100000110000
10111110011001011001001000111010
10111110011001011011011001100000
10111101111011000010011111100001
10111101011101101111110011100111
10111101110111000011010110110100
10111110011000000111101100000000
10111101110100110111111111100101
10111110001100011000100111100100
10111110011010110001101110000001
10111110010111100110101101101101
10111110011111000001010011001111
10111110100100101001111111111100
10111110011000101010001101110111
10111110000101101011101000110000
00111101100000111000100000001100
00111101100110111100111011111110
10111101101000111001001000010000
00111100110110001100010000001100
00111101001001111100110100111110
00111101010011111100110100111010
00111101011001101100110001010100
00111101101000001110100111001110
10111101101111100100111000011111
10111101110101010110110101110011
10111110001110110011110001110000
10111101111101010010101111011111
10111110010010101000010010110111
10111110001000000111000111100111
10111101001000011101000100011110
00111011110010011111001110101100
10111110000011000101011111111111
10111101011000010001011101110000
10111110000011011101001011010001
10111110001000001110001001111100
10111101100001101011100100101010
10111110001010010101011101111101
10111110100110000110010100101100
10111110101000001100111111101011
10111110000101100100101001110000
10111101000001001011111110110111
00111100110011101100010001011101
00111100100110110111011000000110
00111101010101001000000110100100
10111101011011100011100111111100
00111101101000011010001101000111
10111101010000000100010001011010
00111101101000010010110101101001
10111101100110000010100011101100
10111100101110101110110110011110
10111101000001010110000000101110
00111011111010100001001000110101
10111100101101100100101001011011
00111100010001001000100000001001
10111101101010000110001000010101
10111101010011011110110100001000
10111110001100100010111110001000
00111101010100010010111000000100
00111101000011000101111010011101
10111101100001010011011011001000
10111100111011011111100101001101
00111100100111111001011111010010
00111101110110111000010011011101
10111100110111010011111010111010
00111101001100011100010100100000
10111011110111111011011101000101
10111011110001101101010111001110
10111101111010110011110010010111
10111101000111100111100110000101
10111101001110100010101010011010
10111101011101011111011001111000
10111100110000110100110110001000
10111101000100100111100010101011
10111101011110100010000011011110
