10111101100000100100010000110101
10111100100111000010011111100110
10111101100010010011111000001110
10111101100011100000100011001110
10111100010001111000000101100000
10111100100000000011101000001000
00111100011000101001000100010000
10111011010001110000100100100000
00111101010111001111101001110110
00111101101001011011101000010111
00111101011000100001011011001010
10111101011111010100110001100010
10111101100111101100001100100011
10111101001000010110100111100100
00111101000000100100111010110111
00111101100111011100101011100101
00111101001001100101011011100000
00111101000110101011110010000110
00111101100010011011101110100011
10111100011010111101000001110000
00111011001000111100011100100000
00111011000001101110111101100000
10111101100100111111001010100101
10111101010101001110011010100101
10111101001001100011111111010011
10111101100000011010000111011100
10111100001101010001111001001000
00111101010111001110011000001110
10111101100111011010100000011111
10111101001101010111010000011111
10111100000011100010010000111000
00111101101001000111011100111011
10111100110011000100101100101100
00111101100011110011101111001000
00111101100001100001001001110000
00111110000000110111110001111001
00111101101010100011111000000010
00111101001001100010000100001101
00111100100110111111101011001110
00111100110010000110010010011001
00111100001010010011011100000000
00111101011100010001011000010001
10111101001101010111111111010110
10111101111000111101001110101111
10111101011111000111000011001110
00111101111011011011011111110000
00111011100111111111110010011110
10111110001000100000100011110101
10111110001000010011000010011001
10111101011100111000101010000000
10111101010010000111000001100001
00111101100111000100000111010001
00111100011100110111110101000000
10111101100110111100111101100011
00111100100100011001010111100100
00111100000000001101101001011000
00111101100001000110001110010011
00111101011000101000000100100010
10111101011000010101101101011111
00111101100100011000101110010111
00111110000100111101111011010001
00111100101011011010101100111111
00111101100010001011010111100000
00111101010111010101011001111011
00111110000011111000100111111001
00111110010101111011011011001001
00111110001000011011110111101000
00111110011011010000100000100110
00111101111011001101101110101010
00111110000111101000110001111010
10111100110110111000001100100111
10111110001101011001010011101000
10111101011011101011111111100101
10111110000101010110111001011111
10111100011001111000011111101110
10111110001011111100011100100001
10111110010101010101111000000001
10111110010100111110101111000110
10111101100101101100100110101010
00111011010111000000101010000111
00111101111011110101001110100101
10111101000100101100111110000101
10111101000110100010011100000100
10111100010001001110111101000000
10111101001100000111101111000010
10111101000110010010111111000000
10111101001100111110000100101010
00111101010010110101111110000010
00111110001010010111000011011001
00111101100000000101010000001001
10111100111110100001000000000111
10111100110110110001110101111011
00111110000101101011000011010101
00111110010111110111111010110100
00111101101010011111010011101100
00111101011001100101001001011001
00111101101111000110101000111111
00111101100000010101110010100011
10111110011001101101000110001110
10111110001001011010000100101011
10111110100001010001000001000011
10111110000011001110111110110000
10111110010110010100010100101001
10111110100010100011011001111011
10111101111011110001011111100000
10111110010110110111111100111111
10111101100110101010011100110101
10111100110011111100011101111111
00111101101010011111011001101000
10111100000010011101011011011000
00111100001011100001001000101000
00111100110011011101001111111100
10111100100010111110101110000000
00111101011111010011000111101010
00111101001001011011111111011110
00111101101001010000000111101001
10111101101011100110001000101101
00111101101101101110100011101000
00111101001001111000001100000100
10111011111001001110011000100001
10111100111110101000101000010011
00111101011111011011101000001001
10111101010010101000111111000111
10111101001100111110000110100000
10111110000000011110100011010001
10111110011011111101000101110101
10111110110011100011110000011000
10111110110110101101011110001100
10111110101010001001100110000110
10111110101011101001000001010110
10111110010111010101111000111000
10111110100000010011001010011011
10111110001100010110000000101010
10111110010101011110110111001000
00111100011011111101100011110100
10111100101110111100010101111110
10111101101101100011111111110000
00111100010010100101101000111110
00111101001110101100000100011101
00111101100111010111111100100110
00111011000101100010001100100000
10111100110101011100100111100110
10111101011111000011011001100101
10111101101111001101010110001101
10111101101010001100100011010010
00111101001010101000010010101101
00111101000000011110001011011100
10111101110011111111011111001101
00111100100001111111111001011110
10111101101111101001011000001001
10111110010000101000101010100111
10111110000010100101110000101011
10111110001101010011100010011100
10111110001000010000111110010100
10111101101100010000001000011001
10111101000001001100100110010001
10111110001100100011000000000010
10111110001110001000110010111111
10111101110110001110110100001010
10111110000111010010111001101001
10111101100001010000111110110000
10111110000110101101111110001001
10111110000010111100101100001011
10111110001011011010011110010010
10111110001000000110101111011111
10111110000111001111011110110101
00111101110110111101111011001011
10111011100011001101010011100111
00111011100011000110010011010000
00111101100001011010010101000111
10111011100001000101010110110000
00111101001110001010101100010011
00111011001110011111010111010110
10111101100110100000100110000000
10111101110000100000110100010100
10111101010001010111000000111001
10111110001001010100010110101011
10111101110110110000011110000011
00111101010111110110001110010110
00111110011101010100111011110001
00111101100001111100101010011101
00111110001100011011101011011101
00111110100010001010101110011000
00111110010011101010000101011001
00111110010101001001001110010011
00111110000000010011100011111010
00111110100000000001001101000010
00111110010001100000110101000010
10111011111010101111010011111000
10111110000100110011100000010110
10111110001111001110101010011011
10111110011011011111010001010100
10111110100000000101011010111100
10111110100111111001111110111000
10111101001010001101110001011001
00111101111011100110100101001011
00111101101100010101111100101000
10111011001100010000111011110000
00111110100100011110101101111101
00111101111110011010100100100000
10111110010011101010000101100000
10111101110111011111011011111000
10111110001001000110110011011000
10111101101111010111101101111101
10111110000110001010010111001001
00111101101100001101001110000101
00111101110011110001000011010111
00111101110000100000111000110000
00111101110010010110110101010010
00111110100100000110011111111000
00111110100011111010001010000000
00111110100100010110111110010001
00111110100001000111110011101000
00111110000001101101100000010000
00111110010000010010011000000110
00111110000011001110000111011001
10111101100100000000101010011010
10111110001000101110101011110101
10111110001011001010011101011100
10111110100110000100101010000001
10111110101010001101001000011111
10111110110010010001010001100100
10111100110111110111111001010101
00111101111010101110110100110000
00111110001100110110011101111111
00111100100111101100100110110011
10111100100010000100101000101100
00111101110000011001111111100011
10111101110100101110111001100010
00111011110011110101101111100100
10111101010100111111100111000111
10111100011011100010100101101000
00111100011110001100100011001000
00111101101111101011010011001010
00111101110010001110011011011000
00111110001000111000010011010001
00111110011101101000010110010001
00111110001100110111100100011101
00111110001100011011010010011100
00111110011101011111111000101101
00111110000000111111001011011000
00111101001101010111111101011011
00111100100011001110011011011101
00111101111010100100010001000010
00111101100011111010001101101001
10111110000010100001001000111100
10111101110111110110001111110100
10111101111110001000010100011101
10111110011011010000001011100001
10111110101100100001011010100101
00111011100000011110100111111010
00111110000011010001011101001110
10111100111100111010011010000100
00111101001110000010001001011010
00111101010001001100101101110111
00111100111010010100100011011111
00111110001010101011110100100010
00111101011011010000111110101101
10111101110110111011011100001111
00111101100101111101111001001110
00111101001111110110111011010011
00111101111110010011101010000100
00111110000101010101101010011001
00111101110110000001101010101010
00111101100101011101100100111000
00111101011110111010111011000110
00111110000000100000011101110011
00111110001000000011111011100000
00111100001000100100011100100000
10111100001110101100010010011001
10111100110000000101001110110111
00111100100000100001010110000101
10111100111111001110001101010101
00111100110100010011011001001010
10111101010111001011001101010100
00111101000000001101000000111011
10111110000110000011111100001000
10111110000000101101110111001010
10111100110110000000100000011101
00111101000010110110011010011010
00111110000100001101011111010100
10111101000000010011000101010110
00111101110000111011100111110001
10111101101011111000111100000110
00111110010111010001111000010001
00111100101011011110001100000000
00111101000110001110101000001110
00111110001010101011100000001000
00111101111010101110110000000001
00111110001100110101101101100101
00111101110111001001011011010010
00111011110000001011010111001100
10111101100000010101111011000010
10111101111011100001110011110010
10111100110110001100011000111100
10111110000101000000101001110100
10111101111111110011101101010001
10111101110111101100110111000011
10111101001111110000111000111011
00111101110101100000110001000101
00111101101011110010011001110001
00111101101001100000110010000011
10111101011110110001100110010110
00111101000000100110001110001101
10111101010110101011111111100100
10111101110111011010110110101101
10111101001110110011010101110011
10111100011100001000011110001000
00111101000101010000100011001100
00111101000010010111101001000000
00111100100011010110101010001110
00111100111011010111010111000000
00111101111001100011010000110000
00111101001100001101010101010011
00111101101010011111100011100001
00111101111111101011100010010010
10111100000000111100000100010100
00111100111100100001100111010001
10111101101100010001100101011000
10111101111011001100000110100000
10111110010110110110100110011000
10111110011000010010011000110100
10111110010111010110001110010101
10111110000111001000110011110011
10111101111101110110100101101001
00111101100001000101101011101110
00111101100010110101010100011011
00111110000011111101110010001111
00111110000010010101001100110110
00111110001000100000001100011011
00111100100010001010000110010100
00111101110000010001010011011100
00111101001101110111011000011010
10111110001001100011100101011111
10111110000011000011101110001101
10111101110101010000111000101010
10111101111000000101110010001100
00111011110010001001111111001100
00111101110111111000011010001101
00111101101100010001000100010000
00111110001110100100111100011111
00111110000001010110010011010010
10111110000110000110011111111101
10111110000110110000000010110000
10111110000011100010101111010111
10111110011111000110100000000110
10111110001111001110010110110111
10111110100101101111110110000101
10111110100011001100011111001110
10111110110100010001100011000111
10111110101101011001110001100011
10111101101101101010100001000010
10111011011011010101111101001010
00111101101011000101010010111000
00111110000010100111011011101000
00111101010101110111100000111111
00111101110001011001101101100101
00111101111001011110000100001010
00111010101001000001000011000101
00111101101011101101010011011011
00111101010000011001010111000011
10111110011111011110010011100110
10111101001100111011101100110011
10111101000111110110100110111010
10111100100001110111100111001111
10111110000100000101011010010110
10111101000111110011010111011000
10111100100011000010101111111011
00111101110100011010101011101111
10111011101100011101110010001011
10111110010100010001011110001100
10111110010011100001000111111011
10111110001010101011101001000010
10111110001111101001110001011001
10111110000100101011111100010000
10111101111001100101011110000100
10111110000010110000011101000000
10111110001001111101111010101110
00111101011000111000111000101011
00111101111110001010011001011100
00111101001101111111110111111101
00111110000100010000011011111001
00111101101100000111110101111010
00111101100010011011110100001101
10111101100001111111001011000011
00111101110110110110101000011110
10111100100000011001001000001111
10111101011010011111001000100101
10111110010001010100000111001000
10111110101110001101111111110010
10111110011010001101101001001111
10111101110011000010100010000011
00111101100111001000001001110110
10111100111101101001001000000100
00111101100100101011110011001100
00111101101011101111110000011100
10111100010100011100111111011111
10111101110011101100001001100000
10111110010010110011110111010011
10111101101011100101010110001111
10111110000110110100011001100100
10111110000101011000011100111000
10111101111001101000101111100101
10111101010001001110000011010100
00111100000100000010000110110001
10111100100101000101101100101100
00111110000100101110111101110010
00111101001110110001110111010010
00111100011110100101100100001101
10111101000010000100101001101100
10111100110101100010101100011001
10111100101100010011110100001011
00111101100010010101000001011001
10111100100101001000101101000100
00111101010001000111110101011111
10111110001001111111000001011010
10111110000110010000001101111111
10111110001100011111011001110010
10111110011101111110011001010010
00111101010010111101110001110000
10111101011000101101011100000000
10111110000010111011101001101000
10111011000001001010110110100000
10111011101000111011000101001010
10111101101001000011100100000110
10111101010100110110111000110001
10111110010011100010100010001110
10111101100010101001010010101110
10111101110010111111110010000001
10111101100101001110111011101011
10111101110110100000100001010001
10111110001001011100011111110011
10111100001100101000100010100010
10111101000111100100101110110101
00111101010010011011011101101010
00111101100100000100010110101101
00111101111111100100100101011000
00111101000000110111011111111101
10111100110101101010111101011011
00111100000000111100011101101101
10111101000100111110010010001011
00111100101010110011111111000001
00111101101010101101000101001110
10111100111011001000000111001001
10111110001001001101101011001010
10111101111101001001110011111110
10111110010011000100110000101000
10111101111000110000101001000110
00111101110000110101101001011101
00111101010011110100101100111001
00111101101111010110110000000100
00111110000000101010111001010010
10111100111000111111010010000100
10111101011001001001011001111110
10111101101010100011101010100001
10111101100001000100110110100110
10111101010110111011110110000011
10111101011000110101100001001001
10111110000000111111100101101011
10111100011010110110011111111101
00111101011111101001101010011111
10111100000010111011010110101101
00111100111101000011001110000000
10111101000011001000001101111111
10111100001010110101111001111001
10111101001110100000011110100001
10111101100111001000110111011001
00111101100000000101010100000100
00111100101101001010001100010100
00111100101011001110110001101000
10111101100010111101100001101001
00111100000001000111011011111001
10111110011001111010000010010000
10111110001110100101010001001001
10111110000110010101110000010000
10111101010010110010111111010010
10111101111100100101111101011101
00111100011101000001110001101000
00111101101001110011001100010011
00111101111101010011010110000111
00111110000011100101011100100000
00111101011100010011111011001010
10111100001000110100010001100000
10111100101010011011001110101011
00111101001001101111100110101011
10111101110010000100011011101101
10111101001001111111111000111000
10111101011101110000100001110001
10111011110001010101011010110011
00111101101001010001110010110110
00111101101111001100101000000010
00111101001000100001011110000101
00111101001111001100111011000000
00111101000100011110001111011111
00111101001100011010111100111011
10111101110000000001110101000100
00111100101101101000001100001110
10111101011101111001111010101101
10111110000100010110010001010100
10111110001100101001011110110010
10111110011000000111101110011001
10111110010111001011111001010111
00111110100001011111010111111110
00111101110101101000000000111010
00111101110101001001000001011011
00111101010011010110010100110111
00111101110100010011010011101100
00111101000111010101110110001101
00111101111111000111101001110110
00111110100000010101100111111100
00111101101111001111001110101000
10111100111101011110111101100111
10111100111110110101100001000111
10111101001110010101010101101111
10111110001111010000111010001000
10111101110110000000000010111110
00111110001001111010110101111100
00111110001110011111001001110101
00111100100110100101101101000001
00111101101110011000100110110011
00111101110101110101101010000011
10111101000110101100000101011010
00111101101010100100010011111001
00111101011010111111100110110101
10111101001011101011111000000101
10111100101000000011100110000111
10111101110001010101011010100110
10111110010110000010011011001000
10111110001011100001101000110010
10111110001110001010110000001000
00111100001101100111011011111011
00111110010110000000101011010010
00111100011011010000101001111001
00111010101001011011011111100100
00111100011101011100101000010011
00111110010010110110111000001110
00111101111011110111000010101001
00111110001100000011010100100011
00111101110010101001101111111100
00111100110011100000001010001110
00111101011000001010100101110111
00111101100010101100100010001110
10111101101000110101011101000110
00111101000010110001101101111010
10111101000100100101001001010100
00111100001110111111001011010000
00111101000010110010101001100000
00111101011101110010010101001011
10111011110001111100000011011100
00111100101011110111110011011101
10111101110100001100000111010110
10111100000100110010101000000011
00111100001110011010101000011100
00111011111110001011000110001111
10111110000000100100100000110010
10111101000011100101100110010110
10111101001010010111110110111101
10111110000101011010110101101010
00111101110101010110010111100110
00111110010100000001111000011101
10111110000000100111011101000010
00111101000111110110001011111100
10111011011111000011101010001110
00111101110011110100101100111001
00111101101010001011100111011001
00111110001100010110011001100000
00111100001001111000001001000100
00111100111110110101010010010101
00111101011100001011011000011110
00111101100010110000000001101111
10111101100001001011100000111010
10111101110010011100001000111111
10111101101001111101110001110111
10111110001111101001011011111000
10111110001111001100111000011111
00111101101000011111100111011011
10111100101101001100000010110010
10111100001011111010100100001010
10111101111111110111011010111010
10111110000001011001101001101011
00111011010001001100111000111110
00111100111100001110111001001101
10111101111011100111111000001110
10111100100100101011010111010001
10111100011110101010000010111001
10111101100011101100111000010011
00111101000011101011100100011100
00111110010100011100000101110100
10111101011110000111000110110100
00111100101001100101011100001101
00111101001110010111100111000011
10111100110010001101111001000000
10111101000100000111110001000010
00111101011010101110000000111111
00111100000100110100110010001010
10111101100001000001000011010110
00111100000101010000100010101111
10111101101010011010100000100100
10111110010011010110000000010001
10111101111110000110001100010110
10111101101101111010011101111000
10111110000001001000011011000000
10111101110111011010101111010000
00111101110001111111011000000011
10111101100001010000001010001111
10111101111100011011100010100111
10111110001010100100011001101111
10111101110001010110110101111000
10111100001100000001100001010011
00111101101011111000100100111011
10111101010001011001011001100000
10111101111001111111111001000110
00111100101011110001101100110000
00111110000011000010111011110000
10111100101101001010111010100110
10111110000011001111001110100010
00111100100010110000001100000000
10111100110001101101001011001000
00111101010011010101011111110101
10111011101100101001000010010111
10111110001110010010110101001010
10111100101001000011100001100110
10111100110111011000100110010011
00111100101111001110011101011100
00111101010010000110001101010000
10111101100000010110101100000101
10111100000000100110010100100001
10111101011000010101101000010000
10111101100011010010010101100011
10111101000001000001000000010011
10111110000011111000000010111101
10111101111010000000010010010001
10111101101001100010110000001101
10111101111100101110100100101111
10111110000011000000011101111100
10111101100001100110011000111110
00111100101101110001101011110011
00111101001110001100101000111100
10111101111000001111101001111101
00111101000101010011011111100101
00111101101000011000011011110100
10111100100111001100011001000101
10111101001100001100101011111010
10111110010010100001100011011100
00111101011111111000101000101010
00111101100011001001101000011011
00111100101110010011101111100000
00111110000000110000101101101101
10111110000101011010011001000110
00111011010001100110011101001000
00111101101000111101001010111111
00111101001001100001111001110101
00111110000100111100110001000111
10111101100001110100000001010111
10111110010000110111001101000110
10111101001101010110101001010101
00111101000101000011000011000111
10111110000001100100001110110010
10111101111010011001011111010101
10111101111010000010110110101101
10111101010000111111000110001011
10111110000010010101011001010101
00111101010101010111111110110110
10111101001001011010111101001110
10111100011101110101111010101000
00111110000000101100010101010111
10111100011011010010010010100011
00111110010110011100110001100100
00111101100011111100111000110011
00111101001110111111000000011101
00111100000100111001100110111010
10111101010100010011011011010101
10111100111110100100000011011000
00111101011110101111101011110110
10111101100000000100000100101000
00111101101100110000110111111010
00111110010110001101111011110100
00111110010111110110110101000011
00111110010100101110010110011101
00111110000010111010101011001010
00111110000001110011110110110110
10111011010101100001000101000101
10111110001000110000111011001000
10111101110010111101111010010111
10111101001100110001100010101100
10111101101111111100010101111011
10111100100011001110100001011011
10111101110011101010100110100101
00111101110111100001011011010110
00111100000110010011110011110011
10111101000110100110000110100100
00111100100001101011100001001010
00111101101100000000100010001111
00111110001100010110000101011001
00111110000011110000011001011110
00111110001011111110111101001010
00111110001101001101111101100011
00111101111100000010110001101011
10111101100000111011100101001111
10111101010010001010101000101111
00111011101010110111000010000000
00111100111001011110101011101100
10111100101001010100001010101000
00111110000110000110011000001111
10111100101011011100010101111100
00111110011010100000110110010011
00111110110000001101111100100101
00111101110010010111101000110100
00111101110000000001000001101100
00111101101100100000100011010100
00111101101001101110111011011100
00111101011111111100110111110001
00111101010110010110111011101000
00111101111110111100110010111110
00111101100010100010100010001100
00111010100110101111100101011011
00111100101011011011010010010001
00111101011111000100100101101000
10111101011101110011010001100100
00111101010101010100111111101000
00111110010011001001110110111101
00111110010110011111011101111001
00111110011011011110110000101110
00111101011110101100111100010100
10111101101111010011001001011100
10111011110110111011001010010001
10111100000001101111010111001010
10111011001100101010001100100100
00111011001011001001011000000000
00111101100101010011010010000101
00111100100110101100101111010000
10111101100101101101111110000000
00111101110010111101011011100010
00111110010011111100110101000000
00111110010101001101111001000100
00111110001110100101101000111101
00111110011001001100100111010000
00111110000101000101101011100100
00111110101000000000111100000100
00111110110010110011101001001011
00111110100000111011111010000101
00111110000000110111110101111000
00111110101101011011111110010011
00111110101001010001101010010011
00111100010010111000010001001010
00111110100110100100101101001011
00111110100101111110100011001001
00111110011011011101001011100001
00111110011001011011110101010101
00111110100100100011100101010010
00111110100001011111111100110111
00111101010110110110011100110001
10111101011000101001111010100110
10111110000000110101110010000111
10111101000001011001010101100001
10111101100000101011001110100000
00111101000011110000111001111010
10111100010100100110001001101000
00111101100111101001000111001101
10111100011011110111101111110000
10111100100001011100011111101000
10111100000011010101010001110010
10111101101010001101100100011000
10111100010110011110000000001111
00111101100100110101101100101011
00111101010010010011111000000101
10111101011001100000001110100111
00111110000110110100000110111100
00111101111101000000110011000111
00111101100101000101101101010010
00111110000001111111110010111011
00111110100111100000100001010010
00111110010111110100111010110000
00111110001110001010000101010110
00111110011010011110110001001101
00111110100100101110100100011110
00111101111010001001111100100101
00111110001010011010001100010001
00111101110101111101000001001101
00111010111010100011110100010111
00111101100111101101110101001000
00111101100010001010011000111111
00111101001000000011001001101110
10111010111100101001111011000000
00111101100010100101101101100011
