10111101111110100110011011000111
00111101100001010010100000100011
00111100111010100110010110110100
10111100111011010010001011010010
10111100110101001000000100101000
00111100100110101010000100011100
00111100011111101100110111100000
10111101011010110000111001010000
10111001100001100010100000000000
10111101100011010010001111110110
10111101000000001010111010100110
10111100011000100101101001010000
10111100110111010000000100110010
10111100101010001001001011000111
00111100100110100101000000000100
10111101000110110101111100011000
00111101001010011001111100100000
00111100010111001111011001110000
00111011100110010011110111010000
10111100101000110100000000000010
00111101011010100000011001010010
00111100111111100100100001100000
10111011010100100110001110000000
10111101000010010101100010010100
00111100101000110111111110011000
00111101100000010011011000011111
00111101100000101010010111100001
10111011110001000001110111000000
10111101100110100010100110010000
10111101101000101011110010111001
10111100110010111011110111100000
00111010110001000010111010000000
10111101001111110101011001000101
00111101001001100111010000000001
00111100110100001010110011111010
00111101101010001100100001010100
10111100101110111111000000111010
00111101110101000100110110110101
00111101100110000110111100110101
10111101110101101011010001100101
00111101101010110101100010000000
00111110000110111000011101110110
00111110001110010110100110010010
00111100100101011110001101110010
00111101001010100111001110010101
10111100100010010100100011000001
10111100101010000100001101011110
10111101110100010101111011001111
00111011010110111110011100000011
10111011000000011000010001111001
10111100110101011111100100100101
00111101010110110110011010110000
10111000010000011001101101100111
10111100000011000111100100011000
00111101100000101100001010011101
10111101001100110001101101100000
00111101100111101001010000011111
00111101010111000010000010001110
00111100110001010010001001100100
00111100110011000110011010001011
00111101011001101111000001101010
00111101111100010111001111100011
00111101100000000100101010010001
10111101001000101101010100010101
00111100110111101101100111010100
00111100001100010110011110001110
10111011110001100101011100110101
10111110000010001000110000110011
00111100111101110011000010000011
10111010001111101111100010111100
10111110001101000110111101111011
10111101111101111111011010001010
10111110101000010010010110000011
10111110011100101000011110000100
10111110100111101010011001000111
10111110010000111011010001101001
10111110000100000100010100001010
10111110001101011101010101111001
10111101001101010100001010000101
10111101110010110001100111111111
00111101110110011010101000011000
00111101101110000111000011100101
10111100001110011001110000101110
10111101100101110111100111101010
00111011001011011101111100000000
10111101011010110111111110101111
00111101100000010001100011111001
10111101001101001011010010101011
00111110010101110101110100100010
00111101100111100011110011010000
00111110001011111111010110000110
10111101010101101011101010110010
10111101100000101101001101010101
00111100011111001001110111100001
00111101110000110001111100010000
00111101000010110101011100110001
00111101000001000010001100010110
00111110000110011000100111001111
00111110001001101100011101101001
00111110100010000100101001100010
00111101010111011110110000010110
10111100011011010100010000100101
00111101010110101010001001100111
10111100011011111100111101101111
10111101111011101000010101100100
00111100010001111001001010011110
10111110001011111100010110100011
10111110100110100010110010111000
10111110010111000111010001100001
10111101011001110100110001011000
00111101101001110001011100010110
00111100000111000000010000100111
00111011101000010111101101100000
00111101000000000110000100101010
00111100011010110000111001011000
00111101001010100000100101100100
00111011111101000011001110110110
00111101101000111011000111110010
10111101100111101110101101101111
10111101111100010001100100001001
00111101110000010111100100110111
00111110001000011111101111010000
00111101100000110001010001001110
00111110010011100100110100011010
00111110010111000011011010011101
00111110010111000011101111011001
00111110011011000101100000111010
00111101101110000100100101110101
00111100110000000110111000111110
00111101000110111111010000010010
00111101100011011111001011111011
10111100001110000000111100110001
10111101101110011111000000000011
10111110000000001111100010100101
10111101100111101010100110101101
10111110001011110011110011111010
10111110011001000011000111111010
10111110001110000100100010101010
10111100111010101100110100001101
00111110000101000110000010110000
00111110000000101101110111000110
10111101001001010010110101000011
00111100011000011011011111011000
10111101101010101110100010111001
00111101101100011101100100010101
10111101010010100110001010111000
00111010100100110001001110111000
10111101001101010011111000101010
00111101110001010110011001111110
10111101000011100011111001001111
00111101011010100011000111110110
00111110000000100001011010001101
00111110001100110110101010110110
00111101111110101100110111101000
00111110000010111101010010110010
00111110000110101110110011000001
10111100100100110000011011000111
00111101000010100111101101001101
10111101000110101100111001100000
10111011100010000111010010010011
10111100001010100011001011001101
10111100010111101010111111111111
10111101000010011010011010010100
10111101101110000100011110000110
10111101110100100100111110101100
10111110011110101100111111011011
10111101001011111001001001001000
00111101110010110000011110101101
10111101101010001001000111011111
00111100111010111011000011000000
00111101011111011001111001110101
10111100110101100111011110010100
00111011111100010010011110101010
00111100000010101011110010100110
00111101001101110111000000100110
10111100110001011001100110001000
10111101100001101011101111100000
10111101101000011011111011010001
10111101111010010101110000110001
10111101000100111111111010001100
10111101000100100101001111110011
10111101110001000111010110000010
10111100101000000000101100001001
10111100010010000110011000011111
00111101101000110111110010010110
00111110001111000001100000111000
00111101001001110000010000001011
00111101101010001011101110110111
00111101110110001010010100001101
10111011100111000011111000011001
00111101000111010100001010010111
00111101111010111010001011001010
00111100010010110111011001010100
10111110001100001110011100100011
00111101010011100100110111100101
10111101100001100001100011010011
10111101001001001101100010110000
00111101011101110101111010101011
00111110000010110011110100111000
00111101000110011100011100001100
10111110000110110101001100000010
10111110011100000011001111100000
10111101010100000001010110111001
10111101000000101000000011110000
10111101010111101011010100100101
10111101011100001001000101101110
10111110000001100110010110000001
10111100110010101001110011101000
10111101101100001100111100000001
10111010001011011001011011111100
00111101010101101011100010011110
10111100101100011001000111100010
00111101000011000010000100010010
00111110010000110111010001001101
00111110000000111011100101110101
00111110010010111010011110100110
00111101010000010000010110010111
00111101101101101111111101010011
10111011100001101100110111001000
00111011100011000101010110011101
00111101100010011111101100011010
00111100011100111110010110111011
10111101010001100001110101001101
10111101101110111100100011000110
10111110000110101101111011100101
10111101100111001101110110001100
00111101110011010011010010101110
10111100011101110011110110111101
00111101010000010011011001000100
10111101101111111001111100000101
10111101011001111010100001000101
10111101001000101100100101001100
00111100010011101110111010011111
00111100100011110000110001010000
10111101101110100011101110000011
10111101100010111010000100101101
10111101100000000101000101101110
00111101011110000000011001000010
10111010110011100001000100111110
00111101100011000111100111111011
00111101110010011101111110010011
00111110000010110010011100101001
00111110000111100101111010110010
00111101101010001111100111010101
00111101110000011101011100111100
00111110010110011011001011000010
00111101110100000101100010011011
00111110001100110100100100000101
00111110000001100111101000101110
10111100001001000101010101110010
10111110000101001111010110010001
10111110000000100101110011000110
00111100011010100011111000111111
00111100100000011010001100111010
00111101101011001111010010101011
00111101010100010011000000110101
00111110001001111110010011100101
10111101011010001101011101011100
10111110000000011001101110000010
10111101001110001101101111010000
10111110000010001110111000010000
10111101101111010000100111101101
10111101111001000011011110110100
00111100101011011000001100010011
10111101000110001000101010001000
00111101101111100001001011001010
00111101001111111110011110001010
10111100110000011000100001001001
00111101100110100000011110010000
10111101010111001111000010010101
10111100001010111100000010011100
00111101011000110101101000111001
00111101100100001001001111100001
00111110011100010101101000000010
00111101111110010100111100011111
00111110000011011000001100010010
00111101110000110100000111000101
00111101100000100001110011010110
10111110000111110011011000111010
10111101100110101110001110011011
10111100100001011111110110100010
00111100110011110100011101010110
10111100010100000000100010001100
00111110011111001110101011110100
00111110010001110101010100101011
10111101011101000101110000011011
10111110001000010110110011000001
10111101001000101001111011100011
10111101010111011001100100111011
10111110000101000100110011111100
00111100001101101001000001110001
00111000111100101111010001110010
00111101100101110000011001000111
10111011001011101111100100011111
00111100110000001111010100110000
00111101110000001001110111111110
10111100111110100001110110001000
10111101100001101110000110111001
10111100111111110101011110010011
10111101011001101011001001100111
00111101011100011001111110000001
00111110001111011000100100101010
00111101101011100100000010011001
00111110100011011000011001001111
00111110001010001100110110011011
00111101100111010110101100010111
10111110001111111000100101101100
10111100101010101010000110011111
10111101011110101110000001101110
10111100000000000010101010001110
10111101111111001000101010101011
00111101111111010110110001110000
00111011110101111111111111100111
10111110001101111100010000110101
10111110101010110010001010100000
10111110010011111000010111000101
00111101101101001110001101001101
00111001101011000100111000010011
10111011110100001010100101101101
00111101010011111000011100111000
00111101000101000100101010011000
00111100111010110010011011011101
00111101001000011111011100010011
00111011000011101000111001001101
10111101111010010100100000010011
10111110000010001000011101100100
10111100010111111010111110100011
10111101001000000010001011111000
00111101011010101011101110010010
00111110001001100110100110101111
00111101111110111101000100000111
00111110000101100000011010101001
00111101100000111001111000001110
00111101110101001100111000101000
10111101011101111100001010110100
00111011110100110001101001000101
00111010100110010011111111101001
10111101101000111011111010101010
10111100110011110101111110100110
00111110010001111110111111011110
10111101100001111000001000111110
10111110000011010000011111111101
10111110000100001101010101001111
10111100110111000010111100111011
10111101110000110110111010010000
10111101011101000111100010000101
00111101001110010001100001111100
00111101100011111110011011110111
10111101111101100001010010110010
10111101011011100011000001101000
00111101101010001011111101010111
00111101100110100010100110000110
00111011100101011111100110000101
10111101110000000110101110111111
00111100100011001000001101110001
00111101011010100001101010000111
00111101110101110100000011110110
00111101101001101100011000100011
00111101010100101000100101101000
00111101000110111010100000100111
00111101100110110001110000011100
00111101100100011101010010101110
10111110010001101000110000000010
10111101101110101010001110010110
10111101100010111100010100000000
10111011000110101110111111110100
10111010110001011100000001101111
00111101010111000100000111001100
10111101001001001011110001111011
10111101001000001100110101011100
10111101011100000010010101110001
10111101101111100010100100100011
10111101010111001101001010011111
10111101100101100110111100011101
10111011011001111111011010100001
10111101001110100100110100011100
10111101110101101111000001000111
10111101100100110000010110000110
00111100110101111000011101011111
10111101010011111101010111010110
10111101000100011110011111011101
10111101100111001100100101100000
00111101100100010100011100101110
00111110001100010100110100011101
00111101111011001011000111000100
00111101010011110000111100011111
00111101100001111001010000000100
00111101111000000101001000111111
10111101100101110101011011111011
00111100000011111110101110001001
10111110100010111111110000100101
10111101110100110011011100100010
10111101000000101001101100100001
10111101101011100110100001011010
00111101011011100010011011010101
10111101000110111010010100110111
10111101100010001101101000100001
00111100101001010001101011111010
10111100011110011000001101001000
00111101010100000001001110000100
00111010001011101011011110011100
10111101001001111000010000010001
10111100000110111101011101111011
10111100100000000111010011100110
10111101110000000101111010110100
10111101001101111111101000111000
10111011110111011001110011110010
10111101100100010001101000001001
00111100100010011110100011010100
10111110010011110010011100100101
10111101010000110110101011010111
00111110000010011001001100011100
00111101100100011111001011001111
00111101101110010000110001100111
00111110000101110011011110101001
00111101110101110010111011111011
10111100100111010000100110101111
10111100110101001101111001001010
10111110100011011101110000110010
10111110010110110100110111010000
10111101011001001001101010101100
10111101101001100100000111001110
00111101111110110010000101110111
10111101000110110100100011101101
10111110100011100011011110010011
00111101000011110000110010001000
00111101101110110110001110111100
10111010010001100010010011110111
00111101101100000001101101011100
10111101111010110110000010110100
10111101000110110111110000111111
10111110000000111110011101010010
10111110001100001000000000110100
10111100010011110000100001001000
10111101101110001011010100100011
10111101011000110111100000110101
00111101011010101111000111110000
10111110000000010011011101101011
10111101110000100011110100000001
00111100010000001110100101000011
10111101100000101000101011101111
00111101001001101001000001111001
00111100110000001111001000011110
00111101110111011101110010010011
00111101111010001000001101000100
00111110000010011101110010100110
10111110001001101111101001011000
10111101100000010100001110011110
00111100101010011110100100110101
00111100001001011010101001001010
00111101011111010001101101111111
00111101111101110101010001100101
10111110000001001100001011000100
00111100110100111001001100101101
00111101100100011010010001011101
10111100110100111011001001001010
00111101100001011111110101011111
00111101100101101101011101000100
00111011001100001101000110110110
10111110000011011010101100111010
10111110001111110011011001111100
10111101010011101100101011111101
10111110010001010001110101101001
10111101111111001100011100011001
10111101010100111000101101101010
00111101110101001010110101001000
10111100111011110010100101100000
10111101111010000001011011000011
10111101100100100011110100111110
00111100110011010110000010101010
10111101111010011110100000100011
00111101101011110100101110101000
00111101101011001011010101011001
00111101101010001101001001000011
10111101110100000111000111001101
10111110010111010111011010011010
10111101100000011100110011110001
00111101100110101101101011100111
00111110000100011011111110100001
00111101001101000101011011110011
00111100101011011111001101110110
00111101101010001000010000000110
00111101101001111111111100001010
10111101001011011000100111000010
00111110000101000010100110010110
10111010100100011000011111101011
00111101011010111001110100100110
10111101100100000110001100000110
10111110000011000110001100110001
10111101011100111001101011000001
10111110001011111101010101010010
10111101001110011001101000110111
10111011010100100111001100110111
00111101101011101100011111000101
00111101111101000111011111111100
10111101111111010011101111110011
10111101010011011001001100000111
10111101101001011101100110100010
10111110010001001111100001001111
10111011101001100001011001111110
10111100111110110000100000111101
00111101010001100011000011100111
10111110010000000100111111111101
10111110000000001110101110000000
10111101001001011101100011000110
00111110000100100001001100110101
00111101001001001111110111101000
00111110001001010000011010010110
10111101010111011011011010010000
10111101110011011101000001000111
00111100111000011111001011111111
00111101110110111101001100001101
00111101000111011110001111111010
00111100100010111110001101001101
10111100110000000011111000000111
00111100110100001011001010000110
10111101101010100110100010010111
10111110001001111110011001100111
10111110010100101100111111000001
10111110000001100000010011000101
00111101100100011110101011000001
00111101010110110100100001011001
10111100100010111110110110000011
10111101000010000010101110100100
10111110000000010101000101010100
10111110010000111110000011011110
10111101110001111101000110001010
10111100100100101001001110010100
00111101001011010111001110110100
00111001000101001101101010001010
10111101111101011011001111000000
10111101111111100011011001001100
10111110010001101110011001110010
10111101000010011010110010010110
00111110000010010110100000000100
00111101100110111010000111100111
10111100110111100101010011111110
10111101101101001110011001010010
10111100011000111001000100011110
00111101100011000001001000110100
00111101100011010110110110111000
00111101111000010110010011011110
00111101100000110101100011001001
00111101100011001000011000011001
10111100110110011010011010011101
10111101100001000001110101000000
00111100001001100011101111001110
10111101011000110110110011000100
00111101100110110111100111001011
10111011110000110000000000111100
10111100100011101011001010111000
10111110000100000110001000101000
10111110001010100001010101101111
10111110001011101101110100110010
10111101011111100001011110000100
10111101101101100010110100111110
00111101000111101000001100000111
00111101000110000100110000110001
10111101110111010101011110100011
10111100111011110010011101100101
10111110000011111111111001111111
10111101100011110000000111010001
00111110000101010010100000111011
10111101101000111110100100111000
10111011100110111100100110110010
10111011000001101001011001101101
00111010111100000001001101000100
10111101000011110001111110111010
00111101101111110010011111001100
00111101100100111001001100101010
00111100101110010101100110000010
00111100101011110110010011111101
10111100111100011000000000011100
10111100110010110001000110001111
00111011100011111010111110111000
10111101101011110010010100010101
10111100000101100111001101010010
10111101010110001000111000001010
10111100111000101010001000101010
10111101100010110010000000111010
10111110011110011000011110100100
10111110010110100000101011010111
10111110100000010111001001000010
10111110000110011001100011111111
10111101110001001111111000110111
10111101011110101111111000011010
10111110001110011110010100100110
10111101110010010100010000111000
00111101000011011000000101101111
10111101100001000001100001101000
00111100111010011110011111110000
10111101111011100111111000000110
10111101111110101100110111101100
10111101111011101101101100101011
10111101000010001111101111100100
00111100110011010111101100000011
00111101000111010111100110000011
00111100111000101011010101001100
10111100100100001100110111010110
00111101001000011111001000101111
00111101110100111011101110110000
10111100011001100000001110001100
00111101100000001100000000100001
10111101110110001110000100000001
10111101011101001100001110001100
10111101101000001101001000110000
10111100110110010100100111001001
10111110010101001001011110111001
10111110001011100011001001010110
10111110101010000011000100011001
10111110110001101110111010101101
10111101010010001011000001101100
10111110010100111100011001001011
10111110100000111011101000010001
10111101101111110101101101000001
00111101101010101011111011101101
00111100111010010110001001010011
00111011010000000000110011101101
10111101000101001010100110011100
10111100011101111100000000001000
00111100111000001000100100100010
10111110000000000110000010100010
00111011100001011010100110111111
10111011100101011111111000110010
00111110000000011111011000000001
10111100010011011001101011110000
00111110000010001110101001100111
00111101111111111111100001111000
00111100100111100100001010011111
00111101100111101100110111101111
00111101101100101010000011010011
00111101101000001000100101110011
10111010111111111111011111011101
10111100101001010001011110011001
10111100101110100111000000000111
10111101100011001110101010110011
10111110001101011001001111100010
10111110011100111011110110111101
10111110100011000000111100011001
10111110001001101110011010100001
10111110001001101110111100011011
10111110010010001100011100110011
10111011011111001011000111011001
10111101101001011000001111000110
00111101011110100110011011010010
00111011010111111110010111000000
10111100111001110110000101101000
00111110000111000111101001110101
10111100100100101110000000010011
10111101001100110100001011010011
10111101011101110000011001111100
00111101000010001100111010010110
00111100000000100110110110011010
00111110000001000100101111111001
00111100000000011000010100101011
00111101110010011101001110101111
00111110000010100110001011101110
00111101101011000110111000011001
00111101101110001101001000111010
10111011011110001010111000111001
10111100000111101111100111010011
10111101001000101011011011001001
00111101001010111011001001001011
10111101010111111000001011001001
10111101110111111001001011101000
10111110110100101000110011111010
10111110100111100000111011011001
10111110101001011001010111110011
10111110011010011010111110001110
10111101000010010011110100100101
10111011111100010101100101111110
10111101001000100111000100111100
10111100110011110011010000101100
00111101000111111101110111011000
10111100100100111000100100110100
00111101101110111001011100001101
00111101100011110110000011101010
00111110011001000011101000110110
00111110010000001111000101101101
00111110000001001011110110011000
00111110000101110000000000010111
10111100110101010110000100100010
10111101110101100111111010101011
10111010101111101010000111000010
10111101000011011011100110101000
00111100100111001100001100110111
00111101000100101100111010110100
10111101100111011011101001100110
10111101001111000110110010001001
00111100000100011000011101011000
10111101110101010001011100100101
10111101100001110100011010101010
10111110011101001110110010110110
10111110011101010101100111001001
10111110101010001000001111011101
10111110010101011010111000101011
10111101101100100000110111111000
10111110000111001010111011101011
00111101000010101110001101010001
10111100010100110111100101110101
10111101001100100110101100101111
10111101000001100100100101111111
10111100111100100011010000111010
00111101000111011101001010010001
10111101101010011001011111101001
10111101001111000100101001010010
00111110010001101110011101101101
00111110010101000000100000100111
00111110010111111000001101001111
00111101111000101111101110100010
00111110001000111001110101010001
00111110000111001001100110110101
00111110000000010011010110010111
00111101010010001111110000101001
10111100110101000100100010100000
10111110000101011101001101011111
10111110000000001000001110011010
10111101101011010100100001110010
10111100011011101110011111000000
10111101010101101111110111011101
10111101100011100010010010000000
10111100100011110001111010000101
10111100101000110011011000100010
10111101111000000000110100001101
10111100100010000111110101010100
10111101010010101010111000111001
10111101101000110100101000011001
00111100001000010111000010010000
00111101100111111110111110010101
00111101001000010111010001010110
00111010110001011111011000000000
10111100011001011010111111101000
00111101101000011001000001010111
00111110000001010010101111101101
00111110000110100000010011000101
00111110011001001000001010101011
00111110011001110010000000010100
00111110010011001110001110000011
00111110011101001110100111010000
00111110010100101101100110000101
00111110100111010001011010000011
00111110010001000100101100001111
00111110001100111010101010100100
00111101110100111001000111110110
00111100001100001100000101000111
00111100010110001011100111100110
10111101111100110111110001011110
10111101100101000110000010010000
10111100100101111100100010110010
10111101010111000011010101001000
00111101000000111110000100011110
00111101000100100001011001000001
10111101111000111011010000111011
10111101101001100010100100010100
00111101011100001010001000111010
00111101100010110000000010100101
00111101101001010101100011100011
10111101100001110011011111010100
10111100010001001100010111111000
10111101000010010111110101110010
00111011101111110001000001100000
00111010011101110100110011100100
10111101010001001110000011101010
00111110000000100000111000110001
00111101001011010100100110010010
00111101111110000000010101101000
00111101011010110011011000110011
00111101111111000001111100010110
00111101101100100101101110101011
00111110000011111100000011000110
10111011101001101100010011100111
00111110000111101000111110010111
00111110001100111010111101000000
00111011111110010011001011110111
10111101110100001111000011010011
10111100101000011101000010000100
00111101001110111101111100000000
00111101101001111001110110000110
00111100000000011000101011001100
00111100011100011001001010000101
00111101000010001001110000111000
10111101101001100001100011010100
10111100101011010100011110001000
10111011110001010110001101010000
10111101001000001101000010011101
