00111101000110110000110101101110
00111101000110101100101110100110
10111101011110100001001010101100
10111101000000111010001011010011
10111101011111111100000101111010
10111101000111010011010101000101
00111100101011000000000000110100
10111101100101111100100010011101
10111100110000000111100101010110
00111011101110010000010001000000
00111101011101010110100111001110
00111101100100000100000001111011
10111101001111001100100101011111
00111011010100001011001110010111
10111100111100111001011000011011
10111101111011010001011010110001
00111101000111110111101111001100
10111101010100111000000000101000
10111101001110100001001001111110
10111100100101110101100111010000
00111101100001010101100010110101
10111100100111100110011100011000
10111010100111010111101101000000
00111100100111000101100100000100
00111101010100000100110110110110
00111101101001010010111110001011
10111101000101010100110110111000
00111101000101101100100110111000
00111100110111110101000100101100
10111100011011001011111001010000
10111100111010011100001010000010
00111100000100110111100001011000
00111101011101010101110110001110
10111101100110011000100110010111
10111101101001011100010001011000
10111101100001011010001111010110
10111110000010001001001101101101
10111101101010011000111111011110
10111101010011100011101101001101
10111110000010110011001010000111
10111101111111000011001001110011
10111101111001001000000011001111
10111110010110010100111010010101
00111101101111000101000111010100
00111101001100000010100101110110
10111110000011111011010111101011
10111101000110011100010100101010
10111110001100001111111110111010
10111011110010101110100101110000
10111110001010110110100000010111
10111101100110110001010000101010
10111101011100101011111001011100
10111101110111010110100001111100
00111101000010000111011110100100
00111100010100000100000101000000
00111101100110111010110110101111
10111101011011101001011111101110
00111101100001101001110001110011
00111100010101010011010000111000
00111101001000011101010110100111
10111100100111100100001010100010
10111101101010010011010101000111
10111101110101011011101010001101
10111110001110110100111010111011
10111110010011000110000011111110
10111101111101011011010011111100
10111110001110111001000110100011
10111101101100001010011101001101
00111100110110001001100110001100
10111101001001000001100110111111
00111100100101000011111101001101
00111100111101001000000010001001
00111110000011100111000000110100
00111101100001101111111011001001
00111101111100111000101100111110
00111101101001100101000010010100
00111101101011010000000111011010
00111110000100101110000110011111
10111101011100110001010000101001
00111011111110001100010111111110
10111101011000111011110101000111
10111100111010100111110110011110
10111101101001000111100100100111
10111100011111010100100110011000
10111100011111111011110001110000
00111101001010000101111100100000
10111101000010011111100001110011
10111101001100100101101110000100
10111101011101101110110100100101
10111100111001000000001010100000
00111101111010001000001011010101
00111101010111011010001000001110
10111100110110010110010010101011
00111101001000001100010110011001
10111101111011100111010100001100
10111110000110111000011000011001
10111101010111000100101101110111
10111101110111011000010000100111
10111100111111100010110001011000
10111100110010011001001100100011
00111110010011001100110011000101
00111110010101110010111101000110
00111110001010011000111100111111
00111101110010111001111100101100
00111110010110100000100101001101
00111110011111111101110100111010
00111101110001010011111011100101
00111101011010110011000001011100
00111101100111010111001101101110
10111011111001000011000010111110
10111101110100111011100011101111
10111110001010101000100100111110
10111101001101101101011111111010
00111101100010100011001101001001
10111100100101101101001010001001
00111101111001011110101001111011
00111101000101001101010101001001
00111101110000110000101010001111
00111110010011100100000010110110
00111100100011100010101101001011
00111000110000111111101101111000
00111101101111100000000001010010
10111010011101101000010010011100
00111101010001011100111001000010
10111101110101110010100111000001
00111100101011001100110011100000
00111100111011111111010010100010
10111100001100011101100101111101
00111101100011100111101101010101
00111101011011110100111110101101
10111011010011011010010011011010
00111101011000001100001010101010
00111101100010111000011111110110
00111100000101000100110011100011
00111110001000010000011100101001
00111101011110110011111010010000
00111100111001110110001101000111
00111110001110001111100011001001
00111100010100111110000011011001
10111110000010110011011101001010
10111100100111001000000010011000
10111011111101111111110101100000
10111100101011100001100000100100
10111011010100110000001001100100
00111101111111011100011100101110
00111101010011111011100001100110
00111100010101000010011111001000
00111101100110100110101110111100
00111101100101111101110011000110
10111101110101100000100100100101
10111101001100111111001001000101
10111101000011100111010101111111
10111101011100110111111111010110
00111101001010001001100001111010
10111101110011000110011100011100
10111101101000110110000111011101
00111101111100001001110111101000
00111101110110001000101101011001
00111101100110101100001100100001
00111100110000101100010010000010
00111110001000010110111110100001
00111110000011010110000011110110
00111101100000110111110101111011
00111110000000001110101011101011
00111110001111011101010111111000
00111110011000110000101010100100
00111101111100101110100110111011
10111101100100110001111110001010
00111101100001111110011101011100
10111011110100111010101111010000
00111101010110010001100111101001
10111100111111000001011110000000
00111110000011010010110110001000
00111100110111100101100100010011
00111101001110101001011001010011
00111101001101110000001110101101
00111101101000110111110100000010
00111101100010110110101010001000
00111101011111010101010111110100
10111101011001101010110111011011
10111101000001110100011110011010
10111101011001000101100100111011
10111011111111001011110011011100
00111101100101010111000000011001
00111101101001100010000110000100
00111100001000100101011000000011
10111100001100010100001011001111
00111100111101001010101100111101
00111101001000101011100010010101
00111101100000110010000001011110
00111101110011111110011000000111
10111101010110110100000001011111
00111101100011010001000001011010
00111101110000010110101010110100
10111101001110100001010011100011
10111110000001011011010111110000
00111101000000100111000110110110
10111100001100101101110010101010
00111101001101111001001001110101
10111101100111011010011110100010
00111011101101011010000111111010
00111110001010111111100111101100
00111110000000011111001111000001
00111100101110100001110111011111
00111000110111111000000000011100
00111101100100101001001010110001
10111101100011010111110010110011
00111101000111001100101111111101
00111101101000010001011110010100
00111100110011010101010110111110
00111101101010010010100010111101
00111101001001100111000010010011
00111100101111010010001010101110
10111101110101111000001101011101
10111101111100101101010001111110
10111011011101000100101010000010
00111101100011000111001100010000
00111101110111010110001111100011
10111101111100101000000010111010
10111101100100000110110001111110
00111011001111001000111001011010
10111110010111001011100011111101
10111110011111101110011001010100
10111101000101011100111101011100
10111101101001111110110101111111
00111101000010110101100101001000
10111101001010101010001101111001
10111100100000011110101101010110
00111101111000000011001110110001
00111100110100111001011001010111
00111101100000011001110111100001
10111011100110001101001000011100
00111100110000101101100010110110
10111101110010000010111011000111
10111101011011101010010000001110
10111101101100010000010011100010
00111101001000101010111010001111
10111100101001101100111010001111
00111100100000010110011110100000
10111110000010110111010101100101
10111101100101111111001010000101
10111110000101100110010100100101
10111101100110001100010111011000
10111101000111110100101110011011
00111101110001111111110100000011
10111100001100000001001011011011
00111101000000001010110110011101
00111101010111000100010010101111
10111101100100110101011100011000
10111110110011110001010001111010
10111110001101101101101000101011
10111101010010011000101101111010
00111101001111011001010101010111
00111100101101010001101110010010
10111100111010101000101001111010
10111101100000101110101110100111
00111101100100111100101011001110
00111101001000101001101001100100
10111101000010111100101111001001
10111011111100011101011011001110
10111101000001110001110110001000
00111101100001011101011010011110
10111100111000100110111110111101
00111101011101011011101101000000
10111100010110001110100001010100
00111101101000001000001110101100
00111010010100001011010011100001
10111101110101101101001000111000
10111100000000111001110011011010
10111100100001011111011111010100
10111101100011111101111100100000
10111100100101001100101011100111
10111101011010101010000001110010
10111101011001101000001111101100
10111100011110001101110011100011
00111101010111011101101101100110
10111101100101010101110000011001
10111110110011010011001000101111
10111110011111110100111011000011
10111101100111010001101010010010
10111100101111110100001010010100
00111011011111111000000001000010
10111101101110101000101101110111
10111110010110110111000101001100
00111101000001000010101110001011
10111101001001000111111000110010
10111101111110100100011110111001
10111101010111101110010110001101
10111101001011011001111111011111
10111101100100111101101100111110
10111101011001100100011011001111
10111100000000001001010011101100
00111100111000011111110010100101
10111101100011000100001010101001
10111101001011101101010000111011
10111011101010101011110111000011
10111100110010011010000111001000
10111101001001111001011000011000
00111101111001101101101000100011
00111110000100010100001010110011
00111110000010111000100100000111
10111101000010000010110101000001
10111110001101100111111111110100
10111110000010010001001010001001
10111110000000110001000110100110
10111110100001010101001001000110
10111110011111010111100101110010
10111110011000100010111000001001
00111100001111110010111101100001
10111101101011000001110000010100
10111101111000101100011111111001
10111101101101001001001010110010
10111101100011111001100111011111
10111100100110110111001001111001
00111101000000011101000110101010
10111010111001010010111111010010
00111101000011100000101010101100
00111101010010110000111110110110
10111101110011100111000110111001
10111100111010101110010011100110
10111100111010011011111011010100
10111101001001110110001100001100
00111101000000100111011001110010
10111100000110100101110011100001
10111011101100100000011111011111
00111101100110010111101110010110
00111101111011101101000001100111
00111101110101010000101001110101
00111101010100010110000000100000
00111101001111100000100100110101
10111110000001101010111101101010
10111110011100110010100110100111
10111101101100101011100000001011
10111110011100101011101000011001
10111110100100001100110010111111
10111101100010110101000010111000
10111110001100010000101111101001
10111101100011110001110101110101
10111110000011001010011001111101
10111110001111011001010010011100
10111110001101110100010100001100
10111101110000111110111001001100
10111101000111110011000001110011
10111101000100000101110010000010
10111101101111001100001011111000
10111100100011011000100010001100
10111101011010101001101001001111
00111100110011100011000010100011
00111101011001101001011101000101
00111101110000111111010111011111
00111110001001101100010010101101
00111110011000000110110001101100
00111101100011110000110000110100
00111101101011101011001010001000
00111110001000000111101010110111
00111101110101010100110000100001
00111101101010110001111100001001
10111101011110110110111111011011
10111101111101100111000000001000
10111110001010111110100010011010
10111100111110111100000000000011
10111110001011100000000001001001
10111110011011011000111000011000
10111110001100011010111000011100
10111101001000010011101001010001
00111110000000011100111010000001
10111101100011010101000110011100
10111110000100010011111100010110
10111101101111111010101101111011
10111101110100011100101101111001
10111101100011101111010111001010
10111101100100011000111110001001
10111101100101010100101001001111
10111100111001001001101010111111
10111101011001001011111110001001
10111101001110101101101001110011
00111101010101001110111110100110
00111101100100101111101011111111
00111101110010101011011110010110
00111110000111010001101001010001
00111110001010000101111011011001
00111110000111011111100000010101
00111101011001101000011111111001
00111100101010110010001110010000
00111100011001010101010010110111
00111011101110111000000000010101
10111101111110110110110000001101
10111101110111011100011000111010
10111101000101001110010110100100
10111101100101010001001101011101
10111101000111001101111010101101
10111110001100101111000100111100
10111101100111010000001001010001
10111101110111101011100010100100
10111101100001101111000111001011
10111110000111111000010000101000
10111110010010001100101001110010
10111101101000011111110001011100
00111100000011001111010001011010
00111101000011010111000110100111
00111100010110100100100000011000
00111101100010101110100011111010
10111101111100100101010111110100
10111110001010110000100011010010
10111101110100101010100111011101
10111011010111100100101111111000
00111101100011110111010011100110
00111110000010110100101001010001
00111110000111110001011110001001
00111110010000101010100000011011
00111101101111100000100000001111
10111101010110011010000110101100
10111011000011011110000000111110
00111100000000100110111100111000
00111011110010101001100011101100
10111110001101100111110110101100
10111101101111100010100010000100
10111100100100100100000101000001
00111101011010101111001000100101
10111110001011010101100001011101
10111101110001010111010010011001
10111101100010100101000110111010
00111101100011011010001101111111
00111011000101101000101101101111
10111101111010001111001010100101
00111101000000111110101000101100
10111101010110001001011101111010
00111101111001001001101010100010
10111101011101010011000111001010
00111101001011001000100100110001
10111101110101101100011011110010
10111101100001101000110111100000
10111101101000110101100111011100
10111101000101101111101100110101
00111100001101101011111111110010
00111110010101110011110101001001
00111101111011101100110101001011
00111110001010001000011100001000
10111101101000011111001010011010
10111100110100101010011100000100
00111101000000011101001010011010
10111010010101110111000100111001
00111101011000111111100110100010
10111100001100011000000010010110
10111100011110110110111110011110
10111101001000101101100000011001
00111101100101111000110011000011
00111110000001010101011011001010
10111101001011001010010100101011
10111011111100010000011101100111
00111100100111010110000000010111
00111110010000000111001000101000
00111100000010111110111000010101
00111101001111111110111111110101
10111011101001011010100110011011
00111101100110101001000011101100
00111101110010010111001110000100
00111110000001000010011110010100
00111011101101001001101111000101
10111100101001000000101100101010
10111101110100110010101111011101
10111110000010100110010100000100
00111100000100100010100100111001
00111011111000111111111011100000
00111100010101111001000101111000
00111101001010101101010111101000
00111101001010011111010110001000
00111110010101100000101001010010
00111110000011001101100010001010
00111110000010011000011111000110
00111100110111101000110100001111
10111101001100110010000011000010
00111101000101111100100010010110
00111101110010001100011001110000
00111110000011101000011100101110
10111110000000101101100011100100
10111101100110111000001111100111
10111011001010001010110101100000
00111110001000011110100011001101
00111101100100000010100001001001
00111101001111001010101100001100
00111101001101011100110010110101
00111101100010101100000110101001
00111101110110000011000001100000
00111110000010011010110110011000
00111100101111011011110011100110
00111101001100000100101110000010
10111101101001001010111111000001
10111110011110000110110100101110
10111110010011110100000101011100
10111101101010001011000110010110
10111101110110100100110001000100
10111011000001110100100110001010
10111101011100000101000001010111
00111101111000010100001000100000
00111101110111100101100010111010
00111110011001101110011010101011
00111101101010101000001100000011
10111100100011100111111011110110
10111101000011110101001110110110
00111101101101010011001000010010
00111100100000111001100111111100
10111110010110010000000111000001
10111101111011010001001110011000
10111110001000110110110000001000
00111101101100000111001011100111
00111100111110110011100000101101
00111101100101100011000011100100
00111110100010111111010111100001
00111101111001110100011110100101
00111101110001101111111101100001
00111101101001110101110101110101
00111101100000010011001011100100
10111100101001111011011100000111
10111101011101000011001110100111
10111101100011111101101100111101
10111110001111010100110010100010
10111110100100010110001011001001
10111101001010000100110111100010
10111101101001001111100001001010
00111101011001001011110100110000
00111110000010100000110110011001
00111101100111110011011100010100
00111101111100011110111011101101
00111110010100000010110010100110
00111110001001110110001011001010
00111101100011011011110101101100
00111100100100010100110100010111
10111001101010100101011110001000
10111110001110001011101100111010
10111110011110111000001100100101
10111110010010001101000111001001
00111101101100011000001101101110
10111100011100011100001101111101
10111100110101100110001100101110
10111101101101110000101111000101
00111101111101001111010011000011
00111110000100001110011111000000
00111110001010101101101110101001
00111110001010011110010110010101
00111101110111000000001000000010
00111101100111110000111101010010
00111101011010100110111101100110
10111101100101110111100100100111
10111110001001110111100101100010
10111110000010011010010010111111
10111110000011101001011100011110
10111110000000011001001111111000
00111101000110110001011101111011
00111110000011101111011110101111
00111110001011010100001110101001
00111110001111110001011111010100
00111110001001010010010101100100
00111100101001011010110000100000
00111101001110110101011101011001
10111100001011011010100110010110
10111101100100101101000011010111
10111110001000011101111000100000
10111101101000001000001010111110
10111110001011011111001101011000
00111101000011001011101111010110
00111100000111000001000110000000
00111101001001010100011111111011
10111110000111100011011101011011
00111110000110101001000010100000
00111110001001110110111101010101
00111101000001011011001100100001
00111110001010101110100101000000
00111101101011001000011100000110
00111101100001100110111000000111
00111011001010000101101000000011
10111100101011110101001000000101
10111101001100010011111000010000
10111110010001111100101011111111
10111101001011010111100111011111
00111101100100110110010100010011
10111100101000110101001001110100
00111101111011100001101001110110
00111011111110000110101110110010
00111110011001100011111101111101
00111100101101001101101000001000
00111110011000010010111010111000
00111110001010011010111011100110
00111101010111111010100110001110
10111100000001001010001010111011
10111101100111110111001111001100
10111101010000001001111001011111
10111101100011011100101011011111
10111011100101110010001000010000
10111100111000110110111110110010
10111101101111101110101010100111
00111101001000000011001101001111
10111100110010011110110000100001
00111100010101001011001010110111
10111101100000001101010010101011
00111101101001000001001011100100
00111101001111011000011101001000
10111100111011111010111000010110
10111101100110000101001111100111
10111100110001001100110010111100
10111101100011001010011101100101
00111011001001011001110010001100
10111100011000101110011000001000
10111101010000001101110100101000
00111101011100010111110011010001
10111100011100111010111100110110
00111100101001001000001111001101
00111110001110001011110011011110
00111110001111001111100001011101
00111110001000000001100011111111
00111110001000011111001110110110
10111100100000110000010000010111
10111101100101001110011011111101
10111110100101111001101010000100
10111101100010101001100000111101
10111100010001101001110011111011
00111010110011001001001111111110
10111101010001101000000010010101
10111101010011000000111111011111
00111100010100111011001001000100
10111101011011011000110010100000
10111101100100110110001110110101
10111101011010101001000101011111
10111101100000010100110011011011
10111101001100010011011000011000
10111110010101100010001101011111
10111101111111001101000101100101
10111110000001001110001110000010
10111101101011101011010101111101
10111110000001100011110011011001
10111101011011000111011111100000
10111101111011110111011001010111
10111110000000100001001110101010
00111100011111001011101010111110
00111101100111010010001011010101
00111101001111101000011001101011
00111110001101110100100111110111
00111110011111010110001000101001
00111110001000010000100111101110
00111101001111111001111101111100
00111101000011001101000110110001
10111101010011111001011000011111
00111101000000000101111001000010
00111101000000100010110100100101
00111100011100010101011000111110
10111101000010111100101111000101
00111101100000100101010001001011
00111110000001000011111111000110
00111101111011110100001100011100
10111100000101000111110011100111
00111100111010010001000011001000
10111110001101101111111001100100
10111110010110110001100100110101
10111110011001011001000010101101
10111110010001010110110101011001
10111101010001000010101100001010
10111101010011111001110010101010
10111110000001011010010101111000
10111100000010011110111110101110
10111100101110111010110010111010
00111101100000011000111001110111
10111100101010100000001101011111
00111101010111100101001100000000
00111110011100001000110100111111
00111110000101100000011001011000
00111110010101010010011110000110
00111110100010001101101111010110
00111110000100111110000110110111
00111101001100011111001110111101
10111101100011101101000100101011
00111100011100001110111110010101
00111101111110010111001100110101
10111101001000101010110011110100
10111101000100011000010011101111
00111101100101001111010001110011
00111101011010101011111001101001
00111110010101100010110001111101
00111101001001011000110111110101
00111011100100011000010010100010
10111101010010000010001000001000
10111101110110001011011111101001
10111101011001001110110000010110
10111110000001000110110000101100
10111101000011100010000100001000
10111100100101011100100111000110
10111101011111001011101011001000
10111101110101011001100111011010
00111100111001101100101100110010
10111110000000100010110001111010
00111100101001001111111100001011
00111110000100001110101100111001
00111101111101101001100001010001
00111101111011000110011011000000
00111110001100101001110100010010
00111101110111011000011010010000
00111101000110011110010110011010
00111100111010000101011000100111
10111110010011010011011111001111
10111101000110011010001100111011
10111110000101110010110011100010
10111100100011100110111111101100
00111100101101100010110010011000
10111101001000011010111011101011
00111101010001111110010111100011
10111101100101101101001010111100
10111101010010101011110011100110
10111101100001110011011100101001
10111101101011101101110010001001
10111101111010010101101110011111
00111101110010010111111101111100
00111110001101011011111111100010
00111110011011011111001100100110
00111100111101100000010010000111
00111101101100000010110111110110
00111110001011000001111010100011
00111101001001001001001011100110
00111101011000110101001100101000
00111101110110000011110010101111
10111100110000101011010101101111
00111110000010001110011110001001
00111001101011111011011000100000
00111101100100000001001001111001
00111011101111010001110001100010
10111101111110011010110101010101
10111110001010001000011101010100
10111110000110010110101111101001
10111101101011001100000101110010
10111010111011110101001110010111
00111101011111101101101101010010
00111010010001100010011000000000
10111101100101100100000101111010
00111101100110000110010110101101
10111100111000101100100011101011
00111100100110100011110000000000
00111011100101000100111000110100
10111101010111110000000000010001
00111101111111111001001111010001
00111100111110000100001010110101
00111101100110010000110110010010
00111110001000110000001110100001
10111101000101001100011000011011
10111101000111001001001100101010
10111110000100001011100111110011
10111101000111000011000010011011
10111100100111010111010011110100
00111101100111101100101010100101
00111110010001000011111010101110
00111110000010010011101111000101
10111110100000111010101000110000
10111110000111011011100101110101
10111101100111010111011000001000
10111110011111111011000110101000
10111100001100000000000100000010
00111101000000110111111011110010
10111101100010111010101010110010
00111101001010000001111101000000
00111101011010011010110101001110
10111011001101100111110100100000
00111101001110010001101001100010
00111101011101011110101101101010
10111101010000011100001111011101
10111101101000110001010001101100
00111100010011010001100001111010
00111101110010110101000001010101
00111101000010110011011000010000
00111101100100001111001000110111
00111100101001101101110100110000
10111101011010100111110111100100
10111011100001100011101110010111
10111101001110000001111010010100
10111101111100101010010011110010
00111100001110110101010100100111
00111100100100011000110110000010
00111101001100101000110110100101
10111101110110010111000011101100
10111101011111110001111101011010
10111110001100001111101111000010
10111101100010010111011110110010
10111101111100001111110110101100
10111110011011110101111011000110
10111101011100100111110001000110
10111100110110110111001100101110
00111101000111100110000000100100
00111101011010100010010011111010
00111100110010011111011100101100
