00111100110001000100011100010010
00111101001101001001001001100110
10111101000111110001101001000101
00111101000111111011101110011010
10111101000101010111010000000110
10111101100001011110001000000101
10111101011000110100010001110010
10111100000111011001010011010000
00111100111110011001011100100000
10111101000110111101101000100010
00111101011011101100010001001110
10111101001010001001110010100000
10111101000101001010101011001111
00111101000001011011000101011010
10111011001000100101111101000000
10111101100000100001100100100010
00111101000100101011111101111010
00111100100110011011000100100100
00111101001000110110001000001110
10111100100100110000110010110100
10111100101111101111000001100110
10111100101110110001101001011000
10111101011110111111111101100010
10111101001101001001110111011110
10111101001101001010011110010000
00111100110000100101010100000100
00111101010110011101101110010110
00111101011011011001011001001110
10111101100000100111001101001100
10111101100101000111000101101110
00111101101001000111111001001001
00111101100101001111111011011001
10111100101111000100100101001100
10111101100010001101000111011011
10111101001111010101111001111001
10111011110011010011111111101011
00111010110100000100101000000100
10111101010110110010011000100101
10111101100111010110101100101001
10111100110000100101100000111110
00111101110100100001110010110011
10111101100111111101100000011011
10111100100011110101111111100101
10111110001111011111111000111100
10111110000001100011010111111001
10111110010001011110100011111011
10111101000010111000000000010011
10111101001100001110001101001011
10111011111010000000100011100101
00111100101000001001000111000010
10111101000001100011100010110010
10111101100010110011010100100101
10111101000101000101000010110111
10111011100110011111110000100000
10111101100110011110000110101000
10111101100011000011011000000001
10111100111010101101001010011000
00111100101111010000100101001000
10111101010001001000101001001010
00111101100000101011011110101111
00111010110000001101111000000000
00111101101010000001101011000101
10111011100001110010111011100101
10111100110010100010011010111101
00111101000000101100101011000101
10111101100011101110101001110011
10111100010010001110110001010110
00111011101000000011011011011010
10111100111101001010011001110000
10111101001110101001011111000011
10111100100001001101100000111010
10111100110100001000101001110110
10111101100110101000111010011000
10111110000111101011010110100010
10111110010100101001110110000000
00111101101011010100010010111010
00111101101100110010101110100010
10111011111000010101010001111100
00111100100111111101110011101100
10111101101100000110100111001100
10111101101010101110110000110000
10111100110101000101011100011100
00111101111110011000110111011100
00111101100101111110100110000011
00111101011001111010001111000110
10111101000001010011110000000111
10111101010110100011110011101111
10111101010001010010110101101110
00111101100100001001011001100000
00111101110011010001110100111110
10111101111110111010110100111010
10111101011101100100111001111011
10111101110111010100010110011111
00111101100000000000010110110101
10111101011011111100101000010100
00111100110000011011001100101000
10111101111100100000011011110111
10111011000001101010001000110011
10111101101000101110101100110001
10111101110001000101110110001100
00111101001010000010011101010100
00111101100001111010100011001011
00111100111011001100110111000100
00111101000010011010000010011111
00111100111111100011011001000101
10111101000110000111011011011101
00111101101010110110111100110011
00111100110100011110000110111010
10111101101110100100100100001110
00111101000101000100001111001100
00111100101010001111111000111011
00111101111000011101110011101111
00111100011100000011101000010000
10111101001101011001100000100011
00111101011110110101111010011000
10111101110110001001100101101011
00111101011110000011001000111100
10111110000111100100111101110100
10111101001000000000101000101011
10111101010101110010111000001010
10111101000000001001010101011011
10111101110110101000010011011110
10111101010101010101110101110111
10111110000010110001010001010101
10111101101000000100100001101111
10111101011111010101101011100101
00111011101101111110101010101111
00111101100010110111000000101010
00111110001001000101110011111111
10111100100100001110000010010110
00111101001011010110001010110110
00111101101100011011110101110011
10111101001101001000111101101000
10111110000010001110010110110010
00111100100110101101100010110001
00111101110101011001111010110110
00111101011000011000000000011001
00111101111110011000010000001010
00111101101100011101110001100000
00111110010111100110000100011101
00111101100000000011001110001101
00111101011010100000101011110010
00111101101000110001011000111001
10111101111111001111100111000001
10111100111011000110101111001100
10111101110111001110111111100000
10111110001100111000001001010111
10111110000100010100111100011000
10111101011010011001010110110010
10111101110011111000001111101011
10111100110101100101101011100111
10111101101011010001110101001101
10111101010101001011011111010010
10111101110000101101011011001101
10111100001111010111101011000101
00111101100100100101000010001001
10111101011010011100011110111101
00111010100010001101011100110001
10111101110000100111010000110101
10111101100010010001101101010011
10111100001101001110011101100000
10111100111101110010111100011010
00111101101110100111011100001110
10111100100110001111000101001011
00111101110000101010100001010100
10111011111000100010011110000111
00111101111101011010011100010001
10111100010011000100101111011011
10111110000000001100111010100111
00111101000101101010010011010110
10111101000010001110100001010111
00111101100000010101110100011010
10111101100101100010011101000100
10111110000011100011010010010111
10111101011100101011100101111100
00111001100111001001111001010000
10111101110111001010101110001001
10111101101011010010110111101011
10111110001001011010111110010100
10111100011110000000111011000111
00111100101100101111010010101010
00111100100110110100001111101100
00111101100101010011010000111100
00111101010110100010010101111101
00111101000010001011001111100100
10111101010101011011111101101011
00111011010010100001101101000110
10111101100110101100011011111100
10111101000011111110010001010101
10111100111111011111001010101001
10111101101010000001001100001011
00111101111111101100101000000100
00111101001111001100011010010001
10111101010011101000111110000000
00111110001110010100001111010011
00111101111000101111110010100010
00111100101100011100111000000110
10111100001111000011000001111011
10111110000111001111101101101101
00111101000001101001100101001110
00111101111101011011110000101101
10111100001001001101110100011100
00111101010011111101100001110111
00111101000111000100111101011000
00111101100010011001010011011011
10111101000111001001001110000001
10111101101000011111100001010111
00111101011011000010111110111111
00111110001010101110011110010001
00111101010100001001101111011010
00111101101100111110110100000101
00111101000001011001011111011111
00111100110111011100100110101001
00111101001101110100011110110110
10111100001000001100101011011001
10111101011101111111001110011000
00111101101011000110000000110001
00111101001001000000100110000011
00111101101000010111101001000101
00111100000111010011011010100001
00111101101010010111111100110101
00111101111001001001101110000010
00111101110110100100111100111100
10111101010001011011011001101001
10111101001111101011111110111101
00111100111011111110100110110011
10111110000100111011000010011001
00111101110110110010001011000110
00111100010001001011010100101011
10111100111000110110000010011010
00111101110100110111101110010110
00111110000000110110000110101110
10111011101001010011011110011111
10111110000001110111101000100001
10111011101100111000010000010000
10111101001100010001110111111001
00111101011010010110110111001000
00111101000011101000110000110000
00111100111000011011101000001110
00111101001101011010101111000001
10111010111111110010011001000100
00111101101110000100011001000011
00111110001000001000101010110111
00111110001000011001110110010110
00111110000011110101001000010001
00111110000101001111111101111001
00111100101100011101011100010011
10111011100110011000111101010111
00111101110001100100101101110101
00111110000011101100011111011100
00111110010101110000000111010100
10111101110101110101000111100110
00111101101010100011011100000101
10111100101010110111000111100100
10111101001001011111011001110110
00111011010110011100001100001110
10111110010000000111010110111101
10111110000010010000000111101011
00111101000001110010110101101011
00111101100100011110101110000110
10111011110001111011100011001110
10111100110101100001010010010001
00111101001001100110110001000101
00111101100101000011000010101001
10111100010001110011101000111011
00111101111001110000001011110100
00111011110101111001010101100011
00111101101001001111101100100010
10111101101110111000111110010001
00111101111011001011100010001011
00111101100000011100110011000011
00111110001101100111001000111010
00111101010000000100011101101110
00111101100101100111101100001101
00111101010001000011001100001001
00111101101000101111110100110010
00111100101110001100110111000101
00111110001010111001001111001000
00111110011111101000011011010101
10111100100001100010001011110000
00111101101101000010011100010110
00111100001101110100111100100100
10111110000110011010111110111001
00111101101100110111110001001010
10111110001100001110010001000001
10111100101101000100100001110000
00111101111000000101001000110110
10111100110101100111011101011011
00111101110111010001101000100111
10111100011111100011110100100101
00111101001101000101100001111001
00111100110101111001011111011111
00111101101011101010110011110010
00111110000101000101110000111100
00111101100101111110011111000011
10111101100000110001101111010111
10111101110011011100010101011010
00111100001100001011011101000110
00111100101001111111101001100010
00111110010000010111000100101011
00111101101010000001000110000010
00111101000100011001100011001010
00111101100000100010101010110001
00111101100011111010100101001100
10111101100101111101010100000001
00111101110001011101111000011111
00111110011101001110100111100011
00111110010101100100110010010111
00111101100111010100011111000011
10111101111010010010110100001000
10111101100111100001011010000010
10111011101010010110010001001100
10111110001111011010010010100111
10111100100110110100110001100101
10111100001000000101111000100111
00111010100000110010110000110111
00111101110001100111011100011110
00111101000000000101101011111111
10111110000000111011110100111101
10111101001001101111011001000010
00111101100111010110101110001000
10111100101110100000011100010010
10111101111001000001010111010010
10111110010001101010010000111111
10111110101000010110011011001111
10111110100111001100001010101111
10111101111000110000100010010011
00111010110101011110110111001100
00111101111000111001111000000010
10111011111000001010101011110111
00111010110100100011000010100011
10111100110001110111111100100101
00111100111010011001100011001101
10111101001000010101100010011110
00111100111111111110110011101101
00111101101111011010000010100110
10111101100111010010001001011111
00111100101010001100100000010010
10111101100101011010010110000100
10111011111011001001010011000011
10111101000000001101011100100111
10111010110001010000010011101100
10111100100100001010110100111001
00111101010011011101101111101101
10111100011011100011100110000110
00111101001110011101100110111110
10111101101111110110111110001011
10111101001000001100100000101010
10111100000010010100100001111001
00111011010011010111011110100001
10111101011111100110111110100101
10111110011000010001010100110101
10111110110110111011111110010111
10111110110011101111000101111000
10111110011100000110100101101110
10111101100110001010111110010110
00111011111010110010111000100000
00111101010011001010101010100101
10111101011111111010010000100001
10111101101000101010010001100010
00111101100110010101111100111101
10111101100111101110100011111110
10111011110010011010111001000111
00111101010011100111110001101010
10111101001011100101011000010000
00111100110001000000110101011100
10111101110000010001100110000101
10111100000011000110111101111001
10111101000110111011111100110011
00111110000010000010000010111010
00111101110010001001100001000001
00111100110110011011001010111101
00111100110110110110011110011010
10111101101111101100011000011111
00111100101111101111000001010001
00111100110110011110011110110101
00111101000000100100010000111100
00111100110100000010100110100001
00111101100001110001001000000001
10111100110100110101000011110000
10111110010011010010010100111001
10111110101000000011101000101001
10111110001111001100100011111101
00111100110101101110000100110000
00111011000010010111101000001110
00111101001011100101010001011010
10111101111100011011001000101011
00111100111101001010010010101101
10111011101101011011111100110101
00111101000111001000101110100000
10111101010110001111000000110011
00111101111101000100110010100110
00111101101101101100101110010011
00111101000001101110100001011000
10111101000001100100100000011010
10111110000101011110110100100110
00111100011100011110111100110000
00111101111011100101001111011010
00111101100110100010010110001000
10111101100001010011100001100011
00111101000100011010101000000011
10111101101010100010011011010011
10111101001111101110001010001011
00111101001011110101111001101111
10111101100110110110110010101011
00111110000000001000010011110010
00111101100101111111101111011011
00111100011110010101100010110011
10111110001100001101110101001101
10111110100010011000010001000111
10111110011100000011000001110100
00111100101010000001100011111100
00111011101000100100110100010001
00111101110001110000001111001010
00111100101000001011101010010010
00111100111101000010100100101101
00111101000100001110111000110101
00111101100101010010100000000111
10111101000000010111111110000001
00111101101000000100100110101110
00111110000101001111110010101101
00111101111101111000111010111010
10111101101110010001011111011000
10111101101010101101111011100111
10111000101101011111011101001110
00111110000011010011101001000111
00111100001000011001111101010001
00111100000101001010110000111111
10111101001010101110100011111001
10111101101110011000101000101111
10111110000000011110111100011000
00111101110011000001100101101011
00111110000011111100001000100011
00111101011011111000110110010011
00111110000010101001101100101110
10111101101110010011111101101101
10111110011111110111000111110111
10111110100001010001000011111010
10111110000110001010000110001010
10111100110100010000001111101100
10111101010010000011110111000010
10111101100011111010111010001110
00111100110111010100100101001010
10111101000101000100011100000111
00111101101011010000100100001111
00111101101100111000110010100111
10111101101001010001001010111001
00111110001000100001000011100000
00111101111011111000010000001011
10111100100111100001111011100000
10111010110100100100011001110000
10111101110000100000110010000110
00111010100111000111000110100110
00111011000100100100101000111011
00111100100010101001100101100110
10111101001010101111011111110001
10111101101000111101011101110111
10111101110001000110011000110011
10111110001010111110000011111111
10111101101011110100010111011010
10111101000010100010010010100010
00111110000001000100010001000011
10111101001111010011111010110110
10111110011000100001011001110000
10111110100111110000111010100111
10111110010110001100010001110001
10111101100000111010011001100100
00111101111111011101101111011111
10111101011100100011000100010010
00111101001001011101011000011100
10111011000010111010001110010100
10111011100001111011011101010001
10111100000010100010000101011111
00111101100011001111100111011011
10111101000101111001011110010111
00111101110100000011101001110101
00111100011001010101110101101100
10111100010000010001011100111000
10111101011101001111010111111111
10111110000001011010111110011010
10111100001010100000000011011100
00111101100010101010010011110010
10111101001101010111101101010100
10111101000111101000101100010100
10111110000011000011010011010001
10111101011011101100011000000111
10111110001100011100001011001110
10111101101100111100001100001001
10111100000111101111000111101110
10111110001101010010001100100011
10111110011110001000111110010010
10111110110010000000010011010100
10111110011000110110010101010110
10111101101001110001110110100111
00111101101111100101100010110000
00111101111000010001011011001100
00111100110000110111010001110101
00111011100011101001101101100000
10111101110110010111010001001001
10111100100111100101110001010010
10111011110010011001111010101101
00111101110010011110110000110010
00111110011111100011011001100101
00111110010000110100010011110011
00111101100011100101101101101110
10111011001000001110001000001011
10111101010010011001010000011001
10111110000001001011101001001100
10111110010001011111000001101001
10111101001001101100100010000111
00111101000010011101000110100011
10111101111000111100000110100011
10111101101001011011001000000110
10111101001101011100100100010100
10111101000000010100001111000010
10111101100110000000111110001100
10111110001010011001001011111001
10111110011000101110110000001001
10111110101010101110101110011001
10111110010101101101010111011110
10111101110100010000001100100011
00111101011101001101101100110011
00111101111100010010110101000001
00111110000001010100110100000100
00111101000010111010101000011111
10110111100001010111100101111110
10111011010011101011110101100000
00111101100101111101010001101100
10111101011000000000001101111011
00111100000110101010110000110101
00111110001110101011000011001001
00111110010000010100100010111011
00111101010011011110111111101110
10111101100111000101100011000111
00111101110010100011001100101101
10111011111010100101101000110010
10111101001001000001111111101010
00111101001001101010011010010011
00111101101000010101010101011001
10111101101010010010011000010111
00111100110100111100110000110011
00111100001011011010001010000110
10111101010110011101111111111101
10111100111110001100000101000111
10111101100100000001100001011100
10111101110111110101001110011010
10111110001100111100100111101100
10111101101111100001010111011001
10111100001000011100011010111110
00111110000011111110010100111100
00111101010010100101000101010001
10111000100101100111011101000110
00111101011111100111101001000111
10111101100110101110011010101010
10111100110110001001000011111100
00111100001110101001111011100000
00111100100110010110000000111111
10111100110110001100000110101111
00111101100100010100000111001101
00111101001001000001100000000000
00111101100111011000010100010001
10111101001101111111100111101000
10111100100110101111011001111111
00111110011111000100000100000001
10111101011101101011100100011000
10111101000011111001011110111011
10111011100110000111110101110001
10111101100011100011010011111100
10111101010010000010111111000110
10111011011001000101110001110000
10111100111000000001111110011000
10111100111101000000000100001111
10111101011011010100110101100100
10111101010000010101101011000001
00111101010010101011010101011110
10111100001001011010110110110100
10111101011011000001010101110100
00111101110100100101010001000000
00111101111010111110010110101000
10111101100011101011111111100100
00111101000111101100100110100110
00111100100010100110011100011110
10111101110100111101001111010011
00111101000101000010101110000101
10111101111101010000110011001101
10111101100101111100110010111011
10111101011101101001011111101100
00111011010101110000010011010001
00111101011101000010111000011001
10111101001111111110001101000011
00111101101010010111000011100000
00111110000111001001000111010110
00111101100100111011000110111111
10111010011110100100001010111100
10111101111011101111101000111101
00111100011000011100110111110000
10111100010011011000000111111100
00111101010100111101000011101001
00111100110010100000100010110000
10111101010011101000001001100000
00111101100010101110011010110101
00111001101001100101001011101111
00111101011010100001000111011100
00111101100101101011000111100000
00111110000011111010001000000100
00111100010010001111101101111100
00111101001110011000110000110100
10111101100111101111011001001001
10111110001001010100010100110101
10111101100011100111111011100010
10111101101010011001100110100100
10111101100110110011110001100101
10111101111101111001000101000111
10111101001011110011011110111111
00111101001001010001101111000111
00111101100001100011100110101000
10111100110000000100110010101001
00111101000110111000010101100100
00111101010011010101000100110000
00111101111110001011110111011010
00111101111101100100011001001001
10111101101001110111000010100100
10111101100101001101111101001101
10111101001001000110101001111110
10111101111010100001111001111101
00111101000001000110000101001000
00111101111010110111111100000001
10111100010101011000100010101000
10111001001111001101101101111000
00111101110001011011011001101000
00111101010000100001110000101001
00111101011111111111000000110100
00111110000001001011001110000000
00111101101100111000000000111010
00111101001100000100000101110000
10111101000001011000001100111111
10111101110101101011000110111001
10111101110110001000110100100100
10111101100110001111100110000010
00111101000100100011000100110011
00111100001101111000011100011111
10111101110010111100110001011010
10111101000001010000100010010000
00111110000011000110011010011100
10111100111101101001100101100110
10111100111111101111011000110010
10111101000111111010101110111001
10111100110001011001110110110011
00111101100101011001101111000111
00111101100011010101101101110101
10111100101010101010110010000100
00111110001111101000000010101111
00111101001111110110010001000110
00111101100010110100010000100110
00111110000111001101000110110111
00111101100100000100111101010100
00111101110111010110010011100110
00111110001001000000111110101100
00111101101111100110010100101000
00111101111000000101011111100111
00111011110001101111010000110000
00111101100101001100100110001110
10111100101001101111000111100010
10111110000100001100101110011011
10111110000001100111001100001010
10111110001101110010011011001101
10111101100000111000111010111101
10111101100011101100010111000010
10111101011001110100111111011111
10111100000001010110101111111101
00111100111101011000001111011001
00111100110011101010111000100011
00111101001110010110000001011010
00111101101000011000011000001111
00111101100000010011001000110011
10111101000001101110111100110001
10111110000100000100011101011101
10111100100001101111001100000011
10111100001111001101011101110011
10111100010001111010011001110111
00111101010000010110100000010011
00111110001011101111100010000101
00111101110000110000000010100101
00111101011111100010011010011101
00111101100100000000001110011000
00111110001100110011101100001000
00111101100111011110010001110110
00111110001011011000010111111110
00111101100010010110001111010001
10111101010110011011010010000101
10111101010011110100000011011101
00111011001010111110101011110101
10111101111100100110111100110001
00111011100111001101011100100101
10111100010110010100010010110000
10111101110110000010000011111010
10111101101100101011000100000101
00111110001100000000111100000001
00111100100000111100000001110101
00111101001010100010011000100100
00111100100101100100001111010000
10111101000111100000110000101100
10111101000001010011010001100010
00111100100101111011100001010001
10111101100010000110110000010010
10111110000001000100000000101101
10111110001001001110000010100001
10111101110110001100010100110111
10111101101011011111010101101000
10111110001010111101010101001111
10111110000110111011001100000001
10111110011101100101110011101010
10111101101010111010001011100101
00111101000000010010000001111101
10111101000110001101001010111100
10111110010101011101111001001010
10111110000011011010110101000010
10111110101101110110010011010101
10111110011010100011110110001010
10111101101011001001110010011110
10111101110100110010011100100101
10111101110010100011111000010101
10111110000001101001101111100011
00111100110000001110110010001101
00111101100011110010110011000011
00111100111110000011011001001000
10111011000110100000000101101101
00111101101110100001100011010000
00111101000010111011111000100100
10111101000010101000110110010010
10111101011010000011101111011100
10111101010000010101111001011111
10111101010001100101001011111100
00111100100001111100011101011101
00111100000011000110100101111111
10111101010100111100010100011010
10111100110101001000111100000111
10111100011100100001010000011001
10111110001111001101100100111001
10111101110110010001101011010010
10111110000011010111111110011111
00111101111010111111101110110101
10111101110100011010111101011011
10111110001100101110100010111010
10111110010101010010111001101010
10111110100001101001111101001010
10111110010100110110110000000101
10111110010000100100011111010011
10111101000100010001000101100001
10111101000010100101100011110010
10111101011011101101110100111011
10111101100011100010111001001110
10111100110100011011001101001011
10111101101001000010100000101010
00111101100011011110001110000010
10111101011010001010001100001101
00111101010001011111110101011010
00111101000100110011111000001000
10111101010001100011010100110111
10111101011111010110011111000010
00111101000110100000101101010010
10111100000101100000101100001110
10111101100011111001100101111011
00111101011011111111110110001010
10111101000110111010000101110101
00111100110100010111100101100100
10111100101011010101111110000110
00111100110011110010010010010110
10111101100110001101000101001011
10111101011010111111111101000000
10111110010110111000111110000011
10111110011111110101100000010111
10111110101000011001101000100100
10111110011100111100011001000001
10111110011001111011111101011101
10111101011001011111111011010000
10111101111001001011100011110111
10111100111011011100110101001110
10111101100010111111000110010000
10111110000101000010011011100001
10111101111111000011101001111110
00111100101000011101010111011000
00111100011100100010110101100000
10111101001111010111110110111101
10111100101001101111011110111000
