00111100110001010111110110001111
00111101010101110000111100110010
10111100100101010010000011101000
10111100110010101110100011110110
00111101000000110000011010100000
00111100110001000001101001101100
00111011011111111110001110100000
00111101011010011010001000000110
10111101010011011110001001111101
10111101001100100111010100010100
10111101100011011011011010110011
10111101000001011000101110111000
10111101011111000000000001111010
00111110000010001000011111011010
00111101100110101100100000001110
00111101001110111000111111101110
00111101010111101111001100111010
00111101101000010100001010010111
00111011110100001000001010100000
00111101100101000101010100011101
10111101000100110000100100111011
00111101001010110000100001110100
00111101000010110010111010110010
00111100010110111100100110001000
10111101100100001111011110010100
10111101000001010001101011000000
10111101010001010000101000001111
10111011101100111010111101010000
10111101011101000100110111000101
10111101101001010011111100101011
00111100011110111010001101000000
00111100100011111011101001110100
00111100100101100011110110011100
10111101000110010000110110000100
00111101010101101010001110011000
00111110000000100101010100010011
00111101010110000010111110010101
00111110010001100100010000011100
00111100101011100010100000001000
00111101110101111110101011010010
00111100111110000001100111101111
00111101111001000111100010111111
00111110001101000111110101100111
10111110010000001000110100010001
10111101101001111010001001101110
10111101101010011100001011011110
00111110000110000011010100010111
00111110011010100001100010001010
00111101110111111011010111101110
00111110000001000010101010111101
00111101101110101111000111111110
00111000010000001111011000001100
10111101011011010111000000001101
00111100110000011000110011111100
00111101100100110100110010010101
00111101001000001000101101010010
00111100011000000011111111111000
10111101011100110001110100101110
00111101100110101010001000101101
00111100011111000011011111101001
00111100111001111111100101010100
00111110000111001000011010101001
00111101000000000011000011111110
00111101001111011100010110011010
00111101100111011100011001001110
00111100100011011111110110001111
10111101100101111100110101010100
10111100110000110111100000001001
00111101111111000110101110110011
00111101001001000011101001001101
10111101011101000000111110111110
10111110000000010111100110100110
10111101100111110111000110010001
10111101111001111000011110001111
10111101001110000010010100101011
00111100111000101111010101111110
00111101000100001010000101001101
00111101010011110000001100000001
00111101001010101010000101010000
00111110001100010101000111001111
00111110001100100101001000011001
00111100110110101101110011010100
10111101110001001000111001001101
00111100000101111001100101100000
10111010110000110000000011000000
10111101001010100100011100000110
10111101011000111001101100011110
00111101011011001010111111010011
10111100000010100111001100111100
00111110001100001101110000011000
00111110001111110100101100111010
00111110000101111011110000100110
00111110000100100001001000001011
00111101100101101010010101111101
10111101101010100000000101110011
10111011000110001111001010000010
00111100000001111001010011101111
00111101000110110100011001100100
10111100111110101000001110101000
00111101100100000111110011000101
00111011111110110010100000000110
10111101100010100011010001111111
10111100100100111101010001110001
00111101111101110101100110101010
00111110000110111100000010111001
00111110001100000000001011000010
00111110000111010010011000101000
00111101111001001000101111111000
00111101101101101010110010001001
00111101101100101000111001100101
10111100110001110001000011010110
10111100110001110001000100101010
00111100001101001010110000011000
00111101010001010000100001010110
10111010011111011010000011100011
00111101110010100111111110001001
10111011111010000111001000101001
00111101101001100011111000011011
00111101001001111101101010000101
00111011110000110000101010000110
00111100110100101101011100001011
00111100000011011111011110100100
10111100110010010100010011100100
00111101100111011111101010010100
00111100101001101100100110100011
10111100110001101110101101100011
00111101000111110010111110000101
10111100100011100001110100000011
00111100000000101101100000011101
10111101010010111011011011001101
00111100100011100010111101010010
00111101010000000011011010010101
00111110000000101011101011100100
00111100010110101011110111110110
00111110000011010001011011101000
00111101101101010001001001101110
00111110000110111001111010110001
00111101011001000010110110011101
00111110000100111000011000100101
00111110001101101111110100111100
00111110001001111101110001101110
10111100010000000101000000011000
10111101100111101111011111111000
00111101100100111110011000110111
00111110001001100010000000011100
00111100111001111100110100010000
10111101101011111011111000010000
10111110010000110101011111110011
00111101001011010010000100011111
00111101000101001110001100110100
10111101100010011011001000111000
10111101100010010110110011010010
10111110000111001000010011011111
10111101001110100001110100101000
10111110000111001101011101010111
10111101100101100111110010010100
00111100000001000010010100011101
00111100010011111111001111011101
00111110000101111110000101100010
00111110000111010011000110010101
00111110001000001010010001011101
00111110001010010100111100010001
00111101100011111010000101110001
00111100101010010000110000010101
00111110001010001101001100001101
00111101111101100001011011010111
00111110000110010111000010100100
00111101111001000000010011110101
00111101110001100010110001001011
10111100100110010101100010111100
00111100111111000111111110011111
10111110000111001001101001010001
00111101010110101111011001101011
00111101010010010001101011011111
10111100011000011100001101100010
10111101100010001000010110100110
10111100111000010111111100011010
00111101110001100111111011111000
10111101100000000110110000101011
10111101101110110101101111010001
10111110011101110111110001111000
10111110000101010111110111011101
10111101110010011001011001100011
10111110001000010010001111101100
00111101101100010011110001000110
00111101111000110000000000010110
00111101101110000100110011110010
10111101100001110101101110011111
00111101110011100111000100011100
00111101110111100111100011111000
10111100110110001011011010101100
10111100000101001111010110111001
00111110010101000101111111101011
00111110011101011110101000100101
00111101101111010100011111110001
00111110001101011110110010100000
00111101011111111011011100101101
10111011100110011110011110000000
00111101101001001101100100110100
10111101010001101010101011010000
00111100101111111001010110000110
00111110010111111001011111110000
00111101110111010000000011011011
10111101110110111100110000000111
00111011110000001011001101011011
10111010011000011000001100011010
10111110000100111011101101001001
10111101100011001011110011011100
10111101110001111111010101110011
10111110010111001101000101001010
10111110000001001111111100011001
10111011011111100000011100101000
00111100110010000010001000000011
00111101010110000111001011111110
10111100110000100011011001111000
00111101001100010110111111110011
00111101011100011110011000100000
00111101111101101101101001010000
00111101011011111010000110011110
00111101101000100100111001001010
00111110000110110011001010111011
00111110001000011100110101101001
00111110001110000011001100101111
00111110001000001001110111101101
00111110010101101000011111111110
00111101010101010010101000110110
10111101100110101111010110010110
10111110000100110011101010101011
00111100010011001101001011011101
00111110000011010110010001110000
00111101100111110111011000101001
10111100111101110100010001001001
00111011111110010000000100101001
10111101101101100000011011101111
00111011100101110011101110010110
00111100100001100000101000010010
10111101001010000111011100001111
00111101010001111110011010101001
10111100111011110010011001111010
10111101010111100000111101010111
10111101011110011111010101101110
10111101100000111111100001100010
10111100010000011111000110010011
10111110001100010011110100101011
00111101101001110101100110001000
00111110000111110110100010111101
00111101110111110110000110010010
00111110010011100110000101101100
00111101111101101110010110010111
00111110000000001001000101110001
00111110000100011110000101100000
00111110010011011101000000010010
00111101001111000111011111010111
00111101001010111111001000110110
10111101001011001011001011111001
10111101100100111110011010100000
10111101010010111010000101101110
10111100010000101011101000111100
00111101001110011100110100110101
00111100000100101101000001001001
00111101001111100011001100011110
10111101110011001001100010001111
10111011110010000011110001010100
00111100110101100101001100011001
10111101100011011000001001111101
00111101001011001101000000110011
00111101101010001111111000100101
10111101110000010011011001010010
10111110000100110001011001011001
10111110000110001010000100000011
10111110000000111001111010100010
10111110000001100110101001110110
10111101001111101110010100101001
10111101001000110101101110110111
10111101000111010001110110010111
00111101110100001001110000100100
00111110000111100010101011110111
00111101101011001110110101010010
00111101101010010000000101010100
00111101100100100010000010110010
10111010100001111101101010101101
10111101011000110000110101110100
10111101101001011100110000000100
10111100111001010000100111010110
00111110000111010111011000101101
00111101011011010100110110011010
10111011100100011000011001010111
10111101011001000000101011101000
10111100101010100000101101111010
10111110010001011000010010011001
10111101001101001001100000011010
00111100101011001111010010000010
10111101111001101100011011001011
00111101111110100010100101011101
00111101100001110100011010101011
00111101101010111100100000011011
10111101101101010100101100101110
10111100001101011110111111001110
10111101000110100001000101001011
10111101101111101001001111001110
10111101100010111000011001101100
10111110001011001001110010011011
10111101101011001101001101000001
10111101100101111011101001010011
00111101100000101011101111101010
00111101010100100000011000111111
00111100010001000011110100010110
00111101111010111001111000101110
10111100110110011011110010110010
10111100100001111111100010001000
10111101001000011000101110001010
10111110010000001010010001000011
10111101101010100001010101010011
00111101001011100110100000100000
10111100101100010010100111110110
10111110001000001100001101101110
10111110000100011000000110110010
10111110001100110011010010110001
10111101111000111111001010010111
10111101111010111100100011000010
10111100100100110011001001001110
00111101110000101000001100010001
00111101100101001111111010001011
00111101101110001100101010110010
00111100011001101100110000101011
10111100010111000010001101110111
00111101010010101101000011011010
00111101011010111011101100110101
10111101110000000111110111001101
10111110011001010111011110010011
10111110000010011011010011010001
10111110100001100100011110011100
10111101111100010001001010000010
10111101001101001011101000101110
00111100111001110011110100111010
00111000101110000101000100110100
10111101100001110101101101100000
00111100110111010011010111001100
10111101110110001001010100100111
10111101101100000111001101001111
10111101001110111100111110110101
10111100000000100001111011100000
10111101101001100001100010101001
10111101101010101101110111000101
10111110010100110100110011011000
10111101110111010001101011110110
10111101011101100001100010010111
00111101111111111001100111010111
00111101010111100010001101110101
00111101011101010001001001000100
00111110011101000000111100101011
00111110010000111101010001101111
00111101001001011110110111110010
00111101011101011010111011011001
00111101100100101011000000010110
10111101001101010100101111010011
10111110000100101000010000110111
10111110010101001101100101110011
10111110000000011001011001101001
10111110011111100010100000111101
10111110100000100110011001100100
10111110000110001011000101000101
10111101000001110100011100001100
10111011111010000000111100010010
00111001010111001100010101110010
00111101001010101101000011110001
10111101100101011000011000101001
10111101111000011100010101111100
00111101111010011000001010010010
10111101100000100010111010001011
10111101000111100110110100001000
10111101111111010001000000001011
10111110001101001001011101011101
10111101000001001101000101101111
00111101101111110011000000111000
00111100101111011000101110100000
10111101111010100011011001010101
00111101010101011101100110100101
00111110011000000001100010100110
00111110001111011000011001101011
00111101101100010001000111000111
10111101100111110110111010000111
10111101011110000111011000111110
00111100000000000100110100011101
10111110000010010100110110000110
10111101110111001011101100001101
10111101101001000011110001100110
10111101111110010001001110110111
10111101011001010001010011001011
10111101110001011100100011011101
10111110001110110111001011010101
10111100100000110110100100110010
10111101011101000011100100011000
00111110001100011001100001010011
00111100110110101100011000011101
10111101001100010010001100110100
10111011011100110100110001011010
10111110001001011101010000010110
00111011100110011100010010110100
10111100101100101111101100111100
10111100111011011101011111101100
10111100010110000011001100011100
10111101100000110000000111100100
10111011101101101101011010100101
10111100110101010000110101010110
00111110001011101101010011001000
00111110001011101110010100001101
10111101000000111110000110100000
10111101100101111001111001000010
00111101010000011100001110100100
00111100111001101010000000100001
10111100001111101101111001000110
10111100010110011000101101100110
00111101011111101100101001110011
00111101011001011000010000101001
10111100001010101010011001010010
10111110000000101110010010110011
10111110010000010010011111110101
10111101010000101011110000010100
10111110000001101010011101001011
10111110000100000010110000000000
00111101110101010011010111100110
00111101001000111011110100111100
00111101010101011110000100001000
10111101110110101001001001101111
10111101100101011011000011111010
00111100100110000010111100000000
00111100101000010100101101110100
10111110001101000001000101010011
00111100000111010011111001110001
10111110001011110011000110000011
10111101101001001001100011000000
10111101100101111001000100110111
00111101100001011001011101101101
10111100001111110000000010000000
10111101101111111111110010011000
10111101000111011100010100000111
10111101000100010001100101010100
10111101000100000000111001100010
10111100110001110111010010010110
00111101110111100100000001110101
00111110010011011100011010101000
00111110000110100010011000000101
10111100100111111001111100111101
10111101100100100111011010111101
10111110001111100100000111111101
10111101100011101001010100001011
10111100110011010101100010001100
10111101010100001110110001111011
10111101011111111111001111001110
00111100001100111100100111001001
00111101101011100010011110000111
00111100100100100100101111110000
10111101001000101000010000001010
00111010110110001101010101110100
10111101110100100110001100100100
10111100010111000001011011110011
10111101001001110101110000110000
10111101110010110100010101010010
10111101100000001101001001110110
00111011010101111001011110001101
10111101110101000010110101110010
10111110010100111100110011001010
10111101111101110110000001010111
10111110001001010011111111100110
00111011011100100101100000101100
00111101000100010001101010100000
00111101100011001000011010100011
00111101111000101010110100100001
00111110000101000101101000010100
00111100111111001010000111100010
10111100001011101001101110001000
10111101101010011011000010010101
00111100101011100001001111101011
00111101010001111000000100100011
10111101101111001001100011010000
10111101100111111100110111111100
00111100101111010100101001110100
00111100110101111110110101110010
00111100111110010001001111001010
00111110000101011101100111100001
00111101110001111110000110110010
10111100111000011011111010000111
10111101100001010000011000100011
10111010010011011101111100010011
00111100101011100010010110111100
10111101110111101001000000001001
10111101111111000100001100010110
10111101101011010101000101100101
10111110000100010111001010101000
10111101110110011110011110111101
10111101101101001000011001101101
10111110001100111010010100001111
10111101101011111110100111101101
00111101101000010111001001100000
00111110010011000000001111001000
00111110100000101011101011101111
00111101110011110100110111100001
00111110010011100111011011100010
00111101001001010110001111100011
10111101000100111001111001001110
10111110100000010101010001001010
10111110100101001001001101010101
10111110000000011101110011011100
10111101001110110010101010111111
00111101001011101101110011110000
00111101100011111100001000110110
10111100100101110010010100010100
00111110100101110001101111110100
00111101110111000000110001110011
00111101010001101101000011101101
00111101101010010011001010111011
00111110001110000001111010111010
00111100101101111011001111110010
00111100011110100110100001010011
10111110000001110010011011111110
10111101100000111100011011010011
10111100010111011001100101000100
10111101010101011110111111011100
10111110000011010000110101111011
00111100011111001101100111011001
00111101000011010110110000110010
00111100100101000010110001111101
00111110001001110001001000000100
00111100111110101001011101101010
10111100000011001010001010101110
00111110000111010111101010001111
10111101101001011110010111011001
10111011111010110011011100000101
10111110100111000101101001001101
10111110011100000010111101010010
10111101110110000101111100011101
10111101100111011101101011001001
10111101101000101011111110010100
10111101100101011010101000111000
10111101010000100011100101111100
00111110100101100110010001100001
00111101110011101010101110000101
00111101011110001111111010001101
00111110000111010100010001100111
00111101110110010010000100110011
00111100010000010111001111010110
00111101001100011010000100111010
00111011100101001000101000001110
10111101011100010110111100100101
10111101010111101110101001011000
10111100100011100010011100111101
00111101000111110001010010000010
10111100101000111011011001011010
00111110000100111101101001101010
00111101111000001001100101100001
00111110000110111010101001011000
00111101000101010010111101101100
00111101111000111111011000100100
00111110000100100100110101001010
00111011110110010010111101110100
10111101001000001001001101000110
10111110001101111010101010011001
10111110010110101001100100001111
10111100100000011000101010001001
10111110001010000010000001100000
00111100100010000001001110001100
10111100010010010011101100000100
10111110000011111001100101011001
00111101000100110100100111011100
00111110000101001110101000000001
00111110000000011011101010101101
00111101100111011001101111000101
00111101100001110111001010111010
00111110010101011111101100010110
00111110100000001001101110010101
00111100100000001000000111110001
00111011110010111010110110101111
10111101000101100000101000001001
00111101100001000010110011100011
00111101100000100100100001011011
00111101101011010010011010100011
10111101000010111010111011000000
00111101110100101110100100111111
10111100011110000010110001000110
00111100100100010000010111111111
00111101000100110011001110110000
00111101011001110011011000000001
10111101100001010100001000001000
10111101111011101011101011001001
10111110010111111010101011100001
10111110000111011010111011110000
10111101100100001011010011101100
00111011010010100011101101101100
10111100100100100001111110010111
10111101110001001000000100000100
10111101001000100111110101100001
10111101001100110011000100100001
00111100100101110000010111011101
00111010101001010110011010011110
10111100100111010110111101000101
00111100101000101110111100110011
00111110001111010000100101111111
00111110001001000000110011111000
00111110000010001000111011100001
00111110010000110111010011100111
00111101110001110000000111010100
00111110010101010110010111101000
00111101110100000101011010010001
00111101101011011110111111101011
00111101101010100111001110100010
00111101010011011110010000001100
10111101100111101010100010010111
10111101101110011011000001011101
00111101000100100101111110100001
10111110000110110101001110000001
10111101011111111000111011000001
10111110011110101101001011101011
10111110011010111010110000101000
10111101101110010011111101101101
10111101011001000100010011000010
00111100001010011100101001111100
00111101000101001110000111010101
10111101100011101000011111111001
00111100101010110011000101100001
00111101111001100100100011100001
10111101000110000000000111001010
10111101101101000100000111000100
10111101111010011101101011000110
10111101100010101010100101010101
00111101011101111101110010101110
00111101011101100111000000011100
00111101101010001110111000000110
00111110100010001100010011111100
00111101111000111011111010111111
00111101101110110110101010000101
00111101111110001001001100010001
00111110000100101111001010100101
00111101111100001001100011001100
00111011101111101101110000011100
10111101111011111010011100111111
00111011000010111101100001111100
10111101010111010111001110111111
10111101101100110100101001101111
10111110000001111100101011101100
10111110100101010001101101001010
10111110011001001010000101100010
10111110001001011000111011000010
00111100101111011100010100001001
00111101100001001001000110001111
10111101010000101110110110011001
10111100110001010100111110110010
00111101011001100100000101101111
00111110100000101110001111111001
00111101000100111110000100010010
00111110000011001011010010111011
00111100011011111001101000010000
00111100110011011011000100100111
00111101100110111100011110010101
00111101111100110100011100001111
00111110001100011000100001001010
00111101110011010010111111001000
00111101010001010011111101110111
00111110000011110111101111100011
00111110000000001110100010011001
00111101000010011001011111111010
10111101010011010011011100010111
10111110010011110111000011111111
10111100111100011111111000001011
10111101110000101111111001010000
10111101110110110001000111100111
10111110011110000101000010101110
10111110010011011111101010000011
10111110000110101001011110100100
10111101010101101011111101000101
10111101011100110001101111110110
10111101111010011110000011100001
00111100100100010000010101100100
10111100100010111110000001110000
10111100101000011000100101011100
00111100111000110001000011010111
00111110000001111001001100100011
00111101110010110000111111011011
00111110000010100101100011111001
00111110010111111010000110000011
00111110001010001000010110101000
00111110001110111110011010000010
00111110010011100100101111011001
00111100011001011111000110100110
00111100101100100001000111111000
00111101111010100101110001100100
10111100100111000111101100100110
10111101001111011101101110000010
00111100100100011110011101011010
00111101001110010001011001101010
10111110010011010110101011111101
10111110001011000100001010011111
10111110001010010100110100000000
10111110010100000101100100110100
10111110000101011010100011111011
10111101111111111010101101011100
10111100011111010101111110001100
10111100100000100000000001000101
10111101101010110101001101101110
10111101110010000110110001100001
00111101100110011001011110111011
10111101100110000101001010110100
10111101010011100000101101101000
00111101011100000000010100000100
10111100101010111101100001011101
10111101111001000110010101000001
10111101011100101001000100001111
00111101001001111101100000010011
00111101101011010100101101000000
00111100011111010110011111001110
00111100110000001101011100111110
00111110000110101000000101100100
10111000100100100101001000011110
10111101101110100111001100111000
10111100110110110011110100101110
10111110001001000010110101111100
10111101011110010101100100101110
10111101100101110100001100011110
10111101110110101101001011000101
10111101111100010011011111111011
10111101111110000000100011111101
10111101101110001011101011010011
10111100011000111101110111100011
10111101101110011111000010010111
00111101000010011100011101011111
10111101100100100001111000011101
10111101101101110110011000000110
00111100100101011110010011000000
10111101000101010101000010011110
00111100110100001001000101011100
10111100111101001111010000100110
10111010000000011111000010000000
00111101001001010000110100111100
00111101110010101100111001100101
00111100111110001001001000011000
10111101010101101101000011101111
10111110001110000111010010110000
10111101111001111111010100000001
10111101111010010010010110110100
10111101111011001101101001001110
00111010111100000111011010111010
10111101111010010100000100110100
10111110000110111101101110101100
10111110000111001110000111110100
10111101010001001100001011001001
00111101011111010110100010011011
10111100101011001000101100010001
10111011110111000100100001110001
10111110000000001010100001010001
10111101001111011011010110110011
10111101101110011110110001111100
00111101011101111100000100110111
10111100110010010010110110111001
00111101010111011011010001011010
00111011110011000011001001000000
00111101010000011101110011011010
10111101000000001010010011110101
10111101001110010101001011000000
00111101100011011011111101011111
10111101011101111101111101100010
00111101100111001101101010100101
00111100111110101100100000011010
00111101100011001000000101101100
10111101010111111000010110001001
10111101001010010101101110010010
10111101110110110101010110000011
10111101101111101110011101010001
10111101100010110111011011100111
10111101110111100001001011010101
10111110000011011101100111101010
10111110000011110011001100011101
10111101001101001111100011010001
00111100100100101101001110010101
00111101011100010011000110011001
10111100101001111000101010000010
10111101011100111011110000011000
10111100110111011000101000101111
10111101111011100000110011110011
10111101111010011001110010111100
00111100000000001001011111111000
00111101100110111011111100011111
10111101101001001111000000111111
10111100001100010111010110100000
10111101000110110111100010100100
00111101011010101001100101101110
