00111101100000111111001010100001
00111100101110110100011001000100
10111101011010010111100010100011
10111100101011010001000011100110
10111101000101111111111010010010
10111101011000100100110100111001
10111100101110101011010010000100
10111101010111011100110000100111
00111100101011101100110101011000
10111100111011100100110011001000
00111101001101001011101110000010
10111101100001000110111001011010
00111101010010000011011110110010
10111101100110101101001100000100
00111101000010110100001000111010
00111101101010110100110100011011
00111011110001101011111011100001
00111101100100110000100000110111
10111101011100001111100000011010
00111101011000000110001000000110
10111011101000001000100100110000
10111100110000110001000011010010
10111100111111100111010000001100
10111101011001011110011011100010
00111101001101100000101011101010
00111101010000000111000111100110
10111101000111111011011111011110
00111100011110100001011000111000
00111101100000001001110110011011
00111101100011011010010000111111
00111101001111100000010111010010
00111100101000111001101000010100
00111101100101011111000010111001
00111100000010101100000001010011
10111100101010100000010010101101
10111101001100011010010011000110
10111101110110001101100111110100
10111100100100001011100010000010
10111101101000011000111000100001
10111110001101010100011001101000
10111101011000110111001101011010
10111110000101010110011101000001
10111110001001111010010100111111
00111110001111001110110100011001
00111101101011111010111110000011
00111110000010011110101111100010
10111100110111000111011001011101
10111100110001010111011100010111
10111101000101011001011111100000
10111101011111110101001100111000
10111110000110001000001010111001
10111101100110000010101110001010
00111101011011101110101100000000
10111101010100010100010011111110
00111100011001010100011001010000
00111101000101000100110000100010
10111101001100010100010111010100
00111101010101100101011000111110
00111101000101100100010010000100
00111100110110100001001100000000
10111010101101010100010010100110
10111101000110110010101101000100
10111110000101101110110011101101
10111101100011111100100111101100
10111110000101010010100111001111
10111101101011111101010111001110
10111100111110011000111000101000
00111101001101001100111111010011
10111100011010101100110000101010
10111100010001111101001011110011
00111100010010010111101010010101
10111101101011000001000001100010
00111101100101011111011000110110
00111110010110100001110001001010
00111110000010100010000111000000
00111110000011011100001000101111
00111101100110010001010101111011
00111101111000110100010111100110
00111011101111011101101011001110
00111100001000000101101011101011
10111100111110101111101000100011
00111100010110100001000010111010
00111011101001110101111010011011
00111101001001101100001100111000
10111101100100011100011111011100
00111100100011010111011011000000
10111100101101001001011011000000
10111101100100110000001111001011
00111100000011111100111010110100
10111010111111000110011000110111
00111100111010000011011100011101
10111110000000101100000111000010
10111101101111111101000100101011
10111101001000100001101110101111
00111100010000110011010001100100
00111110000011111111101000111001
10111101110110000101000010010011
00111101100010011110000010110010
00111110010001000011011101010100
10111101110100001011100001101101
10111001100100110111101010101010
00111100011101100000100101101010
00111101110100010110010111010110
00111101111101101000001111011000
10111011101100101101001110001010
00111101101010001000111001100000
00111100101001001101010101110111
00111101100000000100001001111011
10111101001011100100110101011111
10111101010000110100001011001100
00111101010000011110100000100010
10111101100000001100110000000101
00111100111010100111000101101100
00111101011110010000110011011110
10111101100111000100000000100000
10111100001101100010101010010110
10111101110011111110101110011101
00111100100110101001100100111100
10111101000000001111010010000000
00111101011011001111100111101000
10111011001011010011100110010001
00111101100000110010001100011111
00111101110001000000010111010001
00111110001101001001010101101010
00111110011000101011101110010000
00111101110101110011000100000001
00111100100101010111110111101110
00111101100010010110101010111100
00111110001001011101001111010001
00111101101111101100100011000001
00111100101110000110101001101101
00111101101010000100110111110011
00111101011000100101000000000010
00111101100000001000100101110010
00111100001111111000110011010011
10111110001000000100110001110101
10111101001011101011100000110110
10111101110110001110001111001101
00111101001100111011110110101111
00111101100101111000001001001100
10111101101111011100010011111011
00111011110000000110110100100000
10111100100101101010110100011000
00111101101111111010101110100111
00111110001001000000010101010001
00111101000110101111001011101111
10111101100010111000001101110011
00111101000101010000110101110110
10111110000000000001110011011000
10111110001111111010101010010000
10111100111001010001100011101011
00111100110001000101011110100110
00111101101101100011101111001111
00111101000101101011001011010110
00111101100011011010011101001111
00111101110000100100111111001110
00111101111010100000011110100011
00111101101010001011110101101111
00111101101100010010100110110010
00111101001010001111001000101000
00111101010010011100101011101101
00111110001011110100001100011001
00111110001011110000110110001101
00111101111011010010111010001111
10111110001101100001010101110011
10111101111100000010000010110101
10111011011110111001101111110010
00111101010111010101101000001011
10111110001001111110001011010100
10111100111001110000010101100010
00111101001001110100000110101011
10111110001100101101110110001101
00111110000001011100001011001001
00111101100011010101101001001001
10111110001101101110111111111001
10111101110001001011001100110110
10111100000010111100001110100110
00111011101000011011101001101111
00111011111110100010110101100110
00111101110101000010101001110101
00111101001001101100101111001111
10111011011000011101000101111000
00111101101000000100100110101101
00111011011111111010101011010010
00111100010111011010010001101101
10111100100000111101001010000111
00111101111000111000011011101110
10111101000010011010000011011010
00111101110001001110110110010011
00111101011000001000011101101110
10111101101011111101000011111010
00111101101100000111111011001101
10111100101010011011000000000001
00111101010110011001011110000110
00111110000111101000111100100100
00111100001100011100110101111101
10111110000011001101011010010111
00111101100010110001001111111101
10111100110110010001110101101011
10111101110011000010001000011100
00111101000010101100100111110011
00111101010110010110111010101111
10111101001101110100000001111110
00111011100101111001000110110110
10111101000001011111101010101001
00111101101000111101100010010110
00111101110011110010110000010101
00111101101110010001011100000100
00111101011110110000011111101101
00111100110000110110000010011011
00111100100000110100000110111010
00111100111000111011001001001010
00111110001110001000111111110000
00111100101000011100100100011011
10111100111000001010011001110111
00111110000000010011100000100010
00111101001010111101101110000101
00111100011001111100011101000011
00111101100000011000000111000011
00111101011111010011101111101100
10111100110010101101001000101101
10111110000000101001010000111000
00111011101001001001001010101101
00111100111111101001110001001111
10111101001100011101011000010011
00111011111001101000111111100011
10111101111010000011010110100111
10111110001101011001011110111110
10111101001111110111111100100011
00111100101110010011001101100000
10111101100011011100000000010001
00111101010111110101111010111110
00111100111010010100101100000011
00111100111100111010010010010111
00111100101010111110001100100100
00111101101010110101011101010110
00111101100011101001000011000001
00111101100110111100100101101110
00111101111111011110101111011100
00111101111011100000101001100111
00111100011101001011111101011000
00111100001000011011111101111010
00111101001100110110110010101111
00111101111100111001000111000011
10111100011110101101000111100110
00111101000111010100001101110100
10111101100100110111111110001000
00111011000000110110111100001110
00111101000001011001011110000111
10111101100100010101010111101011
00111100101100110100010011100110
00111110000101111110100101101000
00111110000100011110010100000001
00111011110001010110001100100110
10111110011000011110011101101111
10111011001001110100111011100101
10111100001101111010001011100001
10111100000001111101011010100101
00111100000111111011100100011001
00111101011011010010010010100101
00111101111010111001101100111101
00111101001101111101001001011100
00111101100111110011010000000110
10111011000111101000001110101000
10111101001100111010011100101000
10111101100000010000110101110010
00111101001111001000110001110100
10111101001000011001000000000011
00111100101100101011001110111011
00111101110100101111011100010110
00111100101111101001010111001111
10111101100000001101001100011110
10111101001110001010001100101101
10111110000011111111100111110010
10111101011010111001010011000001
00111101010100001000001101110111
00111110010101100101100100101111
00111100111101011010100100000110
00111110001010100010111000110011
00111101101110110000110010001010
10111110001111010000001010000011
10111011011011010100110000011101
10111101111111100110001110001101
10111110000101000010101110011010
10111011001111100111111010001111
00111101011010100101000110001000
00111101110011111001111001101000
00111101011110110110001101111100
00111100111010011101001100000100
00111101101110001111001011111111
10111100101010000100001000001001
00111100010000101011001001011100
10111100110100111110100110000101
00111100011101000101111110100000
00111100111010000111110101010110
00111101001101110111101110010110
00111101101001110010011111010000
00111100111110001010111101101100
10111100111110010101100001110111
00111101101000000001000011011101
00111011001010111100110000011001
10111101000100000101011011101101
00111101101011011110110000110110
00111101111110010110100101111100
00111101111101101110110111000111
00111100100010111010010100001011
10111100010111001010000000110001
10111011010101011011011001010011
00111100001111100100000000111111
10111101101010011001111111000000
10111101111000010010001000101101
10111110010010110011000010101101
00111101000111010100011011000111
00111110001101110101000110010011
00111110001000101111010101001001
10111100100011001000011010111110
00111100100010111101100100010111
10111101010001000111001110011110
10111101111000101011010100101001
10111100101010111011000110101111
10111101110110010111001010110001
10111100111101100011000111110001
00111101100000011000110000100001
00111101110110101011010000110011
00111101101001111011111011011010
00111100110110110011100011100010
10111101000110100110011010001100
10111100011011100110110111010000
00111101001110101001001110111001
00111101110001010110101111011100
00111101110110001011000010000101
10111100111100011001100110110110
00111101100100010010010011111101
00111101001111001100011100111111
00111110100100000110101011001101
00111110011101010111011111100110
00111101101011100101101111111000
10111101101100001101111101101101
10111110011001110010001010011101
10111110000100001110101001010111
00111101111010110101011100010001
00111110100000011101110110011101
00111101110000001001000111101101
10111010000101111101001010111111
10111101000101110100010110000011
10111101000100001011000010001001
10111100010011011010011111011101
10111101100001000110010010001011
10111110000010011010001110111100
00111101011011101001100111111100
00111110001010000110010101101000
00111110001111001110011011111010
00111101110000100101111000111111
00111100101111111010001110110010
00111101110111001011001010010111
10111101000100010101001101011101
00111101101010110100100010011101
00111101100110011100100001011101
00111110001000100010101001101001
10111011011101100001011001101101
10111011100001101111101101101010
10111100111101101000011001010001
10111101000110010010111000111110
00111101001100001110010010000100
10111110000110011111010000000111
00111100000110111010100001000010
10111101010110011010100000101110
10111110011011101111001000001001
10111101010110100111001011101110
10111101100011011011011000001010
10111100110000111011100101100011
00111100111000110011100010011010
10111101101111010101010111100101
00111100010110000100100100100100
10111101101011010000110101010010
10111110001000101101011100101110
10111101010111100000010110100100
00111101111100110101111111000110
00111110010010011110100011011001
00111101101111011000010100001011
00111101111001101111011010100101
00111101100101111011010011100011
10111100111101011101001001001100
00111110000001011100010101011101
00111100100110110001111100001100
10111100100011111011001011000101
10111110001000001001100011000011
10111110010000101000111011001000
10111110000010110100001110110111
10111110001001010001110101101000
10111101111011001010011111100011
10111010001010110000011110101010
00111101010000101101101011011010
00111100110110110010011100101000
10111101110001000100001010110000
10111110011111011000001110011010
10111100100011101001011000010011
10111110010110111110100000010000
10111110000010101001011011011100
10111100100100010101101100101100
10111101110001010001101001100000
00111100110010011000111010011111
10111101100011111111010000010101
10111101101010110010101000010110
10111100100011110100010001010101
00111101100011010000011010100101
00111110100000000111100000110111
00111110001111100000111111011001
00111101110001001110000011101010
10111100001101111111111000110001
10111100101100100101011000011010
00111100100111010101011111101001
10111101111100100101110011100010
10111110001011101010111110101110
10111101111111001111011011101101
10111110101000100001000100010111
10111110100010011101000010101111
10111110000010010100110100100101
00111101001111101011110101010001
00111110010110000011100110101000
00111101000101000100011011110010
00111011011101000011110110011110
00111101110000110100111010100110
00111101011011011110010000010110
10111100111100000100001110101001
10111110100000010000101110101100
10111101111111100010100111000001
00111101001001011010011110000101
10111101010101100010010101101010
10111100101010110100100001011000
10111100101110010111010000110000
10111101100010100011011010100001
10111101100100101110000011001010
00111100011111110111011010001110
00111110010100001010011011100101
00111110001001011100001011010110
00111101010110101110011001010111
00111110001000101110100011010100
10111100011011011000101101010010
10111101100100100101111011111111
10111101011000000010010101101110
10111110010110111010011010110010
10111110010101001011010000011111
10111110011110100110111100001000
10111110011010110111100010100001
00111100100111101111110100101011
00111101110111110001101010000100
00111100111110111011001111001100
00111101100110100111000011101011
10111101011010001111110100000000
00111011010100111000001110111011
00111001110010111001011111000000
00111101111010101011111010000111
10111101110010001011010010101111
10111101101100011001110110011100
10111011101110011011110101111110
10111101101010000010000110110000
10111101110010011100010010111010
00111100101100001001110000100100
00111100001010000010011001001000
10111100110101101010001100110011
00111101101101000010000100011100
00111110000000010111101110101010
00111101111010001011101110110000
00111101101101110110000111000100
10111011010110010101110001101000
10111101101100101111001100110011
10111110000101011010010011111101
10111110001011111011001110110001
10111110011000100010001010111001
10111110011001111001100000110101
10111101100101011110000000100101
10111100110101000111101001011010
00111101111011000101010110001001
00111101100001000100000110011110
00111101111111111111010001001001
00111101100010111101100100111011
10111100011111000110011000011000
00111101101001110110101000010001
00111101010110110110001011011010
00111101111101011100000000001111
00111100111001111010111011111110
00111100100001101001000011000101
00111101000010010001000111100111
10111101010001011000000001101011
10111110000101111011110101010101
10111110000010000101001110111100
00111100100010000111101000101101
00111011111000111000101111110000
10111100111011111111001100101110
00111101101000011101010100110010
10111101010111010111011001111111
10111101110111010010011000100101
10111100111101011001110001110011
10111101100000000100111110000110
10111110000101111111000001100011
10111101100110100101010111011000
10111100011100101000110101010011
10111101000010111000010100010000
10111101111100011100000111000000
10111100101111111111100110111001
00111101001110110000010010000000
00111101100111001111100101010010
10111101001110010001110110101011
00111110001101101011100101001110
10111011101011011000110110110111
00111101101110111110011111011011
00111100111100101101010001100110
00111101111000110000010001011100
00111101100100010011110001100101
10111101000101001011000101111101
00111101000011000011000010110000
10111101111001111111101010100100
10111101010010110001001010100010
10111101110111111011001011100010
10111101101100111111100001111000
10111101100011111111010100000010
10111110000000100010010000010111
00111100101101100101010110101001
00111100000011101101001100100110
10111100100011100111000000111010
00111100111110001101101110011011
10111101110000000000001010110100
10111101100110010111001111100000
10111101111000101011110001001110
00111101101100111100111001111111
10111101000001010001110000110100
00111101101101011000010010001100
00111110000100011110100010001011
00111110010100111001101001101011
00111101000011110111110111001100
10111101001001100000000111100111
00111100011011001001101110010000
00111101101111111100100110101100
00111101001010110110100111111111
10111101001101101000010111111011
00111100100111100111000010111111
10111011100111100111110100011000
00111101000001100100010011010011
10111101000010110111111000100000
10111100010100010000000000001101
10111101000001101001100100000000
10111101001000001101001100111001
00111101011001001010000110101101
10111101011110001111110001011100
10111100101111101110011111011001
10111100111110100111001001000100
00111101011101000110101000101011
00111101000001011011100011010101
00111100000001111001111001011110
10111101000001011010001110011000
00111110000011011001010111100011
00111101001010010100110100100000
00111110001010110010011011000100
00111101000111111000010111111100
00111110000111101010000101101101
00111110001010000111100110111110
00111110001110000110010111000011
00111101111101110101011100001011
00111101101100110000011001001101
00111101011000000011010110001101
00111101100011001100011101111101
00111101101011100000001101011110
10111100101000111101001001001011
00111100100111101101110001110110
00111110000110010101001100110100
00111100110101100000110101100011
00111110001011010110101101100000
00111101101100100110010110000101
00111101010000100001010101111011
10111100100110000000010111100100
10111100100101001101000110101101
00111100100011111000111100100011
00111100101100101000101111110111
10111100101110011110011011000000
10111101001000101101010011011101
00111101010010100000000101010100
10111011110110111001001111000000
00111101111000001110010101011000
00111110010101001110111010111011
00111110011001000110001111101111
00111110100010111100100111101000
00111110001101001001100111110111
00111110100100100100101001011000
00111110100100100011101010000110
00111101111101100001100011111100
00111110100100010001110111001011
00111101010010110111010000010100
10111101101010011111010010001101
00111101110011100111001001111110
00111101001101010100010000100100
00111101111000111000001010011000
00111101100100000101010101000101
00111110011111010110110101111000
00111101100111100001010010100110
00111110010111000011001110001110
00111110001111011000110000010100
10111100100100011001000101010101
10111100010000101100110101111101
10111101010011100110001001010100
00111101001110000000101010010010
10111101100111110001100111101111
00111101110000100001110001000110
00111100111011100110101010111011
00111101001100011010010100000110
00111011100111000011011101010110
00111101100100111100011111011001
00111110001110010111010111100010
00111110001000001110011111010010
00111110010100101011000101110001
00111110010000001011001011111010
00111101100100111101110011010101
00111110001010110101010100001101
00111101110100010100101110000100
00111101100011010110111000001001
10111100001000001000101101101100
10111101011100111001010110010001
00111101001001010001110101011111
10111101000100101101110010010010
10111100110001100010110000101011
00111110000101010010111111010110
00111110000110100000010101100101
00111110001000000110101110100110
00111110011100001101000000111000
00111110000100111110100100111001
00111101110101010111111110101100
00111101011010100111100000000101
10111011100101011000101001011101
10111100010001001010100010100100
10111101001111000101100100110110
00111101100011001111100101011010
00111101100010010010101000101011
10111101110111110110000100011100
10111100111101111100010111011100
00111101110001010000100101011000
00111110010100110110111001110011
00111101110101010010001001111100
00111110010010000100110110001001
00111101101001110110101000111001
00111101111110001010000110101101
00111110000010000000010010001110
00111101100110011101010101100001
00111101101100010110100000000001
10111100010001011001011011001100
00111100110111101101000100011011
10111101101000101110010000110001
10111101101000000000011001110111
00111110000111000010011111100100
00111110011110000000110010011001
00111110000001111110101101010101
00111101101000010000000100010100
00111101000010011100101111000111
00111101100001001101011010000000
00111100001110000111100001001110
00111101000010101000111000110111
00111101101110001011110001010111
10111100010100101101100101110101
00111110000000110110101011010001
00111101111011110111010010011011
10111101010001111010100010101011
00111101100010111101101011111000
00111101111011000101000101001001
00111110001101010001111001110001
00111110010110001001001100000010
00111101000000011011000001110010
00111110001101111011100001011100
00111101100101111000110011111011
00111110100101100100001111000011
00111110100100001011010011011100
00111101101010011101101111111001
00111100101000010011000010010110
00111110000101111010010111111110
10111101011000001011001011001000
00111100010110101101000010011000
10111101011001111011000111101110
00111110011001001001101101010110
00111100001000011011100100101010
10111101011101000101010010111111
10111110010000100011011100000101
10111100000011001100101110111110
10111110000100001101101110000011
00111101001010100011010011000110
00111101111011110100010111000101
00111101110010100101001011111010
00111110000011101110001010000100
00111110010101110011010101000110
00111110000100011110101110110010
10111011111000110011111001101011
00111101100011000000001111110100
00111100001100100111010011101001
00111101110001100001110011001011
00111110001110101101111000000101
00111101010001000100110110111101
00111011011110011100100001011100
00111101010101101111011000111001
00111110000011011100010111110011
00111101110011010110101011011111
00111101011010011111010110011010
00111101110000111101000001111001
10111101100011100101010111011001
00111101001011101101111110110010
00111101010010001001011010011110
00111100110011000010001110110100
10111011000010000110100100011101
10111101100000110110110110100111
10111110001010010001011111111001
10111110010001001100101000001101
00111010100000010100010001101100
00111101101000000111100101100000
00111101101001101111100101111101
00111101100000000011101010111111
00111101000110010001000010100111
10111101100110000000010110010110
00111110000101011000111000011101
00111101000100000100010001011110
00111101000010101111101101001100
00111101101100010010001110010001
00111101111011011010111111100001
00111101100111001011010110110001
00111101000101111101100111011100
00111101101001100101100110000110
00111101101111100101001010100011
10111101001101101001111100001001
10111101111101000000110001101101
00111101010011110101011000010110
00111110010110111110011111010111
10111101100100001000010011000111
10111101010000011000110101001000
10111101011100101010111010110000
10111101100010110001111000111001
10111100101011101100100110101000
10111011100001111001111011110000
00111101111010100101100010011000
00111101111001011100100111000000
00111101111011011100101000010100
00111101010101111100100001000111
10111101001110000101111111001011
10111101111011101100101001001001
00111101000000010101110111111011
00111101001011000001010000010111
00111101101001101101011100010011
10111101000101000011000000000010
10111101010100100011100101011101
10111101001100111000110110100111
10111101011011000100000110100011
00111100110101100110100101001001
00111110010110001110100000100110
00111101101110100001111110000100
10111101101110001001010110001001
10111101110001011111110100011111
10111101111011011100001000100010
10111110001101101110000100111110
00111101110110000000110101001101
10111101100101110001011110001010
00111100110101011011010110011000
00111101001110011100101010111010
10111100010100111000111100000000
00111101010010111111101000001110
10111100101010110100101100000010
00111101010110011011010001101110
00111100100010001101101101001000
10111101000011000101010011101100
10111101110101111110110111000111
10111110001001010111011110010111
10111110100110100011011111000010
10111110011111010011100100110111
10111110001011010111100100101011
10111100011111001111110010000001
10111101010100010111100001110111
10111101000000101110101100101010
10111101001110001111101010001001
00111101100001111010001101000011
00111100001100111001100101011110
10111101110110010111001001011100
10111110001111101010001101001110
10111110011000101110010001000010
10111101110111011010001011001101
10111101010011011111110000110010
10111011111000011111000010111001
10111101001110011110110100110010
10111110000001101111110000011001
10111100001101110111011010000000
00111101010111000000100101110010
00111101011100001100100001101010
10111101000100111000110110000101
