10111011101000010000001001011100
00111110011000010011000111010011
10111110011101110110001100011010
10111110101001111000001100110001
00111110000110001111110100101010
10111110000101101000111111111001
10111110000000010001001010101010
00111110011100100101001001000001
10111110100101101100110110010101
10111110110000111101011001010001
10111101100011110001010010001000
10111101101101110001010101101100
10111110111110110101100101101100
10111110111101100000111101100101
00111101111110011111100000100001
00111110010110000100110101000001
10111110100101110001100011111101
00111110100011111001110111000101
10111011010100101101001001011010
00111101001001000001110100001000
00111110010000101001011000100010
00111101100101111000010010101010
10111111001100010100001110010110
10111110000110001100100101010000
00111110010110010101010110110110
00111110000100111110001011010111
00111110001000111000110000011000
10111110001110110000001001100001
10111101110001010000011110111101
10111110000010010011001101000101
00111110100001000001111011001100
00111101011100111001101111100110
10111110111111100100010110101111
10111110111110101010101000000001
00111110001000111010111100100100
00111110010101001101001000001011
00111011101010010110100010001110
00111101100001101111010110101000
10111110101111010101100011001101
10111110011100100001101110000010
10111110101111101011100011110100
00111101101100000011000101000011
10111110100101010000101101000011
00111110111010000101010001001110
00111110110010000111101010101010
10111110101010000100011110000000
10111110001011110111000010110110
00111110111010011101010010001000
10111110100001001110011100001111
00111110101110101010100100101010
00111101111011110111000101101000
00111110011110001011101111100100
00111101111001110101000111101010
10111110000000001011100000010000
10111110000011001101010101010011
00111101111101101111000010111110
10111101011000110110110100111001
10111110100011001110110111111111
00111110010111001000100000010011
00111101100001010001100110111001
10111110000111100110101110011010
00111110001000011011110100111101
00111110111010110110100111100100
00111110001110101111101000110011
00111101100010000010111110110001
10111110001001010101000000111010
10111110000101010101001110010100
00111101101000111000000010010111
00111110000000000010111011001001
10111101110101111000111001010101
10111100101010101100111111101000
00111101111110110011000111001111
00111101011100111010000001011011
10111110000101001111101101111001
10111110110100001001001100111111
10111110011000101001100011100011
10111110000000011001110000101111
10111110001110011111001010111111
00111110101101001001110111101011
00111101001100100110110001100111
00111110000111001110001100111001
10111111010001000001001100011010
10111111001100010110100001111100
10111101011001100010010000011110
10111111001111000111101011010001
10111110110001001101100101110100
00111110010010100000111011110001
00111110000111010001110100000001
10111101101100110111101110111001
10111101111110111100010101011001
00111110111100001000001011110001
00111110010100001101101011110010
10111111001111101010001010111110
10111110011000000101001101001100
00111110010100100001011110110000
00111110010101100011110111011111
00111110011011100101100101110001
00111110011101110001000001110111
10111110111111111010100110111100
00111101111101011010010110110000
10111111001100101010100010111111
10111100101101100111010011111000
10111110100111110110000111010100
00111101110011011000000110001011
00111110001011000010000101011101
10111111010011101101110001000011
00111110100011000001110010011101
10111110001100111111001001110101
00111110101010010001010000011101
10111110101011001111010010010010
00111110000011011110000010111101
10111110101100110110000110111011
10111110001100001111100101101010
00111101110110111010000100110001
10111110001110100100011110110010
10111110100011101000001110100111
10111110011000001011111101101010
00111100001110000111111110100011
10111110101001111100011101101110
10111110010011111010101111010011
10111101110101110000010100010110
10111110101010111110111100111111
00111110010100110101100111101001
00111101101000100101101001011001
10111110100110101000111001111111
10111110011100011101011001101011
00111101100111011001101101011110
00111110100001010111101000011011
10111110011010101100010101001110
