10111101101001110011010100111101
00111100111011001100001001100000
10111101100101001011101101001000
00111100101110011011001100110000
10111101100001100101110100010110
00111101101000011001111000000111
10111101100100010111110000010010
10111101001111100110101010000110
00111100100011111011110001001000
10111101011000001001011111000000
00111101100000000101100000100111
00111101001110100001001111110110
10111011001011011100011110100000
10111101100001001010011000000101
00111101001011111100001101101011
10111011000110001101000000000000
00111101100000011001111010100101
10111011001010100111010110000000
10111100111001101011010011000100
10111100000010001110110011010000
00111100100100000101101000100000
00111100010011011100110000011000
10111100110100010111011101101100
10111101001000100010111110110011
00111100101000111110101100010100
00111101100010001111000101110111
00111101100100011111010100011011
10111101100011110000000010101001
10111101011001001101100100000010
10111101011001111010000110010110
10111100110001101110111110000010
00111101011111000000111001001010
00111101100110110011001111100101
00111101011101011101111101111110
10111101011111011111000010000010
10111101000001110000011000011001
10111101010101000111111101111001
10111100111010000010011101111010
00111101000101101110101101000110
10111101010111001100001011101110
10111101100001011100010000101011
00111100010011001101100010001000
10111100111110101001010010000110
10111010101110110110111001111010
00111101011110010010000001010111
10111011111010101011100111100100
10111011100001001100110011001101
00111011001001111011011011111111
10111101001001100011101111001000
10111101100000110001000010000000
10111100100101100011010001011100
00111100111111111010010010100010
00111101100001101001000011000111
10111101100110101001111000010001
00111101001000000100110111100010
10111101000110001100000001010011
00111100111000100010001000011000
00111100100001000001101110111000
00111101011011001100110101000110
00111011111100001100011100100000
00111101001000011110100101100110
10111101001001011100010010110101
00111011010000111011100011101011
00111100011010110010111011100100
00111101100010110110011011111001
00111101010001111111111011101100
10111100101010010001000101011010
10111101100001110111010100001000
00111011110010000110001101100010
00111101110011110100111010010011
10111101110000111100101100100010
00111100101101110110011111011011
10111110000010100101110001010110
10111110100011101011110111000100
10111110000001110101111101110001
10111110100001000111000010111110
10111101101000111111110001001100
10111101111010110100011011001111
10111101110011110001010101110001
10111101111000001100110001010101
10111101101010000111010000111011
00111101101110001001011001111110
00111100000011110001000010100011
00111101100110110110001111110101
10111101001101110111111101011110
00111101100111101101100000010111
00111101011001010011111111110110
10111101001010101000011110100100
10111100100000010000010000001000
00111010010110100101011011000001
10111101111110000001010110010101
10111110000010011010000001011110
10111101110011100000011010001010
00111101011011011001110011101110
00111110000100010111111101011001
00111101011010001101001001000110
00111100011000001011110101001011
00111110000010011110010111100010
00111110010101000101010011000100
00111101001110000011111111111000
10111101100100001110000010011111
10111110001000110100001010101110
10111101111111100110100100100001
10111110011101000000010100101000
10111101111001001010001100011110
10111110100100001101100000011101
10111110001011000001100100011111
10111101011101010010110011010110
10111101100100010101011111001100
10111101010101100101111000001111
10111100111001100100101101011000
10111100100100011101111011101101
00111101101000011110011111111101
10111100100110010010101100111010
10111101010110001010100011001000
00111100111110011011001010000001
10111010000111010001110010000111
10111110001000101110110101001000
10111110001010000001010000110111
00111101101001101100100011011110
00111101101101110111011000001010
00111101000111111001010100011011
00111110011111001011001111000001
00111101110001101001101001010001
00111110011011010000000001011001
00111110100000011001101100100001
00111101101101111001001010010000
00111110001000110100111100111110
10111100100000000100101101110010
00111101100000111001010101001000
00111101010000010010000111100100
10111101011000000010011001101001
10111101101011010001101111110110
10111110000101011011000100010001
10111101111111110100010011000001
10111110001111000001001011100101
10111101101010010100010010110110
10111100110001111000110010010010
10111101100000010100000111001110
00111101010100000111111101010101
00111101001010100101111000101000
10111101010101010101110111100110
10111101000110011001010110000001
00111101000000010000111101000110
00111101101100101100111010010001
10111101110011100101010110110110
10111110011011011101010100000101
10111110000000001001011101100101
10111011100001000011101111101001
00111101000010011101110111011010
00111101100110010001100101100011
00111110000010010100110111101110
00111110100010011111000000010110
00111110000001000001110100110011
00111110000100111011111001110001
00111101101110010000101001000011
00111101010010000101110011100001
00111101110010011110000100010000
00111101111110011011111100111111
00111100001001000010101111100000
10111101101110001011010001000001
00111011001001011010100110010001
00111100110001111001100011111000
10111100111100011011111001001010
10111110000110110110010111110110
10111101110010010011000111001000
00111110001001001010001110100101
00111101101011010011101010110101
00111101000000101000101111100110
10111011100001000001111111010000
00111101111111100000111101001100
10111101100100100010011101101111
10111101011110101111110001101010
10111101101010000100011000100111
10111110001000101001001101011111
10111100000000011101010100101001
10111100001101010011100001101100
00111101011110110000110101100111
00111100101001100000011010010111
00111110100011100111110101010110
00111110010101000000010011100101
00111110010000111100000100011100
00111101111110100011000011000000
00111110010011111001100001111111
00111110100001101000011100110110
00111110011011101101011011110010
00111101110100101111010110010000
00111101111001001100000101111010
10111101111110101101100010011110
10111110010111111100100101001000
10111101011000110000000100101101
10111101111001100111000111001011
00111101100100001100101101011010
10111100010110101000110101011010
00111101000011100001000001100010
00111101001011111011101010101010
10111101101000000000010001011001
10111101001010111110001110010001
00111101011110000000111111110001
10111101000100111010111011101101
10111101011010001110000010011110
10111101101110011100011011011010
00111101000100001111100110000111
00111101011110000101011101001111
00111101011010111101010101100100
00111110001111001001100110100001
00111110001001000001011001000100
00111101100100111000111000100011
00111101111110001011100001101011
00111110000111111001011000101010
00111110000100100101110100100000
00111101101111101010010011111000
00111110011011010111010011101000
00111101101000010101101000000101
00111011010101111111111010111001
00111101101011111000010010111100
10111100111010011010100101001000
10111110001101001101100110000011
10111110000001000000010000100001
00111101010010101010101010010100
00111101010011100111000110011011
10111101110000010000111101011111
10111101110101011111100010000011
00111101000000010110101001000101
10111101010111001110111111000100
00111101011101110111101010101110
10111101000101101111001001000111
10111110000010111000110111011000
00111100100001111110100100001110
10111011001011000100001010100100
00111100100111101011001100101100
10111100101011010000101110111110
00111101001011000011101111011011
00111101011111010101000001010101
00111101001000101101101011010001
00111100110100110111101001110001
10111100001110110010110110001100
00111100110110000110011101101001
00111110001101000101010000111011
00111101100100101101010111110110
00111101001100001110010010001010
00111100000110101111011001001111
00111101001000100111011000011001
00111101011100011001011000000101
00111100100011010111101111111001
10111101011011011011001010111100
10111110000001011111010001111111
10111011011000111111101000100000
00111101100101111100001101011000
00111101100110100000111101010001
00111101111000101100101101111001
00111101101011110001110101001011
00111110000001000011111101010100
10111101101011100100001000000101
10111110000101100001100101001011
10111100111001100110000011100111
10111100110100001010011100010101
10111101101100111001001100000011
10111101011010011100100111000100
00111101101010110101101101101100
00111101000011001001001111111010
00111101001001111011000000101011
10111101000000110001100101101110
10111100110110001111100100011011
00111100110001001011010110010111
00111100111111001110000011011010
10111011111001011001100110001010
10111101011010111100110001010011
00111100000100000010110110010111
00111100101011010101011010110000
00111110000011010101110111100000
00111100011000101010010000100111
00111101111100101010100000010100
10111100111010010110100001100011
10111101011100110101001000000001
00111100101011101101110011110001
00111110000101011101100010110111
00111101100010101001101000100110
00111110110001110110000101011010
00111110001010000100011101011001
10111100100110100100111011000111
10111101100101011101011110010100
10111110001001101100011111000010
10111101011101111111001101010010
00111101011110100001111110110010
00111011110010111101001111100110
10111101110110110010000000110100
00111011110011011100000011011110
10111101011000010001101100011001
00111101011101001000111111110000
00111100111100010010111000100010
00111101100001011011000010011011
10111101100100010100111000100000
00111101011011001010011101110000
00111101010111110110001000001100
00111101110010111001001110001101
00111100110000011101001111000110
00111101101100110101110010010100
00111100110010001001101110010001
00111101010001000101000110110100
00111101010000000101101100110000
00111101011010100100111011110010
10111100011010010101011111110101
10111100011101110111011010111010
00111101101000100000101011111101
00111101101001101010100010110010
00111101101000010001111000011001
00111101100001100110100010110101
10111101111101101001010100000010
10111110001000010101011011010111
10111101110010101101100110101011
10111110000111010000111111111100
00111101010010100100100110010101
00111101101110001101001111111001
10111100101101111111110101011010
00111100100110110000110011010110
00111101001011110011101000011000
00111100111111010101011101001111
10111101001011001101000001000001
10111101001111100010100000101011
10111101011000101101100111111001
10111100110101010000111001111001
00111101111011100010111100000111
10111101101010100100011010011100
10111101010011001110011101101101
10111110000100110101111100100110
00111101001010001000000100010010
00111100100111111000111110110100
00111101011000100000101111000111
00111011100001011110111011010011
10111100100110100101001001111011
10111110001010111101111010101110
10111110000011110011111010101011
10111101100011000101011011100111
00111100001101011001101111000010
00111100010111111110100110101001
00111100110111001001010101100100
10111101101100000000110100100111
10111101101111001010111011011001
10111110011100000010100011000110
00111110000011100110110100100100
00111011010000010101111001100111
00111011001001011111010100100010
10111101100110011001101111000101
10111011110001101000111100000111
00111100101011110100111100101111
10111001101101111010000001001011
10111101101100010101011010001000
10111011101001110101111110110001
00111101001101001110000111001011
10111101011111001101101100111100
10111110001100010001101110001011
10111110010001010011001011111001
10111110010111101011100101001101
10111101110110011010100101001101
00111100111001010100010101111010
00111100110100000011000011110110
10111101000000100001101010010001
10111101001100101010000100011101
10111110000000100011101111010011
10111110001101110010100000011010
10111101000001110100011010010000
00111101111100110011011101011010
00111101001100100110000000101010
10111101111001101001000010100010
10111100111110010101100101100010
10111110000011100000001010010100
10111110000110001101101010110001
00111101111000111110110000010100
00111101001000010100000000011011
10111101010010100010110111100100
10111101100001011101101111001010
00111100101101111000000110000000
10111101001111001111011110011001
10111101000110100010111110110101
00111100111111101010010110101001
10111110000000100111100011100111
10111100110010001110101110011110
00111101001100100100010000101100
10111101110101111001100011000100
10111110100000110000001111001110
10111110010001010000011100001111
10111101011110011100011010111010
10111100001111010010100001011010
00111101100111101101100000011001
00111101111000111000111101110111
00111101100000001110010100000100
10111101101111110000001100001111
10111110001000100111100001101011
10111100100000010011101111111110
10111011100100110100011100000011
10111100000011010100001110001001
00111101100111011010000011110011
00111110000011111001110111010100
10111101101011000000100001011011
10111110001110001101001001001011
00111101111000011000001001010101
10111101001000100010011110001110
10111110011010000100001000010011
10111101101111011111111001100010
10111101101010111001010101000110
10111101111110110100000011110111
10111101000010111001111110101101
10111110001000110101111000111101
10111101110100101111010100101000
10111100010001101010101001100010
10111100110110111001010010110001
10111101000101011010010001110101
10111110000100000000100111001111
10111110000111000010000110011000
10111110000100111111100000001011
10111110000110111101000110000110
10111101101001001100001111110110
00111100011111001001010000001101
10111011010010011010000100101001
10111101010101010001010111111110
10111110001010000001110110011111
10111101111000101001101001101001
10111101011000111101111101000010
00111101011101010110001101010111
00111101010010101111010000111011
00111101000110010111001100110000
00111100110000110111001111011001
10111110001010111010010111101001
10111101001010011100101111110000
10111100110010100011011100001000
10111101110001000101001100010001
00111100001111110000001101110010
10111100100011110110100001001110
10111101101010111100100011010000
00111011000001100100011100100100
10111101100000000111011001001110
10111101111000001010111111000001
00111101100100100001100100111111
00111101101001111111110110101001
10111100110001111011000110101101
10111101110000111110110000000110
10111101100111000111000001101110
10111110010011100000101101001011
10111101111100001000010000110100
10111110011110011111110011100010
10111110000110100001000111100111
00111101011111001000001110011110
10111101110101001000111100110111
00111100010101000101110010001111
00111101110100100010010101100111
00111100110111101011111000111101
10111101000100011001010100100101
00111101110001111001111101001001
10111110001001000111000111010010
10111100110100110101001101000010
10111101100010110001001101100011
10111101010101100111111101011011
10111110000010110010011000111000
10111101101001110001110010010100
10111101110100011100010000011111
10111101011110110001111101010010
10111101101101111000101001100000
10111100111101100101110110100111
00111101010100110010101010111101
00111101010011001110011101110101
00111101110100010000011011011001
00111110000010011011001101101000
10111100010111011101010011011001
10111110000101110001001001001001
10111110001001100011001101000011
10111110011000011110101110101010
10111110011001010001001111001010
10111101111011101101000101111111
10111100111111000101110000101000
00111100011010101111011101100010
00111101000100100010001011001001
10111101000000101110001101011001
00111100110100011110000111000101
10111100111101110100001110011100
00111101001011000101100110011110
00111101011101001000111001011010
10111101001111101110100010110001
10111101110011110011000101111100
10111101001110001011100100010101
00111101101010111111001110111110
10111101001111001011010100110010
10111101100101101111011101010010
10111011100000000000111001001001
10111110000111011011111000111101
10111101100010000101011000010100
10111100101101000110001110111101
10111101011001100111101100100100
10111101000001101011100100100000
00111101110101001101101000010000
00111101111111000111101100100100
10111101111010111100011000000011
10111101101011110011111110100001
10111101110101010100110111101111
10111110000100001111000101000011
10111110101000001000110100110000
10111101110101100010001011110110
10111101001110101010000001010111
10111100101101100011000110101110
00111100000011111100100011101011
00111101000000010001101000000110
00111101101011010110100001110100
10111011111000100011000111001010
10111101111010010010111110111010
00111110000001110100010000000011
00111100000101001001000110110101
10111101010010011011111011101111
10111101100000101000111000101011
10111011101111111011010001101000
00111100100111011000000001110001
10111100101010110001001101010101
10111101110000110010110010101110
10111110000101110000001101001101
10111101101011110110111010000011
10111101110111110111100101000011
00111010100110111111010000111010
10111101001010101111101010000010
10111101110010011000001000010001
00111100010000101100011011000111
10111110001101000101001011001100
10111101101010000100010110111111
10111101001000010100001000110101
10111101101000100100000101000011
10111110001010101001000010101000
00111101010000110100000111111111
00111110000111101010100101111101
00111101000000001000001101100101
00111100100110011001101011001101
00111101110000101000010001110100
00111100111111011001101100101101
00111101000011110110110000011000
10111101100010000101111011101111
00111101100101001110100010111101
00111101001100011111001110111111
10111101001000111111000000100010
00111011101110111111000111000000
10111100101101101110001111111000
00111101010110100001110100110100
10111101110111111011000101111000
10111101010111000000110010110011
10111101111010110011010101010110
10111100100100110011010001100010
10111110001001110110011100001110
10111101001101101111000001100111
10111110011000001010101101011011
10111101110111111111101100100010
00111100111101101011011000001011
10111110000010010100110001000111
10111101101110011001110110010111
00111100101101011001100101100000
00111101100010110111011100110110
00111101011100001110110110010001
00111100000001110000111100111010
00111110001101011011001110000011
00111101100011111110111011010111
00111101100010010110011110100101
10111100010010100000001110111110
10111101000011100100111010100100
00111100101000111110001111101100
00111110000010110111100100100011
10111101011111011111111010110010
00111101101000110000010000010111
10111101010000111000011001111011
00111101111111011110001111000100
00111101110100011100101001100110
00111101110001110011110111011110
00111101110101001001011010110110
10111101101111101000100111011001
00111100111111001010110101000010
00111100111000011100001100100010
00111100010100000101101110101000
10111110000100110001011011111011
10111101101101000100010101101100
10111101110010000110101000010110
10111100101110101000011000101101
10111101110010100001100100100011
10111100110011100100111010000110
00111101101001001101110100111000
00111110001101000000010101000000
00111110010000111010000110010111
00111101101101110001100101000110
00111110000101001110100101100000
00111110010000001011011100111001
00111101001100100101010111110001
00111110000010001011000101001101
10111101100100001110101110011111
00111101101101101100111010111100
00111101100010011100110101001001
00111100100111111000000000010000
10111101101010011101000001000111
00111101111100000011001010011100
00111110000111101011100111101011
00111101100000010010101000001100
00111101110010100100111010000111
10111100101100010100111101101111
10111101100000101111101011111010
00111100110011000101101101011010
10111100011100111111011011100001
10111100111101010100001010101100
10111110001001111001111001101110
10111110000101001000011010011010
10111101000111101010000011000111
00111101110011110010001000100101
00111110001000001111000111100010
00111101111101001110011000111001
00111101111101100110000011100111
00111110001000101001010011001001
00111101101100011101001101001000
00111101110111101110010111100110
00111110010111111111000110011110
00111110001001110110001101100001
00111110100100100101100000011010
00111110010110011001111111101101
00111110010100110010001001010001
00111110001000111110001111100011
00111110001011111001111101111001
00111011111000001101001000101010
00111100111111101110111000011100
00111001110101101011101001111100
00111101101100110010011000111100
00111110100011010011111101001100
00111101111010110001101100101110
00111101001001111101110101110101
00111100110001001001101101110000
00111110000111111011001010110000
00111101111011101110010111000000
00111100101001001111110011000101
00111101011000111011110100010101
00111110000011000011000100000111
00111110001000100000111000000000
00111110000001010000011010100001
00111110011010011001011100101000
00111110010010011010111010100000
00111110001110000101011000011101
00111110000011001110010111101000
00111110001010100100001110111001
00111101100101011010110100011110
00111110000100010000000101011100
00111110000000110001101010011000
00111101111111001110101111001000
00111110100001010111001011111010
00111110000101001011011100101011
10111011111101010011000101101101
00111110000101001101100101110111
10111101000010010011100010011110
10111101011000100110000101110110
10111101010100001110101110010010
00111101101011010000100101101010
00111110100011001101101101111010
10111101010010111110011101100001
00111110000001010001110010000101
00111101110111101101011111010110
00111110100001101110111100011100
00111110011101101011110101000101
00111110000111000000011011100011
00111110010010101110111111000011
00111110101101100111001100000100
00111110100011101011010001000100
00111110100011110111111010011001
00111110010011001010101100010101
00111110101001001101101100011101
00111110001101001001110110010111
00111110100101000100100001111101
00111110001000101101110011111011
00111101110000100100000011100110
00111101100000111001010001100100
00111101110011100110011000101111
00111110110011010000101110010011
00111110010001110010111001011110
00111101101100001011010101000100
00111101011110101111100010011001
10111101011001010100101110001100
00111101101001011011001111011001
00111100010100100001100110111000
00111101000100001010111101101110
10111110001000111011011100010001
10111101011000010101010110110011
10111110001100000011101100011000
00111100111001101001001110010010
00111110011010111110110011100000
00111110000100010001101001011111
00111110100001100100000101001000
00111110000010011101101011111111
00111110100000010010111110110001
00111110100101000011101101110110
00111110101110100001110010000000
00111110011010000110111100000100
00111110101110110010010101101100
00111110010000110000110101110111
00111110010011000101111011011101
00111110000001111001110110111001
00111110011111110110001000101001
00111101010101000111111011001001
00111101011001010010000100101000
00111101010100011011010110101011
00111110001100111011010101111000
00111101111100001000001000010111
00111101101010011000111001001011
10111010101010111011110111101000
00111101011001110111111000010110
10111101101001011010111100110110
10111101000101010111001111010010
10111101100000000110100110101100
00111101101001001110011000101110
10111101001000001001001101001010
10111101111111111011000100001011
10111101000111100010110010111111
00111110000001101010000101111101
00111110010110011010110110011000
00111100111001011011001101111100
00111101100100100011010101100110
00111110000100111110011000101110
00111101100011000110100101001010
00111101100101110010001111001111
00111110010101001100110110001010
00111101111100100001011000100011
00111101100011011111010101000010
00111101110010010001110111101001
00111101001111100010110100110001
00111101011111101100001000000011
00111110001101011011101010100010
00111110010010100110000000110111
00111110000011111111000011100011
00111101101100000010100101010001
00111101010110101110110110010000
00111101100111010010000111101010
00111101110000000101100011001001
00111110000000011110010110101001
00111101001100100001011011011010
10111101010110000100111001110010
10111101100001010011110011111000
00111101001101000111010010000010
00111100111101000000110101101100
10111110001000010001011111011001
00111110000111100011101000100101
00111101010001100111110110010010
10111101110010111010010010010011
10111110010110111101001111110011
10111110001000100001101101010100
10111010101010100100000110111101
00111110001000100111101110100100
00111101010000101100101011111011
10111101010010010110111110001000
10111110001000111110011100010101
10111101101111111011011000110110
10111101100111010011101010110000
10111101100001111101010110010111
10111101101001011100111001101011
10111101000001110011010011110111
10111101111000010011111111011111
10111101110110011100000010101111
10111101010000010101010101000001
10111101011001111011010011010001
10111101011100101111100011110100
10111101000110100110011100110000
10111101100110111100110101010100
10111011010010111110000100100000
00111101010000000110110111010110
00111101101000001011011011011001
00111101011110000101011001000110
00111101100010000000001000111011
00111010101110100100111011001111
10111100101100101010101001000011
10111101000100000101111110101001
10111101100001100100100111010011
10111110000111010111110001110000
10111101111110000101001001100010
10111110011001110010010000111000
10111110000110010000110100010011
10111101100111110001011100101110
10111110110101101010111100000010
10111110111010001101100110010100
10111101100110101000010011101111
10111110001111111000011011100110
10111110101000000010111000000110
10111110010000010110000000100001
10111101110111000010011100101001
10111110001011010011011111000001
10111101100010001100001111000101
10111101101111000110100011111010
10111110000101001011000100011000
10111101100101100110100000011011
00111010101000010011000101000000
00111101101001000100101001110011
10111101000010110101101110101100
