00111101110010101111110100010111
10111101101001000011100100100110
10111101000011101110100001100110
00111100000100000010111110001000
00111100110111010011011100101100
00111101101000000100000001011011
00111100101101101000110101000100
00111100110101111100111001101000
10111101101001000111011000001110
00111101100010011101000011110101
00111101011110011000010010000010
00111100110000101110000000000000
00111101001000001010100101110000
00111100100000001110111011101000
10111101001111101001000101011010
00111101100010101110000101011111
10111011110100100000011001111011
00111100111011011010100110101100
10111101101001001010100111101010
00111100101100101110001010111100
10111101000111111101011110110100
00111101011110011000101101101110
10111100110000101001010101110100
00111101011011100001110110011010
00111101011111110111001100010010
10111101100100101111100011000110
10111101010000111010111110101101
00111101001110001101100111100110
00111100000100100010100010001000
00111100111000011100101101111000
00111100110100101101001000101100
00111101000101110001000110110110
10111101000110000000001010111010
10111101100011110010001101000000
10111101100000000111011100110100
10111101100000010010111111000001
10111100110110110001101111001011
10111101100100100001010011101010
10111101000010010010110110010111
10111101001011000110001100101110
10111101000011011110100100000010
10111110001110000011011010010100
10111101111010011011011110101110
10111101111011000001001110100010
10111100100100101010111101100101
00111110001110000001100111011001
00111100011100100111101110011011
10111101101100110110000111101110
10111110010110001011011111101001
10111110000111010100000011001000
10111101101111110100000101100000
10111100010101000010000010001011
00111101001011100100111111110100
10111101011000111000100101011111
10111101100001110010101001111010
00111011100000011010110100000000
10111101100000001000110000100000
10111101001010110001010000111100
10111101000111001001110101110011
00111101010000101010101100000110
00111100101110100000010111100000
00111100011111100010101110101010
00111101011101101111101101010111
10111101100000010101000110001000
10111100100010000000001011101000
10111110000101011111111100000011
10111101110001000000001111010010
10111100001111010001001001101011
00111100000010010101000001011010
00111101111101110101000100110110
00111101011011101011001010010000
00111101101000100010000101000101
00111101110010110100110001111001
00111110010000110100001011010011
10111101001000011101111111000011
10111101101111110110111110110010
10111110010010011000111100010111
10111110001110010010100000100011
10111110101011010001001110000100
10111110010111111111000100110101
10111110001110101100110110111110
10111101101100100100001101101100
10111101000001111001110110101111
00111100010001101110011010111000
00111100101100101011010011010100
10111101100110010110000110001011
00111101100000101101101010001111
00111101011100100011110111000010
10111101100110001011111010110111
10111100011111111101000001001001
00111100010011110011111111001010
00111101110111101101010101111100
10111101011111100100000011010111
10111101100011001100111001110011
10111100101100101101100011100110
00111100100011011101111011101010
00111101111000010101010011000111
00111110100100001000110111000111
00111110100111010000001101101010
00111110101100011011111000010110
00111110100100010001001001000100
00111110011110110100010111111110
00111110001100100001110101110110
10111101000011011100101110010001
10111110001001101110110001100110
10111110101000000010111100111101
10111110101100010001001001101010
10111110100000000010101111010110
10111110100100111011101111110000
10111101111101000010001000001000
10111110000111011000010111000010
10111101000111011010110110101101
10111011000110001010110110100000
10111101011101000101100100100110
00111101001100001010100000001010
10111101011101101011001101010000
00111101111011010101011111101111
00111101000100101110101111000111
00111101011111010100011111101101
00111101100011111010100010100100
00111110010011010000110011000110
00111101011100101000010000111011
00111101111101111110110100100001
00111110011000101010000101101100
00111110000111010011011010001001
00111110010100100001001101100011
00111110011001110011111110000101
00111110010110110011100111010101
00111110001001111101010110010101
00111101111100100100110110110011
00111110001101011111111111011000
00111101100011000011010010100111
00111101110100101101100101010100
10111110000110001101011001001000
10111110011100011011110100111000
10111110000101100111001101011111
10111110110000110000110010111000
10111110011110001001001000000010
10111100010000000010111111001010
00111110001101010111101111000000
00111100101011000100001111100100
10111100101100001100100000000000
10111101010001000011010010011110
00111100111000000000001111000000
00111110001010110011000011111000
10111101001111001100010011010111
10111101110011001110010011010011
00111101110000100100010000100111
00111101001000101111110101011111
10111101111000000010101011101110
10111101100111100001101011111011
10111101110101100011111111001011
10111101110001100010100101101101
10111011000110011010111011001101
10111101001110011111101110110101
00111100000111010011100110100000
00111101001101101011010111010111
00111110001000100111000111111111
00111101101101010100011010101010
00111110000001101111011010110110
00111101100111100110100110001001
00111011110110010001011011000110
10111110010010111010101000010100
10111110010111101001010101111101
10111110000111001000100011110010
10111101111001001000000001111011
10111001101001000010110001111011
10111100110100011111000011010010
00111101100010011001111011100110
10111011111011000001000111010000
00111101001100110110100111111001
00111100111111111101111010110101
00111011101100001010100011111000
10111101100101000011001010110010
00111101011111111100010101000100
10111101000101000110101101000101
10111101111100111000011001100111
10111110001101111100110001110110
10111110001000100010001110110001
10111110010100011010001011000011
10111110100001100010000001001001
10111101111100000010000001110000
10111101101001101100000100001111
10111101010000011000010111010010
00111010110110101010000000011001
00111110001010010111001000110001
00111110000010010110011101000100
00111110000000100001000001000111
00111011010000010010000100111011
00111100010000110101110010111001
10111101101000011001001000010100
10111110010000010001111101100011
10111101000111001010001111100111
10111101010100110000110010101101
00111101100100101100110100000101
00111010101100110010010101100000
10111101001100010000011000001110
00111100110100110101101000011100
00111100011111111000011011110111
10111110000110110111000101110111
00111110000100010101010000101001
00111101010011011110001010101011
00111110000011000010000100010101
10111101110101110101010000011011
10111110010001111100010011011010
10111110000111111110010011011110
10111101111101100101110100010101
10111110000010101001001010100111
10111110100010001000011101000111
10111110011011100011000000011111
10111110010111001111001101010110
10111110010000010000011000011111
00111100110110001001010010100110
00111110001101101101011000010110
00111101101011011011111101010000
10111011110000111111011110001010
00111101110001011100010101100110
10111101100000101111001110101101
10111110011101010111001010001110
10111110010000110111110101000110
10111101001001010111101000000011
10111101001010010001011111001011
10111100001011110000000101101110
00111100000111011100011010011110
10111100111011111100010110100001
10111101000001111010010101111111
00111101101101111100101110001100
00111101100101000110000010000010
00111101010000010010111111110010
00111110001110111111111110001011
00111110001000110010010101010111
10111101101101111101001111010011
10111110100001001001010000010000
10111110011011001110001010000110
10111101110101011001010110100110
10111101101011100111000000010111
10111110000001011000100001001101
10111110100110011001110000000011
10111110110000011010001101011001
10111110010011100110001101000110
00111101101101011110100000000111
00111110000010011100110001100101
00111110001101101010001001100011
00111101000010010100010101101001
00111100110001010000101111011011
10111110001011110111100011110100
10111110101000101101110101000100
10111110011000100110110100010111
00111100001101101001001001110110
10111101110101100001011000101001
10111101110110100010001100011110
10111101000010110001010011010110
00111101000010100010011011100000
10111101001001000000101000110110
10111100100000010001111000011111
10111011010010000000111111100010
00111101111100111101010111010001
00111101001000101110011101101111
10111101011001010010110111100001
10111101100110010011010001011100
10111101101011100110110101000111
10111101001011100110101010101011
10111101101110010010111100010011
10111101110000010111011100101110
10111101100110100001000011011011
10111110010011000100000101110100
10111110100010100000111110011011
10111110010000000000001001011010
00111101010100110110101110011111
00111101111101010001000001110100
00111110001001100111111101101101
10111101000111000000000010010101
10111110001000010101011000010111
10111110000101010000010001000011
10111110010110000110111011111110
10111101010101010001100101101010
10111101011011010011101100010101
10111101110000010111001001001000
10111101010010100010010010101010
00111100111000001110110101101110
10111100110000011000110011010100
10111100000011000010011101010000
00111101100110110101110100110010
00111101101001011000001010011101
00111101111010101001010101011101
10111100010100010100000101010000
10111101000100111100110100001000
10111101101111001111000101011010
10111011110110000110011111101101
00111100111011111100111100001110
10111110000101010000011011001111
10111101111011111010100000110011
10111101111110001000010110001100
10111101011100110111110101011100
10111110100111001111010011000111
10111110000011000110101000010000
00111101001100000111110100011011
00111110001010000101001001001110
00111101101100001011011110100101
10111101101101000000011110111010
10111101110001010101111110100110
10111110000101001100001110000010
10111110010001011001001011101111
10111101010100101001000111101100
10111110000011101111110001011111
00111101101110011110010110101000
00111110001101101001010000100011
00111110001000001010111010000110
10111100100000100010000101111000
00111101100101111010101000101011
10111101100001001010011110010110
10111100100011100011111001001100
10111101100010111111001010011011
10111110000101100110010010010011
10111101101000001010001010110000
10111101100000110101101000001011
10111101111110000000000011001100
10111101000001100100110011100111
10111011111001010000101000001000
10111100110100001100010111111101
10111110000000111101001001010111
10111110100010111011111110100100
10111110010110110010000000000000
10111101101000100101011111001001
00111101100111101110100011011000
00111101000101011101011111000100
10111100101110110011100001010010
10111110000000110011000000110010
10111110010010101010111011010111
10111110000100000100010111101101
10111110011011011100011111011100
10111101010010010100010100101101
10111101110011010110101110111111
10111101100100111000111000101000
00111100111001100100100000100110
00111101000010011110010110011111
10111101010101101110011110111000
00111101001100100100111111011010
10111110000000011111001111010101
10111101101010100011001001110001
10111100101000111110100111110110
10111110000101000101101011110110
00111100011110011011101110000001
00111100111010111010011110010110
00111101010010000101010110011010
10111101000101000011111101101010
00111100011000010011000111001100
00111101111110111100000000000010
00111101101010111100101010101100
10111101010101110101111111010010
00111101100000111000101101011110
10111100100100100011001001110001
10111101010001100111000110010010
00111101100011101100010011001001
10111110001110111100000100001001
10111101100110010001011011001101
10111101111010010101011110001011
00111101000000010011010111010011
10111100111011001011011100100100
10111101100100100011000110111101
10111101100110001000100110111110
00111101100010010000101000011110
00111110010100001100110100100111
00111101110001001011101001010110
00111100000101100000101100000000
10111101001101001001111001001111
10111100011010110010010000000011
10111101010110010001111100110101
00111100110011110010101011110101
10111101101110101001101110100101
00111110000011100101101010111010
00111110001011111000000000111110
00111101000000101101101100100101
00111101101110010111010101011011
00111110000010011111101111011111
00111101110100100001000101111111
00111110000001110101011001100011
00111101010011111001000110000100
00111100101010100000100100111010
00111100100110011001100101011010
10111101000101101100011011111101
10111101010000100000101011100001
10111011101100100101101100000011
10111101101110100011010110100000
00111100001010111011111111100101
00111101010100001110100011101011
00111110100010101111111111001001
00111101101110001000001110111111
10111100110100101011011011110000
00111101100000011010100111001100
00111101110011001110010010100111
00111100100011000000101000111010
10111100001110101100001110011000
10111101100101111010010010101000
00111100101111111001010110101001
10111101110101111001111101001101
00111101000010111111111101001010
00111101101111110111111101111101
00111110011100100001001101100001
00111110100101011101010011110000
00111110001101011001100000110110
00111110001000000011000000010000
00111110010011100111101010110110
00111101100111010010001101001011
00111101101011111100010101001011
00111101001110100101100101001011
00111110001100111110010011111110
00111110000101000110001001000111
00111110001001111110111011000000
00111011101101001010110110010111
00111101000101101111110000110111
10111101110111000010000101100000
10111100000110100100101101001010
10111100100010011110010101101011
00111101110000100000110011101010
00111101011111100000010011010010
10111100111111011111011011011010
00111101111000001100011111010111
00111011110101110111111110001100
00111110000101000001110011100010
00111101010001010100111001001110
10111101011101001011001000000101
10111100001001011001000011000001
00111101100001101111100110010001
00111110011101101011001011111101
00111110100101101000010111001000
00111110100001101100111111000000
00111110100000011110000011000110
00111110011011000111000101111101
00111110000011101100010101100110
00111110000010001000111011111101
00111110000111011100010010000010
10111011101001010010100011011100
00111101110001111101110111101110
00111101110111111011100011101100
00111110010101001101100101010011
00111110011011000010100110000111
00111101101011101101010001011000
00111101110010110010010011101011
10111101001100110100000100100010
00111101110110011000100010101100
10111100111001111011011111001001
00111101010100110010000111110110
00111101110111001010001110000110
00111100100010001011110011101001
00111101100011010011100111011001
00111101101000011010111000011011
00111110001011001011110010010101
00111101100100100001001010100011
00111011110011001110011000000000
00111101011010110000110111001100
00111110010010000001010100110011
00111110000011110011010100110010
00111101111001110000111101111100
00111110000011100000001010111101
00111110010100100100110111000000
00111110001111111001100011000001
10111101011011111110110111110100
00111101101100001110011101001010
00111101110101101000011110000101
10111010100010111010100001111100
00111110001101000000001110010100
00111101101000000011010111100001
00111110000001111101101001011011
00111110000001010011010100000010
00111101011010000100010010001100
00111100011101100110011101000000
00111101110000101011110111011001
00111101101101100111000000101111
00111110000010001111000111010110
10111100100001111110100001000101
10111110010000111100111111101011
00111100110001001000111001100110
10111101011111111010110011101000
10111101100010101001110100101011
00111110010001001111001011011001
10111101100101000010110000010111
10111101000100010100100100011000
00111101111101100111000101000011
00111110001100101101101001010000
00111101011000010101011101100011
00111101000101010011001101000011
00111101100010000100110011100101
00111110010110101000000110100011
00111101110000011010101010000011
00111100101111001111011111010101
10111101110010101111000010001011
10111101101100100010001101000110
10111101111100111000001101101110
10111101111101000000110110111100
10111101001101000100100000001001
10111101000110010001101011001111
00111101010011110000101101001101
00111101000000001010001111101011
00111101100001101000000000001000
00111110000011010000000100000110
00111101110010010100110000000100
10111101100100111010001110110110
10111101101111011011000011111101
10111101110101110111100111011101
10111101100001101100000011011100
00111101100011111111111110001001
10111101101010111010110110100110
10111101100010001001101011111101
10111011100010100000001011110011
10111101100011111110100100000000
00111101111010100101101011101101
00111110001110001101001111011010
00111101111000100000100001111100
00111101010100001101001010110010
10111101000001110110111100110111
00111101111111011011000100001101
00111101010111001111011100111010
10111100010101101111010001100000
10111101110100011101011111000111
10111101011110111110111101110011
10111110000000000010001100111010
10111110100000000101011001101001
10111101101111110011011011111011
10111101110001000011101000001011
10111110000010111101001001011011
00111011000110010110101101111101
00111101100101110011011101100010
00111101001001101111101100101010
00111100110000100000110001100011
00111100011000110001000010100101
10111101010100100100010010001110
10111110000001011001110101110100
10111101001101100111100101010000
10111101101101010000110000010101
10111110000111101010010010110010
10111101100110111100000100000010
00111101000100100010000110110001
10111101011110000100110100000100
10111101011001000011001110010110
00111101100010001111110100111110
10111101001011001111100001101101
10111101111111000001100011000100
10111100011011110011111001110101
10111101101011010000000010001111
10111101110000101101100010000110
10111101110000110101110100001010
10111110010001101110010011011100
10111101110111100001010111111111
10111101110010000101101110001110
10111110011110011000111001100111
10111110010010111000011110101100
10111110010000110000000111100001
10111101111000110101001000010011
00111101110111010100011100111011
10111101000111001011100000011101
10111100111111100011011011010010
10111101011100001101101100110000
00111101100001101001111100001001
00111101110000010010010111000110
10111110011001011111100111111011
10111110000111010101100011111100
10111110011010001001110001101001
10111110000001010010010011110111
00111101101010010000000011110101
00111110000010111001110101101111
10111101000111100101101000110011
10111101100010001110111011100001
00111100100100000010101110001110
10111011101110010001100101111100
10111110000101101011001111010010
10111110010010110011010100110001
00111100001111111001100101110010
10111101111101011110011001000000
10111101101011110010011111001111
10111101100010100011010001001000
10111110001010110010101001101001
10111101111100010101000010001001
10111101000101100001011000100001
10111110000100001001111100010110
10111110000000001001010110001100
10111100110111001011011001100001
10111100000100110110001010000100
00111101010101011110101111000110
00111101110111011111101100000111
10111100110100100000001110100000
00111101101111000110101101001011
00111101010100001011100111101101
10111101110101111101100111110111
10111110011001111100100000101011
10111110001001011011011100010000
10111101011001101101101100010100
00111101011010000011011100010011
00111101100111010001101100100111
00111100111010010010111111011011
10111100110010101010001001100100
00111101100010100010011010000101
00111110001000010110010100011110
10111110001000110110001010110001
10111110100100111011011100001101
10111110001101001101100011111011
10111101101010011000100000010110
10111101101110111100001000101001
10111110001111000010100110010001
00111011101100010011111101110000
10111100101011011000110110000010
10111101100010011010111000001010
10111101110101001010001000000000
10111101101100110001110111011110
00111011011111101001111100101111
00111101001100000101001111011110
10111011000111000011101101000101
00111101110001110000111101111101
00111100010110001111101111011001
00111100101111001001011100100111
00111101110001101001110110111100
10111101000011111010101011010111
10111101001111011110000000111101
10111100000101111010100110010111
00111101111100100111111100011011
00111110000110000011111110111100
00111100101000000010000011111100
10111101101011000011011110011010
10111101000010101110000101000000
00111101111100010100110110101111
00111110001000100111010101001010
10111101100100100111010001110101
10111110100100011100100110000110
10111110011011100000110010001011
10111110010011100111010000001100
10111110000001110100100001000001
10111110100000001111011001000100
10111110000111000100011110010010
10111101010001101010000100000000
10111110000110110001111000011100
00111100001100101010000011000001
10111011100010101100111010100110
10111100001110110111010100000010
10111101100111110101010111000110
00111101010010010011011001101001
00111101011111000000010101110000
00111100100001111010000000011100
10111101001001000000110010101000
00111101101010010111010101010101
00111100011111001111010010010110
10111110000100010111010001100100
00111101111001100111101110111001
00111100010000110111111000011111
00111101101011100101000000000011
10111101100110011101000001000101
00111000000000110101000000000000
00111100110001011010010100000100
00111110001111010101010111011000
00111110010100001111000101000110
00111110000010000010110000001111
10111011001111111010100111001010
10111101011110100111100010110111
10111101100101101001011100000000
10111101011111011110001111101001
10111101100110011000010011110100
10111101001110111100110110001110
00111011101100001000101100111111
00111101000000001000111111000101
00111101101001010001110011110101
00111101111011101110111011010111
00111101000011100101001010001111
10111110000111001000010001110100
10111101101011001110110010010110
00111101110101111010000110011011
00111100001011001000001110000001
10111101100000011011011111101110
00111101111101101101001110111100
10111101110100111001001111101010
10111110001100011111100101000001
10111101101100100010111111010010
10111101011110000000111111010011
10111100011100111110110001010010
10111101001100011111110010111011
10111100101011001101001010110000
00111101000000101001011001010100
10111100111011010001010100110111
00111110001011111111111110000100
00111110001000010111001001010010
00111101001000111100110111111001
00111101010001101010010001110000
00111100110110110111011011110100
00111101111101000000110100110010
00111110001101011001110101001011
00111101111000101010110100111011
10111100111110100111011000101001
00111101001100001111111011111101
00111110000100010000001011011011
00111101101101000001001110000110
10111101110011100000111110011001
10111100011111011101110011000010
00111011110101000101001000110011
00111110000010100101111001011110
10111101011001111010111110011001
10111101111000000111000110111111
00111101001000010010111010110011
00111101000110111110001111010011
10111110001000101010011100011010
00111011101100100110011100001011
00111010001110001000001001100110
00111101111100010110100001001110
10111011001111101011000001100000
10111100111101010111011010011110
10111101100100010011010001110011
00111101011001101100000000000011
00111101100001101101110110010011
00111110001011010001101001100000
10111100101001000101100100111111
00111100110000000011001101010000
00111101001000001101001010111001
00111101010110000111011101010000
00111101101101110111010101110110
10111101001001010110100000110101
00111101101001001011010100101100
00111100110101101110001011110011
00111101011010110101000111010101
10111101000010100011001101001111
10111011011101010010010100101000
00111101010001011000110011110001
10111100110101111100101100000000
10111101010000010111010110111100
10111110001110001011110010100101
10111101110010010111110101100111
10111101101010001001111100111000
10111101110001111010000100000100
10111101110100101100011010000110
10111101011100111001010110010101
10111100100010010101011001010101
00111100110110111011101001011101
10111100010101010101010111001000
10111101001000010110000101111010
00111100100100000100010110111000
00111101010101010100011101101110
10111101101000001111011010111100
00111100110100111010001011110010
10111110000001000010011000001000
10111110001011101011101011100011
10111101110010111100010000101011
10111101001011011010110010011101
10111101011010001011000111000100
10111101111000000010011011010000
00111101001111100110101111001011
10111110010000000010000100001010
10111110010001100101011111101101
10111110100111001011001010110000
10111110000011110100010010100100
10111110101010001110100011110010
10111110010110111001100111001111
10111110000000000101010010111000
10111110010110110000011001000000
10111110010111110110101111000001
10111110001011000010101010010100
10111110010011100100011101010000
10111101010100101101010100010101
10111101010110111011100100010110
10111011010100001111111110000000
10111100110111011000000100000110
00111100000011111001001100000000
00111100101000101011000100100000
10111011101000101000100011010000
10111101011011101000110101111000
00111101011111101011000010001010
00111101010110111001001010010010
00111101000110000111110010110010
10111101100111000001111011011111
10111110000011111101100000101100
10111101100000001110010111010101
10111101000000100101010111110101
10111110000001100001111011000110
10111110000110110111101001100000
10111110000000011001101010010011
10111101110001101000000011010111
10111110010110110001101010010000
10111101001100010000110010000011
10111101110000000010110111001011
10111110100011001010101100100010
10111110011001111001100000111011
10111101111100010100011110101011
00111101100000000101101011001111
00111101010111010111010111001000
00111101010001110001010010000010
10111100101011100011111100010101
00111101100001010111101110000001
00111101000111110000001101001100
10111101100000000100000101001000
10111100100101110011011111101000
