10111101101000001110100000111010
00111101011001101100101001101010
00111100111100111010011001011000
10111101000101000011101000111010
10111101010101001110101010011010
00111101011001110100010010101110
00111101100111100111111100001101
10111101100011010010100111011000
00111011111101010100000010110000
00111101001101011111001010110010
00111100111111011011100101101100
10111101100111011110011111011101
00111101000110001101011000100000
10111101100011101110100101010101
10111101111101101001101110101111
00111100100101010001000010010010
00111101001111110101001110001001
00111101000110010000001110101010
10111100110010111101111110010100
10111100100001010110010011111100
00111010101111000110011100000000
00111010101010011110010001000000
10111100011011100000111010001000
10111101000101100101000000001110
10111101010101100101011010011010
00111100110000000000011001110000
00111100110100000011011011001100
10111011100011111001101110010000
10111100010001000001011110000000
10111101000010001111110100101011
10111100111011001010100011010110
00111100011011001011111110111000
00111101001101111100000010000110
00111100110011000111000001011001
10111101101011011101000100110000
10111101100100010011000010111001
10111101101011100101110011110101
10111110000000110010100111100011
10111110000100011111110111010111
10111110010100010001101111101110
10111101001111110111000111000011
00111101000110100101111100001100
10111100001011100001100111111000
10111110011010010100010001011011
10111101110001110010011110001111
00111101001111110110001101001110
10111110000000001001101000100001
10111110001100111110010010001011
10111101100100101111000111100010
10111101111111010101100000000001
10111101110110110011010001000100
10111110000010000100010001110110
10111101110001111110100000111000
10111101100110001101110011000001
00111101001101111011011011011110
00111101100110011000010001111001
10111100011101011001110000111000
10111101101000010100010010100100
00111100101100011010111001011100
00111101011010001101111101100010
00111101110010100000001100011001
10111101011110101100110111000000
10111110000101100000010100111111
10111101111111010011111101111100
10111110000011100010000010110010
10111110100001001010011111000110
10111110001010001101001111100010
10111110010101101111000011001001
10111110101110000100010001101101
10111110101010011100010101101100
10111110101100001101011111100001
10111110110100101000101101011000
10111110100111110010000001111010
10111110001111011101100011101001
10111110001110001111001101111010
10111110100101011001100000101100
10111110011111000000010000011010
10111101100110101001010000100001
10111100110111001101010011111100
10111101001100001010010111111010
10111110010010101101100110001011
10111100010010111101001001011100
10111101010011101001111000010000
10111101000100011101100110011100
10111101101000011101001001111001
00111101011111101110001001000010
10111100100000011000010001010000
00111101000101110101011000001110
00111101010100100010110110001010
00111101000011111001100100101101
10111101011100011001001111100000
10111110001010110111010000100010
10111110001110101101100100011111
10111101000010011100000010111011
10111110001010011100111110001110
10111110001011101011100000111111
10111110010001110101100010000111
10111110010011101000100011100000
10111110101000010000110000010110
10111110101001010100110100011011
10111110100010000101011110111111
10111110010101011100010001010010
10111110001010101000110110010110
10111101110101101110101110111100
10111110100110101000011000011010
10111110011111001101000110010101
10111110010111111101001110011110
10111101111011111001011111000011
10111110000100000010011010111100
10111110001001010010011110000101
10111011110010001001011011101100
10111101100010000111101011100010
00111101001111100011100011001110
00111100101110000011111011110000
10111101001111111110001101011111
00111101011011001000100110010110
00111101011101011111100110001100
00111101100111001110100010100100
00111101100001011000000111111010
10111101101111010100001001000000
10111101110000011010000100011010
10111100101111011110110010110011
00111100011110100011100111001010
10111100111110011101101000100100
00111110000010000100111101101101
00111101110111111010011100101100
00111011001010010101011110100110
10111101101101101001100110000101
10111101000101110110101011110111
10111110011010101111110001100100
10111101111101110101110010100110
10111110000111011100100010010101
10111110001100001000101101010111
10111110010101110100001010000100
10111100000000110010111101111001
00111110010010110011100011110011
00111110010001000001001011111101
00111110000101100111011110011101
00111101111010010011101110001110
10111101100011101011100001111000
10111100101110010010000011001001
00111100100011111000001111011100
00111101100011110001001001001111
10111101100011111100001101111001
00111101100110011111000110101100
00111101000000001110000111001010
00111101001111000011110000001001
00111101111000100110110001000100
00111101111001010001110010001111
00111101011001011101000011101110
00111101011111000101010011111000
00111101110000010000011000111100
00111110000110011010100010001111
00111101001111110011110000101101
00111101110001110101001011001101
00111101011010000110000111011000
10111010101110001010010110000010
10111101111101000110000110001010
10111110000110101110110111011100
10111101001000000101011010100000
10111110001001000000000001110101
10111110001111011111100101001111
10111110001010001100110100100100
00111101100100011101000111001000
00111101010100001010010100110011
00111101110100101110111001101110
00111011001111010010010111100000
10111101110111111101010111110111
10111101000010001101000010111001
00111101010110011110001011000010
10111011111011001010001110111011
00111101100101011100111100111100
00111101110010110111101111001001
00111110000000001001111110001001
00111101000001011000010101100110
00111110001011001100000110101111
00111101101101011010000001100111
00111011011001000011001000011110
00111110000001001100110110010010
00111110001111000001111111011010
00111101000010000000001100011010
00111101100101011001101010010001
00111110001111100101101101111001
00111101110001110001110111001110
00111101101000011000000011010110
00111011001111101000000000001010
00111101011110001101110001010100
10111101101010000001100101001110
10111110001101111001011001011101
10111110001100101001111000011101
10111100100101110111011011000100
10111101110011001011000101010001
10111101010000010101100100111000
10111101011100111011111000111001
10111110000100000101010111111100
10111101101111101011011000110111
10111101001111001101110010110101
00111101101001011011000010101000
00111110010110100010010100111101
00111101001101101110111011010011
00111101110010110001010010011100
10111101010111100111010010010111
10111101100011100000110101101100
00111100111001001011000001011111
10111110000101000111010000011011
10111101011001100001110010000010
00111101010001010000010110000010
00111101010011001100001010000100
00111100100100011110100011101011
00111110001001000100010101001000
00111110000010001100101101110111
00111110000000001011011000111011
00111100011001101111001101011010
00111101111010101001001111001010
00111101100110000101001111011010
00111100111110111000010101110101
10111011100011011111011111000110
10111101011101100001100010101000
10111110001010000111110101011111
10111110011110110100000010101100
10111100111100010000000111111001
10111101011000011011000010100101
10111101001100111011000011011001
10111100001001001110000110110100
10111110000010111100110000100100
10111100101000011101110111110001
00111101010011101100100100111111
00111101111010001010100110010110
00111101100100010110011011001101
10111101001100111011110000100100
10111100000010101100011111011111
10111100111011111100101001110100
10111101001001011101001111001100
00111100111000110101101100100010
00111110000000101100011111110010
00111100110000010100011011011111
00111101100110100100101110001110
00111101000101110101100000100001
00111101000100110101000110110000
00111101100010010001001001011100
00111110000110110011000100001000
00111110001001001010011000100010
00111110000110110010111010101011
00111110001000000011011100000111
00111100100100101101000101111000
00111010001000100010000100101110
10111101111011111111110011010110
10111101110101001111000001100010
10111110101000010111101000000011
10111110100101010100111010001001
10111110011001100110011011101011
10111101110100000101011001000110
00111001110101000101001101000000
10111100101010011010011110000111
00111101111010011010010100101101
00111100101001000000011111001011
10111101001100011001011101100110
10111101010101010001001111100000
10111101110111110010010101101010
00111110000000011110011010011101
00111101101111011000011110001000
00111101111100111110101101001010
00111101001110110001001111110001
00111110000101000010100001110001
00111101101001000001000101011011
00111100011011100001110011111011
00111100000100010111111001111011
00111110001101100011010011100010
00111110011110001010001010011011
00111101111000110001101110010000
00111101100111100110010101000111
00111101101111100000101000000001
00111101100100010011111110100111
00111101110100010100001010000000
00111101010001101011011001001110
10111101000001000000100111101110
10111110100000110100011010011111
10111110011010000101110000010001
10111110100001011100010011010010
10111101000000111110111000000000
00111100110101000000100000100100
10111101000000100001000011100100
00111101010100001110111010010100
00111101100010100101110001111011
00111110001000110011100110111100
10111101000010011111111110111111
10111101111111101001010010110111
00111101100100000111101111100011
00111101111010100111011000100010
00111100111001011101101100011000
00111110000110100100100000000010
00111101011111111111011101101100
10111101000010111000100101011100
10111101101100010110010100010100
00111101100001111000001111111111
00111110001010011110110101011010
00111101110111001011101011111110
00111110100010111100100001111011
00111110000110000100011000001101
00111110000011011010111101011011
10111100010011110010011011001111
10111011100100011011010010111011
10111101011100011110110101010111
00111101100110110001101001010110
10111110000110100101001110110000
10111110011010101001010110101001
10111101001001110111011111110010
10111101110100101011010111101000
00111100100110011000100000011000
00111100101010111001110010011111
10111101010010110011100110011101
10111011101000001100100011010111
00111100111101010011000110110100
10111101000011101001010111010100
10111110000011111100111111100100
00111101111000100111110110010101
00111101111100100010001101101110
00111101110011010100011010011010
00111101010111101010000001000111
00111100010111110111111000111100
10111101110111010001100000110100
10111101101001010011110011001100
10111101001000100001010000101011
00111101010011111101100101011000
00111101100001100011100000000110
00111110000011010010110011011101
00111110010010011110000011101101
00111101011100011110110101100001
00111100111010001101010101000010
00111100010100011000011100000110
00111011001000010001001011001000
10111010001000111100000110100111
10111101011000100000110001001011
10111110010001100000001101101100
10111110110000101000110001110000
10111110000110011111011010000011
10111101101010110100110011001100
00111101011010011101010010011110
10111101110001100111100110011000
10111100010101111100000001010101
10111101001000001000001100101101
00111100000111001011100100000010
00111101011001110000000001100111
00111101000010101011010100010010
10111101100000000011110100101110
10111101100010110111101110111100
00111100101000110000000001100101
00111011001100101110000011101010
10111101101000100001110010101110
10111101101110110110100100110111
10111100101010000101010010100110
00111100111000010001010011010100
00111101100110100110011101100110
00111110000001011101100001101010
00111101111001110000100011001100
00111101110110101100000000110011
10111100101100110101010100101110
00111100010001111101000000010111
00111101001000001110100110011011
00111101101101100001010110001101
10111101110101011111010110000011
10111110100001111100001111111001
10111110101101000011000111111111
10111110000010011000001111001011
10111101011011000111010001100010
10111011010100110110000101001001
00111101000001011111111001110010
00111100110111110110100100111001
00111101001111100100000000100011
00111110000011100101111000101000
00111101001101001000010101110011
00111100011001100001011010100110
00111101000101000011111010001011
00111101110000111111101100011000
00111101001100111110101100011101
10111101011011101110100100111001
10111101010001001111100000011010
00111101001011110101110110000010
00111101100111011110001100010010
10111100111111111011000011101101
00111110000000101010101000100101
00111110000011111100000011100010
00111101111100001001001101100101
00111110000101111111001000011000
10111101001111111010011011010100
00111100011001101001110101100001
10111100010001001100001101001101
00111101000000100110111011100111
10111101110011010010100100000101
10111110001100111000000010001001
10111110001111101010100011100001
10111110010110010001110000110011
10111101101111100110101001100111
10111101011100001100100011101010
00111101011001001101110011001011
10111110011101100011011110010001
10111100011010010010010110111000
00111110000111010001101111100100
00111101011000101000000000101000
00111101100101100000110100000011
10111100011011101000010001110010
00111101011111110110101101110100
10111101101011100001001110010000
10111101001101100000110100100001
00111101001110100100001111011010
10111011111000010100111111000011
00111101001110001110100010100110
10111101001100001011111001000110
00111010101111010110010111100000
10111011100111101110111101101100
00111110000101001101100101001001
00111101111000110111100101101111
00111101011100111101110100111011
00111101100111100110010010111011
00111101100111000110000000100111
00111101011101100010111111000010
10111101111001011010101110110000
10111101000101101010000010011000
10111110001110111100110010100100
10111110011111001110000010001101
10111100110010010000011000111111
10111101010111011011100100111101
00111101110001100011110000000000
10111110010001100000101011000100
00111100000000110110011001001111
00111101110101111001101010011010
10111100100110100100000101101110
10111100001010001010010001101110
00111101001111110011011000011000
10111100101101111111111001111001
10111101000110100110011101001001
10111011111100100011011100010000
00111100110001011110110001000000
10111101100010110011110110001110
10111101101010110101000011111010
10111101000101100011001010111110
00111010100101011111110001000010
10111100101101110110101111101111
00111110010010010110101110011110
10111011111011100101011000001110
00111101111111001000110111111100
00111101101000111010010000110000
00111101010010000100111001110111
00111101000100001010101011011101
00111101010010001000110011100100
00111011100000110100111110111111
10111101111101111100010111000001
10111101110101100010010000011110
10111110011111010100111010101010
00111101010011101001111001000100
00111101101011001100010110100100
10111101100010100110011101011010
10111101101101010010100110100100
10111101000110110110010101011001
10111110000000011001010111111100
10111101101000011111001111011011
00111100111101101100100000001011
00111101101100001010111010011001
00111100110010011001110010110110
00111101011100000100001001001110
00111101100010010101001011000110
00111100011000100001011000011011
10111101000110010010000010000110
10111101010101001111000110110001
00111101110110110100110011011000
00111101110111001101000001011011
00111101100110110011101010000010
00111101000001010100010011100001
00111100111000010011001011100111
00111101110111101011001100010010
00111100111010010000111001010011
10111101010010111110011000111000
10111100011011000110001001001101
10111100100110011101110111101000
10111110011111110111010011100110
10111110010011101011001100000101
10111101011001001100111100001101
00111100101101011100111110111000
00111101011000010101010101000001
10111101011001110111101111101110
00111101100100011110001101010101
10111101100001110000011001001011
10111101101101110100001010000011
10111110000100101000100111001110
00111100100010111111000010100101
00111101110011011111000111111101
00111100100110010001111100100110
00111100111111000100100011010010
00111101011110000100100000001110
00111110000101010111110101110110
10111101010001111000111001001111
10111100010011000101000000000010
00111101000010010001111010110101
00111101001110100000111001001000
00111101100010100101101100100111
10111100000111100110010001001110
00111101111001010101100000101001
00111101100110101111101111110010
00111100110011001100110000001000
00111101011111111000011010010001
10111101000101000001111101011111
10111101000010001010101101100101
10111110011011010100010111001000
10111101111000010110000010000111
10111101110100000001110100011011
00111101101000001110100111001010
00111110000001110100101101011000
00111101100011100000100011101100
00111100111010010000001111001011
10111101101000011110101011100001
10111101111011001001001000011101
10111110001010001011010110001000
10111110000111110000110001000111
00111010011100100100001110111100
00111101000011010101000010100011
00111101111001000100011110010010
00111110010000101001100110011000
00111100100100001110111110011001
10111101110011011000100111000100
00111011110101001000000001001000
10111100101100101111101000011100
00111100101000001011110010100110
00111101101111000010100100110000
00111101110100111110000011111011
00111100110100111111000010110100
00111110000000011110011000101110
10111101011011111000001100010101
10111100110000001101001110111111
10111100100111100110101110000101
10111100111001011010101100010010
10111110101000110010000011101010
00111011011100110010000100111001
10111110011110011111000000001010
10111100101111000110111001110110
00111101100010001010100110111011
00111101011111011110000101010110
00111100000111110111100010100000
10111101101010100001011111100100
10111101000100110110111101110000
10111110010000010100001111101000
10111110001100110110100000101100
10111101001011101100010111011001
10111101110001110100100001111101
00111101100010010000010101111010
00111100100011000110100101001010
00111110000010001111011101100101
00111100001110100011111101110010
10111100111000111110010100111011
10111101101100101101111100010110
10111101100110011010101101111101
00111101100000011011101110101010
10111100100101100111100110010010
00111101100001010111110011101110
10111100011111011110100011100010
00111101011001110111101110011001
10111101110110110110000010100010
10111110001000110011010110101111
10111011101010111101101001111101
10111110101000110110011110110111
10111110000010011010111011001101
10111101011100010011010110010110
10111101001110000100000100000000
00111110001100110000011011011000
00111101100011001000011100101111
00111101100010001001100111010101
00111011111001011000111111101010
10111110001001001100100000110010
10111101100000000011001111101010
10111101100011110101111110101111
10111101111111111100110101000111
10111101111110110000111001100111
10111110000111110101100111101100
10111101101011010001001010010001
00111101010110110011001000001110
10111101011001100101110110110010
10111101100000110101110101000110
10111100111111000101011100111110
00111101110101000011001001100110
00111010111111001111111000111010
10111100110011111010101110101011
00111101110010100100111001101000
00111100100100001111110100000111
10111110000010010101010011100000
10111110001101110010111000000100
10111110001011010000010000111111
00111101100001010111110111101100
10111101110010100000111000101011
10111110010001110100111110110010
10111101011101100100110100000100
00111100011010111110111001111000
10111101100110111100000011111001
00111100000100001100100011001010
00111011100110001000101101001011
00111101010000101010000000011111
00111100000100101100001101101110
10111101011111001100010101100010
10111101100000010111010010101000
10111101000100001110010100001101
10111101100010000010110101110011
10111101111110010000000101011000
10111011111011101101101101101011
10111101110100100011000011011000
10111110001011001100110100111000
10111101110100000010010101100011
10111101010011100111101011001000
00111101001111001001011100110010
10111100011111010110110101101001
10111101111001101110011000011111
00111100110100100010010000000011
10111110000000111100110110111110
10111101111101100001011111111011
10111101100010011001101010110011
10111101001101101010001110000011
00111100111001000100111101011011
10111110001011011101101000111100
10111100110101011111101001111101
10111101000100011010111110011010
10111101101100111110100111111011
00111100010110101000100101010101
10111100000110011000110101110110
10111101001101100010011001010111
10111101011010010100111100000010
00111100000110101010000011100110
10111100010101001010000100101010
10111101000011011110000111100010
10111101110011011010000101110101
10111110000010100011011101010110
10111101100100011101011101010111
10111101110111111010101000001111
10111101100010001111000111111010
00111100101000100001000111100110
00111100000010010100011001101110
10111100101111110000011000001010
00111110000001111100110001011110
10111100101001111111010010110100
00111100100101010100100101111100
10111101110001110010010010101010
10111101011100100101000100101011
00111101001100010110101010101001
00111100010100110000101100011000
00111011001101101101010011101110
00111100010110001011011100110001
10111101100000011000110111000100
10111100010011101000000000001011
10111101011010111011110111011001
10111101011101100010011100011100
00111011110111101011100101110000
10111101010000010101011000011110
00111100100010011111001111001000
10111101010000101000001100011001
00111101011111101111000000000110
00111101000000110110010110001001
00111100111111011110111001010111
10111101100111110010010100000011
10111101001110010001010011001100
10111101011000001110001001111101
00111100010101011001111001001100
10111101101001110110110111100010
10111100011101011101011101000101
10111011011101010111011101110000
00111100011010101011101111101000
00111101000011001110101100101001
00111101110100100001111011001010
00111101011011010011001100110000
10111100110100111100110000100101
10111101010010011000001111101101
00111100100101110011100010111000
10111101011101010010101111000110
10111101100001011001011010011010
10111010101001011000010001101010
00111101110010111101100000111111
10111110000101011010101101101100
10111101100111011101101000100000
10111101000101100001111001010110
10111101010011000000100011011101
00111110000101001000111100000011
00111110000001111100111001001100
00111110101011010001100011000010
00111110100001011001110110000111
00111100111100000010101100000110
00111110011010111010001010110000
00111101110101100111101011101011
10111110000001000101010110110011
10111101010101100010011011111110
10111101101001011000011010001110
10111101010000111010000010010100
10111100111010111111011101000011
10111101000001101100000010100011
10111101001110100101110111011100
00111101000111000001001000000101
10111101101101110000101111110000
10111101010111100100110011001010
10111101100101100011010000000010
10111100000100100001011101011010
10111100101010101110101111011000
10111101000110110011011110011101
00111100100001010011100111011111
10111101000110001001111010100110
10111101000100101011001110011100
10111100010001111001100100111110
10111101100010001110000001101010
00111101100001011101101001110111
10111101100011000100011110101111
00111101110100011110010010110010
00111101010000011110110101111111
00111110010101000000000100110001
00111110011011000010110101010011
00111100111110110101101111110111
00111101111010001010010110000100
00111101000101000101101010100000
00111110000010011111010001111111
00111101101110010111101001110010
00111101100010101000111001000011
10111110000001000010100000000011
10111101101110011110010010000000
00111101001100111110001111101010
10111101110110100100100110101101
10111101000111000111100100010111
10111101100100110111111010001010
10111100110100110111011001110100
00111101110100110010001110011111
00111101110011000100101010000010
00111101000111100110110111111110
10111101000001001111011110100101
10111101001001000011001000111111
10111101110000110101001100110101
00111010100110001111000110000011
10111110000010110000001111010011
00111100100111011010101101011100
10111101100011011010110101011101
00111101010100001110001001011110
00111101101001100001100110110011
00111101101010011000001100100110
00111110100101000111100110111010
00111110100011000101100100011010
00111110000101000111111111010111
00111110101001001011101110010110
00111110000111000011101001110111
00111110011100100101010110111100
00111110001101110100101010001000
00111101011011011000111000101000
00111101101011010111100101000111
00111110010111001000111001101101
00111110100100010101101001100011
00111101101100101100111011110101
00111110000101101111100000110101
00111110000110110011111101101000
00111101000100001001111101001101
10111011111010001100111011111001
00111101111101001010010110101010
00111101110110011000100010001000
00111110000011100100110101001010
00111110000000001111101100101101
00111101100110110101000111111011
00111101011110001110111001010001
10111101001000011010110010101010
10111100110111101110110100001100
00111101100011101101011111011111
10111101000110101011011110010011
00111101010001000000110100010010
10111101001010110100000011000100
10111110000011001010011100011100
10111110000011001010110110001101
00111101110001001110101111100100
00111101000011110010100110101000
00111101001010110110111001001001
00111101101010010001111001010110
00111110010011100100011100101000
00111101110000011011000001100011
00111100000011011010110111011010
00111101010010111111110100010100
00111110010101010001010111011000
00111110000011010001111011010101
00111110001000100110101001110101
00111110000001101100110110101110
00111110010100010101111100000000
00111100111101100000011101010000
10111101000011100101101101001101
00111101110101101111001100110011
00111110000100111111000100000100
10111101010101001100100011000011
00111101011010010101011111011110
10111101001101010110100000110011
00111101001010110110100011100100
10111101100101011111111100010110
