10111101100011011001000001010100
00111100111010101110101101100011
00111110000001011111111110001011
10111110011010011111010111100100
10111110100111010001010111110101
00111101101100001000111001001100
00111101110110011000011111000001
00111110100011110100110111101011
00111111000011101111001001011000
00111100010101000001110111001100
10111110101010100100000000100000
10111110010010100101001101100111
00111110100011011100000111110010
10111110001000011011010111101110
10111101111111001110101101011100
00111110011011001001000010110001
00111101110000010011001110011000
00111110001110001111110011111010
00111110010111111111110000001011
00111100111111110100011010000000
10111110101011100111010111111011
00111110010100110110010001110100
00111110110111111110000100100001
10111110010001100011111010101111
10111101110100101101111010000011
00111110011110110101010100000111
10111101101100100100000100111100
00111110100100000101010100100100
00111110111001110111110010100010
00111101111110000011110111100111
10111101100010110110000100011000
00111110001100000000010111001001
00111110011101010111000010101100
00111101111110111011000101010101
10111101101100111100000111001010
00111110100011011100111010111110
10111101111010110110110000001101
10111101100011101010010011111100
00111110010110010101001110010101
00111110100001000101101101010011
10111101101111111001111101001110
00111101011101110011100000001110
10111111001011111011101101010101
00111101010001111101110100000111
10111110110101110100001100011001
10111110101011010010110110100010
00111101001010010011111111111111
10111111000111000001010011101100
00111101110001001101000110011111
10111110100101000111101011101101
00111100101011000001010101001011
00111101100101101011001010100100
10111110000011110101000001001101
00111101101100110001110011101101
00111110010010011111101010010101
00111110001001010111111111011110
00111110000111000101001101101111
00111101000001101011011101000110
10111101000100011011000001110101
10111110101111101111001010111011
10111110111110111011011111011110
00111110011011111110101001001010
00111110010101010101001101101010
00111101100101111111110000101101
00111110010010110111100101101010
00111110100100100111101111001011
00111101011101010000000011000001
10111101011101001010010000001110
10111110000010101000110111010100
10111110000110110101100001001010
00111110000011110101101110110100
00111110010001010101000001110010
10111110001111010010010100101110
10111101101110011001000000010011
10111111000000101101000001011111
00111110101001011100010100001101
00111101100010101100101011111000
00111110011001101101011110010110
10111101111100000001001111011110
10111101011010111111001100011100
00111110100001101001110100100000
00111101000001001111111101001111
10111100100011010000101001000111
10111110101111100010000010101000
10111100101111110110010011101111
10111110111100110111011111001111
00111110100110101100011001000101
00111101111000001100101010010001
10111110000111110100111010110111
10111110000000110010111001101101
10111110101111111010010111011001
10111101000101010011101000101100
10111111001001011000110100100110
00111110001011101000100010100110
10111111001100100000000011101110
10111110100010111000000010110111
10111101000110101100000101101100
00111110010010010010101000100010
10111100000011111010010111100110
00111110100101010100111101100111
10111110001110010011110011000100
00111110001001001001011000000000
10111110110101011110000010011010
10111111000001011000011111001001
00111110100001010100001001010000
00111110110001001111011101010110
00111101011000000110010100000001
00111110100111100011101100110000
10111101101101111000001001011111
00111110011100111000010111110100
10111110001001110111110110001001
10111110001110001101011001100010
10111110011100001010001101011011
00111110001110100101111111010010
00111110001011000111001011001111
00111110100000101001011111010101
10111110011110101110000110100111
00111110100010101110100001111011
00111110000100100110111000010100
10111110101000010011001111010100
10111110100000111010011110010101
00111110100110101001000110010001
00111101111010100011011111101000
00111101000001000100001100001010
00111110110000111110000101001101
00111101110111011010010010111100
10111111000010011110100000011110
10111110110100110110011101100101
10111110111000110101001011011100
