00111110000110111110001000111000
00111101100110101000110101111101
10111101010010010111110000000110
10111100100011101010001011110100
10111101000000011000001111001111
10111100101011110000000110100000
00111100001011010010001011001000
10111101100001101101011100010001
10111101011001010101011101100110
10111100010000111111100011000000
00111101001010000100110101001000
10111011110000010001101100110000
00111101001000010011101000000100
10111101010000110010100111001100
10111100110110101110000000000101
00111101001000110010001110101001
00111100101101011111001000111001
10111100111111110101000110011010
10111100101100010011001001001100
10111100001011010100110011111000
10111101011101101011101111110100
00111101001100100011010011110000
10111100001010110011111100110000
00111100101001111001010010100000
00111101011011010011111100100010
10111101100000111110010010110111
00111101001010000001000001110010
00111101011000000111111000001010
10111101100101110001010111011011
10111101011010101011011010001100
10111101010101011011001101101110
10111101100111000011111011101101
00111101100010111000010101000011
10111100101110001110101100110100
00111101101110111100100010010011
00111110000010000010110110111101
00111101110100000101011001100110
00111110001110110110111111010001
00111101101001100011000010011111
00111101111111111100000101000100
00111101011100001001110010111101
00111101111000001010111011100110
00111110101110000100110111011011
00111110101011001100011110101010
00111110100001000100011110111000
00111110011001000101001001101010
00111110001110010010101010111101
00111110100010110001001100100010
00111101111000011111000001100001
10111011011100011111000010011010
00111101011001001001100111101000
00111011110011011110000000110110
00111100110001000100111011110011
00111101010011001110111010110110
10111101011010010001010110111000
10111101100111100011101110111001
10111101001111011001101111101111
10111101000110101100101110000010
00111101011100100110010110001010
10111101010111000000001000011000
00111101011011110111100010100011
00111101111001010100001111110001
00111110000100101011001000111101
00111101001000110000001110000110
00111110000110111100100001011011
00111100100111011111011111100011
00111011001000100101001010100100
00111100100011111001001111010000
00111010110100000110010100111100
10111011110110111000001001110001
00111110011110100110110011111100
00111101110111000100100101111110
00111101111001111110100001101001
00111110101101001110100101111010
00111110010011111001100111000100
00111110010111110111001000101010
00111110001000101101010110101000
00111101000100100111010110000100
00111100100010110101000111100000
00111110000110010001001000000111
00111110000000000010101000010000
00111101101101100011001111111010
00111011001100010110011110000101
10111101010111010001001110011011
00111011110100010110011001000000
00111101011010010001001101111010
00111101100111011000101111010101
00111101101011100000100011011111
00111101101001010001100001000001
00111101110011101101000001000000
00111101110001000001001100110011
00111110011001100110100110111010
00111101110000000000011001000101
00111101111100111101110010000111
00111101101000100100110011100101
00111101101100001001000100101001
00111101011000001000110000111011
00111101110001111101011111100000
00111110100100110111000000011101
00111110001111110100000011100100
00111110011110000000011111010000
00111110011010101001000100101101
00111101110110001000001011000001
00111110001110101110101001000101
00111110100011101101000100001001
00111101110011011001111001001110
10111101100010001010000100010010
10111100011000010001011010001111
10111101111111101111101110110101
00111101101000101000001001100000
10111101010001000010101100100011
00111010011101101111011000000000
00111100011001000111001101011000
10111101010100100100001011111001
10111101001001110110101111111110
10111100010011011000110100011001
00111101011010100101000001010010
00111110010011001010000000100101
00111110001100100101000111111000
00111100111110100000111100110110
10111101101000000000000011001010
00111110000010010101110010001111
00111110010000010011101111011110
00111110010001111011000110001111
10111100110010001110101001010100
00111101100100110010010001100010
00111101110000110110100000011100
00111101100110100010100011001101
00111101111110111001110101110110
00111110001000010100001110000001
00111110000001011100111011101111
00111110011001000000111010001110
00111110101010000000111101111000
00111110000001001111101101111110
00111101111101000101101010000000
00111101110001111111011000000010
10111110000000110111000010010101
10111101100000001101100000100011
10111110000000100000111011010010
00111110001111011101000010010011
10111101100011000011100101101110
00111101100000111001111010001101
10111101011100001011100000110000
10111101100110100000001011001011
10111101100000101000010010001101
10111100111011101110110000111100
00111110010001110010001100001001
00111100011001100011101100010010
00111011011011110001110001000010
00111110000100000101011111011100
00111110100000010000010111011110
00111101001011000011001110110111
10111101010011001111110000011001
10111101011010100111110001000010
00111101011101010111100010110100
10111010111110111110110010010101
00111100100101111111111000100100
00111100100100001110101101000000
00111110000001110100010011110001
00111110010001101100110000111100
00111110000010110101101100000000
00111101101001000001000010001010
00111110000110001011000111100001
00111101001010011001110011000000
00111011001000101110000110010100
10111101100100110011000010011110
10111110000111110101111011100011
10111101011011110110101011101111
10111101011010010000100010111000
10111100110111011000000101000100
00111101010100111101001000010010
00111101111001101111010011000101
10111110000010100011011111011001
10111001111000100011110001000011
00111110101010011001000001110100
00111100111001001011110101111001
00111101011001001010010111101111
00111101010001111100010010010001
00111101000010100000000000000100
10111100100100011110001111111001
10111100100100001001110111000000
10111101101000000110100010010010
10111101110010010111111001101111
10111011101001111110011110001111
00111101010000010011000010110001
00111101011010100001111010000101
00111101001111001001010110110110
00111101011001100101100111010000
00111101111101011110100011010010
00111101111001101010010110001110
00111110000010011001001100011100
00111100111110000001011000111010
10111101110001001011110001000000
10111101010011100110010000000000
00111101100101001111100111001101
00111100011101110100110011001110
10111101101001001000011101101001
10111100110011111001000100100010
00111110000000101101010001000110
00111100001110110101100111010000
10111100100010111100010011101100
00111100100110100110100001000001
00111110011100011001111110011010
00111101110001000011100001110110
00111101101110110010100111010111
00111101101010111010010111110111
00111101110100110001001111101110
00111101111111010001110010010001
00111110000011100100100100011010
00111100111000001000001001110001
10111101000000111011010101101101
10111011010011000011001110100010
00111101000000100110100111011100
00111101101011101000001010100000
00111110000100101001011000001111
00111110000101101111010101011000
00111110010100110000100000000110
00111110000100101010011101111101
00111101001000000111011000000111
10111101100001001111010000001110
10111101100101011000001000000110
00111110011101000110100011001101
10111100111011011110011100111110
10111101110100011100100110001110
10111101101001111001000110001001
00111101101111011010011011011010
00111100111101000011111001110010
00111101110000011011110011010101
10111101100100011010110110000010
10111101100000101111100101101110
00111101110000010100011101010101
00111101101110111000011001000110
00111100110001000010011111111110
00111101111011000001110100001000
00111101010110000110010111111010
00111101111011101010101110001011
00111110000110100110100110100110
00111101110000001101001011011010
10111011111100101001101111101111
10111101111001011010010010000111
00111101100101101011010010111110
00111101110010111001100100100000
10111101100101010001101000001001
10111101100010011100100100010100
10111101100110000010110110010111
10111100000101010010101101101100
10111101001100001011110100010110
10111100111010010111100010100101
00111100101001111010010010111001
00111110010010111000100010110110
00111101101000101100101101101111
10111100111000100100111000111111
10111010100111111001010010011100
00111101110000111011000111000001
00111110000011100101100100010111
00111101100111010001111011000011
10111101111111111000100010111100
00111101101001001110100001100111
10111100000000110010100101000100
00111101011001100000100111000101
00111101111001000010111000011001
10111101000001000010000011111010
00111110010000110100010110110110
00111110011000101001111110010011
00111110011000001100100100111000
00111110100010010001101111011010
00111101110110010100010010000001
10111101110000110100010010111101
10111101111001111010111000110010
10111101101110001000001000100011
10111110001010110101000001001111
10111101110010001101010110100101
10111101101111001100111011101110
10111101101010011111110101110011
10111110000110001101111110101010
00111011100100011100000000011000
00111100000110000010111100111010
00111101010000011011110010010000
00111101111000100011001100111111
00111101110100100110101111011111
00111101010111101110101001110100
10111100011001010010111000000000
00111101100000000000111010011011
00111101101001100000101001111010
10111100001010111010100010110001
00111100100110111100000101110100
10111110000100000000011000111101
10111101001011010000101010010110
00111101000110010001000110011101
00111101101010001010100100100000
00111110100101010100010111000100
00111110100101000101101100001110
00111110101110001110110001000111
00111110011111011000100010110100
10111101101010011100000101010110
10111110101000001110001000100100
10111110001011111100011110001011
10111110001000100111101000011111
10111110000000111101110100000111
10111101101111100111100111100111
10111101111001100010011101011011
10111101101111100101110011100000
10111110000011010001011000110011
10111100011110000001011110100100
10111101101100010110101010101011
00111101100000110111010100011101
00111110001111100101011001101001
00111101000010011110000011010011
00111101011000010100111111001011
00111101100010101100101100110101
00111110000010111000011000111001
00111101101001011100010111000100
00111100111101010011001110000100
10111110001010011101001111011011
10111110000011011101100111100110
00111101110110100101011011001000
10111100001001101001101011010000
00111100010100100001100110111111
00111110011101011000110101011110
00111110011100000110110010010100
00111110000010101110101111010111
10111101101000000011001001011001
10111110110100100000011010010011
10111110101110110101101111010010
10111101100110100101101100010010
00111100101111011011001111000010
10111101100101110111110000001101
10111101010100111110011101011011
10111110010000100000101111111101
10111101111010101011111001101110
10111110000011001000001001000110
10111101101110011101001100101001
00111101000011100110100101100101
00111101111001011100010100011100
10111101100101100010001100000100
00111101001010111010100010110001
00111110001000101000101111001101
00111011001101001011000101001010
00111101110000101110000111101101
00111110000001011011001010101001
10111101111100100000111001001110
10111110001111110011100000111100
00111100100111000111010100000011
00111110000001001010001100100100
00111101111100110001000110111011
00111110001011001001100000001011
00111110011010011100101001001101
00111110100001100010100010001000
10111101111011000100100001111111
10111110101001111110110011100100
10111110101010001011100011011100
10111101111111010000001000100001
10111100011100001010101110010110
00111101001011111100001000001001
00111100101011010111101010111100
10111101000101101111000100111011
10111110000101011010110101001011
00111101010110111110111101001101
00111010001011001100001001111100
00111101110010100001000111100011
00111110010010001101001000011110
00111110000111100100100100100010
10111110000000010000101101010101
00111101011100001101000000100011
10111101000011110001110110011110
10111101100001010111001000111101
00111101100100001101001000111101
00111110000101000110000111101111
10111101101000101111000010011001
10111101011101110001011010110010
00111101000010100101111101001001
00111110000010110101010100010100
00111110010101100101110100101100
00111110011110110100100111111111
00111110010000110011110111110011
10111100101000000001001001110001
10111110010010101111001010110010
10111110011100000000001110010111
10111110100010111100101111010000
10111101001110111111010101110101
00111101000010001101000101110010
10111100111000000011011111000101
10111101110000011110000111001001
10111110000010100101100011110010
10111101100011111000010011000111
10111101100010101111110100011100
00111011101100001111101011100111
00111101011101110010000100100101
00111110001110111000000000010010
00111101110010011110100011100000
00111101001000000011111011011111
00111101010001010000010100100110
10111101111110101011100010011110
00111101101110110011101010010101
00111101111110000101110000111001
00111110010001101100110000011101
10111101001100111000010111010011
10111101011100110111110101101101
00111110010010010111011101111000
00111101110111010011011110000001
00111110000010101010111110110011
00111110001101001010011001100110
00111011010110110011000110101011
10111110001000101111010101110110
10111110100101100001101011101000
10111110100101001001110000111101
10111101101101110001001000010100
10111101100111001001000000101001
00111100100010011000111100001101
00111011011010111011100000001101
10111101100011111001100101110000
10111101100001010000100100100010
00111100110010100110010011110000
00111101101111001101011000010111
10111101001001100000111110001011
00111110000110000101010001010001
00111110101001010000101101110000
00111110101101000011100010010110
00111100110100100110001010110011
10111101001010011001100101011010
00111100001010101000001111011100
00111101111110011001001110101110
00111100100100000011110010100010
00111110011111111100101111111111
00111011100000111111110001111000
00111101010110000100001111101110
00111110000111000010100001000110
00111110000011101010000000010000
00111110001000011110110100100000
10111101001010111100000000101011
10111101001100010010011010111110
10111110000101101110010010011101
10111110100010101111001100011010
10111110010010111010110100011101
10111101111100001100001111010000
10111101100001100011000111110001
00111101001011100100111100000100
10111110001001111111000010101101
10111101001011110101100001011100
10111101110011110110100101100111
10111101010100001001111001001001
00111100110100000101101111011111
00111101101101010100010100000101
00111110010100101000010000100110
00111110101101110000101110001011
00111110100011001001101111101010
00111011010000011010111100100110
10111101010111111000111100111111
10111101101001000000000111101101
00111011000001101000010111111101
00111101100010110110011000100100
00111101011110101010100011010000
00111101100100100101110010010011
10111100001111111001000100100000
00111110010111010110111101011100
00111101110010011110110001101101
00111110011001000000110101101100
00111101111000110110011111011110
00111011011001011101010100001110
10111110010011111000001101111101
10111110100101011110011101000000
10111110011101011011110100000001
10111110011001100110110111010011
10111101110101111110110100001001
00111101110111000010011011010110
10111110010010010110000100010010
10111110011001101110010100100111
10111110010011101101110111111000
10111101101011101101100011110000
10111101001011100010011111011010
00111110001010000011111001100101
00111110011111111011011110111000
00111110010110011001111001000101
00111110011000000110000000001111
10111100010111011100011010000011
10111101101001101101000010110100
00111100111110101010000111110000
00111101100001110100100111110101
00111101100100110001011010100100
10111100110101010110011111100101
00111101000011111111010101110110
10111101101101001110110000010111
00111110000011100011011001110111
00111101100011000000110010010011
00111110010100100111011010110101
00111110000010110111101111000100
10111101010000011011110101001001
10111101100011100010011100111100
10111101101100110010100101111010
10111110011111111111011001101001
10111110101011001011111110101110
10111101001000101100111010101100
10111101010101101101101111000100
10111110010000101010111010111010
10111110000100111000101111000010
10111101101010111110011100101110
10111101100000010100001111001100
00111101101100111010100111100101
00111101110001001101011111011011
00111110011000010000011001101101
00111110100010011101111011010001
00111110001111110100001111000110
00111100111001100110000000001110
10111100101010000000101100101011
10111110001111100001111100001111
00111100110011110110011110011000
00111100100000111111001110000001
00111101001110110000011001101010
00111101110111101011101100110011
10111101111001111101100000110100
00111101111010001110001100001111
00111100110111000111001111000100
00111101110111101001001101111011
00111101110011100000011100110100
00111100110010100101000011001101
00111100101100000010110101000011
10111101100011101011100010110000
10111110001110011011011100010101
10111110101100101011101011100010
10111101111111011110101000000101
10111101100110001001100001010001
10111101111101000100000110110010
00111101011000001001010010010001
00111101001010101001111101011110
00111110010100011001100111101001
00111110010110101010111011000011
00111110011101010101010100110010
00111110100000010010111111011100
00111110010000111010101110100000
00111101011011011110010000011100
10111100101001111010001011100001
10111110011011110111010010010000
10111110001110011101100111101101
00111101101001100001110011100011
00111101011001000010010000011110
00111101001100010000010111010101
00111110000110110010100000010101
00111100100011001011110111010110
10111100110101111101111101101100
00111101000110011110000001000110
00111101010111101010111000110101
00111100011010101001100010000110
00111110001010101111101110011000
00111110000100100111000001001011
00111100101110000101010011100100
10111101011011010000110001010100
10111110000100011010111110110011
10111101111000100010110101101001
10111110000001011011110101110010
00111100110111110100001011111001
00111101101000110100100000000100
00111110000001110011001111101010
00111101100100111010100110000011
00111110100001111001100000101011
00111110010100011111110111010101
00111110011111001000101100010100
00111110000100111101011101100100
00111110100010110000101011011001
00111101000111010010011111100001
10111110001001111111111001001000
10111101010001011000000111111101
00111101011001010111110100110010
10111100101111101101110111100100
00111100100011010110110100101000
00111100100011100100000001000110
10111101110000101111011011001111
10111110000011001110110000000010
10111101101000101101100111100000
10111101011111100010000100010111
00111101101100110111011011111111
00111110010010001000011110111011
00111101011111000011100110010000
00111101100110110100111101001001
10111101010100000101011010101001
10111101011100101000001111111101
10111101010101110011100000010000
10111101011000111100111011100101
00111101101011010110111100000010
00111101110100110010101111000110
00111101000100010111110110100010
00111101111110111111000011110111
00111110001100001011101010110011
00111101100000011010010111000010
00111110000011100010111100111101
00111100101110011110101010100010
00111101111011110111110100110001
00111101001110000010001101011110
10111110101011000000000011101011
10111100001101101101010010110111
10111011100110110000110100000000
00111011011111110101011011001011
10111101010110101111001110010010
10111101101101011000011100000001
00111100011111101000100110001110
10111101000100111011011001011000
10111110011111110101110011100010
00111010011011100011011001000010
00111100011111100100000001000000
10111101000000111100010011111110
00111110001010101101110001110001
00111101001010101011111100100011
00111101110000110100111000100010
00111100011000011001010000101010
10111100110110000100000101101011
00111100111100000100111001111001
00111110000100100100101101101001
10111011100101110011011111000001
00111101111110010000111000100000
00111101001100100010110011011001
00111110010010011000111000110100
00111110000010100111100111110010
10111101011011000110010111110011
00111010000100111000100010010011
10111101101011110011110000110000
10111101010000010101001111000101
00111101101110111110001010001100
10111101011101010011101010110011
00111101001000000100100011000110
10111100101011111001111111100101
10111110011101111101111000111011
10111110010100000100111111011010
10111101011101011011100110100011
10111101110111101100110000000101
10111110001001101001001101101010
10111110100000111101000011010010
10111101111110111011111000110101
10111101101110101011101010000110
10111110001001001110000111010011
10111100100100001110100100001011
10111101111000010111011001001111
00111011110011010000111000111100
00111101001110111010011011110110
00111110000111000000110001111110
00111101100101101001100101111100
00111110000000011101000100110010
00111110000100100111111010000100
00111110001001100001011111101010
00111110001011000111000001001011
00111101100000100001000001010001
10111110000011001110000101001100
10111110000101110111001010101011
10111101110010101010001110101111
00111100101001101000001101010100
00111101111001011000111100110001
10111100110101110011111100011011
00111101000000011110101111010100
10111100101010010101101011101110
10111100001010101101100110111001
10111101001110101111111011101010
10111110010101101110001100010000
10111101100101111011010000011000
10111101111010101011110000110101
10111110000110010100011001000110
10111110100010000110010000110011
10111110000111110011001001100010
00111100001001100010111000011110
10111101110011101100000101001111
00111100000101101100111110010001
00111101011001101000011000001100
00111110000011100110100010011110
00111101001101110011000000101010
00111100110001111000011001110000
00111101101100100001011101111101
00111101110000000100101101011100
00111110001110000111000001110110
10111101001110110010110000111110
10111101001100101110001110100000
10111110100010001110000011010000
10111110000111111100100101011110
10111101011001010100010000100010
00111100000001011001101100001100
00111101001011111001011001010011
00111100111100000001101000000100
10111101100111010001101101111111
00111100011110111110000001011000
10111101100010111111010110101001
10111101011000010101100001110001
00111101101100110111000100101110
10111101100011001111110010001111
10111011110011111001100110001111
00111101101001001101110011011101
10111101100100111101010000101101
10111101111110101011110100101111
10111011011111000000110000100100
10111101100000100000010101001101
00111101001100011111100000000111
00111110000011010100010110110111
00111101110101110011101010000011
00111110000010101101111001111010
00111101010011011110011011000111
00111101101000101011010011011001
00111101101000010011010000000101
10111100100001100100001001001101
00111100101100001011101011110110
00111101101010001110001001011111
00111101010010001010001001010001
00111101001011111010110011100010
10111101001101000010001101100100
10111110000110000101110110101000
10111101010010101100110100011000
00111100111010101010000001101100
10111011101100001101010100110000
10111101011111011111001001111010
10111101000001100001110101101111
00111101000011110011101010101100
00111100100101010110011111110010
00111010100111001100110001000011
10111101100000001111100110011110
00111110001111110111110011100000
00111110001110010111111000011100
00111110011100011101111111010010
00111101101001110000110011100111
00111101110101111100100010111110
00111110001100110100000110111100
00111110010110100011010011111011
00111101000111101101000111111101
00111101010010000101110001111101
00111100100101110100101110001000
00111101000100001100000111001100
00111101110010010100001010101001
00111100100001001101001110111010
10111110000000100001000000010001
00111011001111101010100111111110
00111110100000000011111111101111
00111110001011000110111000010100
00111110011101001111100010010100
00111100101100011010010010101111
10111101111010000110001111101011
10111101100010001001010101100110
00111101000000010111001101010010
10111100101010011101101011110110
00111100111111110110111110000000
00111101100100001001110010100101
10111100111111100111110010011110
10111101101010100000001010100111
10111011001110000100011111101000
00111101110110000111101111101110
00111110001110111001101010011001
00111101100010111011101100000000
00111110001011110100100100010000
00111110010011010101101111010111
00111110010000010100110111111111
00111110010011001101011000001000
00111110000111011111010001000001
00111101100011101001000001101001
10111010101010111010100001111001
10111100001111101101111100100010
00111110000110100111100100000100
00111110101101100100011010111100
00111110000000011001000110111101
00111101101000010000100010010101
00111110001111100111010011001110
10111101110001011011100111111111
10111101101011000100011110000111
10111101000111111011111011001000
10111100100001110110100111000000
10111101001110101001111110010001
10111101100010110011000010011000
10111100101011001111011111110110
10111101000000000100000110100011
00111101000110100110000001011000
10111101001110110110100001101011
10111101000110111111011110011110
10111100001101110011111100111011
00111100100100110000110100010111
00111101110101100010011101101101
00111110010111110111101101011011
00111110101111110100101001010100
00111110100111001100101010101101
00111101111001100100000110000100
00111110000010101011001101011100
00111101011011011110010000100001
00111011101101000000101001010001
10111101000101000011010000011100
00111101110001110100101110000000
00111101000011011101011100110111
00111101100111111001110111001111
10111101100010111001101100001000
00111101111110010001000001100101
00111110001110001100111111101110
00111110010100011011001010000000
00111101001100011111111111010110
10111101100010010101100101100111
00111101100101100011011010101101
00111011111010010101001001110000
