00111110000011011001101001100100
10111101011011000111111001100100
10111101000010011100111101111000
00111101010100001001111110100110
00111101101000010100001111111001
10111101010111000001100001111000
00111101001110111010001010001010
10111100110111010000100011110000
00111010011101010010000110000000
10111101000011010100101010101100
00111100110111111010000010101100
10111101010111101000010101001010
00111010100111110010100011000000
00111100100100110010001001001011
00111101100001111010100011111110
10111010100011011110010001100011
00111100110001110011111101110000
00111100000110100110010010001000
10111101001101101111111110110011
10111101000111111000101110000000
10111101000111111001111010000101
00111101001000100100101100111100
10111101000011001111010010010011
10111101011101111000010010101110
00111100111010110010101011100000
00111101001001110110111110010000
10111101100001101101010111111110
10111100111101000011101010011100
10111101100011111100011010010100
10111100100101011011100000001100
10111100100001010110100010011000
00111101100100100000001001101111
10111101100100111101011001111011
00111101011100011000101110101111
10111100100011000010101011101001
00111101101011001110110000010011
00111101101101111101001100011001
00111110000100100111000101001111
00111101101100101101110110011001
00111101101111110001100011000101
10111101000011010101010010100010
00111101001100001010111111010100
00111101011110001000111010000101
00111101110110011000111001010110
00111101110101000000011001000000
00111110010000000010001100001000
00111110001001010100000100110110
00111110001001101110011000001000
00111100101010101000110000011001
00111101010000110000101101010111
10111100101001111110111101110011
10111011011000001000110101101111
00111101001010100111001011000010
00111010110101010101010001000000
10111101001110111010111011110001
00111011100111000010010010100000
10111100101011010010100110000100
00111101100000010100010101011101
10111011011101110110110000000000
00111101100010001000110001000001
10111101010100111011001001011010
00111101100110001110000001010110
00111110000000000111000011100001
00111101110101110000110101100110
00111110000000010011100001001010
00111110100010001000111100011100
00111110011100110000111110111000
00111110101101010000000001101100
00111110100000010000101001111000
00111101111110011101111011110010
00111100010111000100001001011000
00111101101010010011011000100100
00111101101110110010010000101101
00111101001001111000110101011010
00111101001011011011010101100100
10111101000100010101110101011010
00111101101000100101001011111010
00111100101110101001001111111011
10111101010111000011001100111101
00111101101000010011100101011001
00111101100101100101100110000001
10111011110001010111011111110011
10111100110000000100001000111110
10111101011110001110001110110000
10111011100100010011011101010000
00111101011101000000001011000010
10111101010000101110100000111010
10111100100001011011101110111001
00111101000001110011011011101000
10111100101101001101001011011001
10111100111111110010111101011010
10111011100011011101110111010101
00111101100011000111011110110011
00111101101010000111010000011101
00111110000001001111000010011110
00111110010000011110010101001010
00111110011101000100011010100001
00111110011000000110111001010010
00111110000101101101001001001111
00111101001101111100111001000010
10111101101011100011000110101110
10111101100010100101110110001001
10111101100101111000100001110000
10111110100101101010111010100000
10111110001000111100000110000111
10111101110100100101111101001110
10111101101000100001100011110101
10111101010101100000101011100100
10111101110010100010010011111101
10111101111101010000000100011100
00111101000110001100100011111100
00111101100010001010010101110100
10111101010010111011001001110110
00111101011101010011101011000010
00111100110001101111111010001100
10111101111111011111000011100010
10111110001001100001101001000000
10111101100101101001111001100100
00111101101111000000100100111011
00111101101101011100100011111001
10111101000101011101000110100001
10111100101111100001011101111001
00111101001010100101001100010010
00111110001111000100101011011110
10111100100000111111000000010011
00111101010110011000111011101001
00111100010000001100111010111100
10111101011001010101110101000000
10111101100010011011000001000010
00111101000100000101011011111111
10111101101011011101101000010001
10111101100001011001000101100111
00111110000000000100100011101100
10111101011001000110111011110100
10111110011000001110000110100011
10111110000010001110001011010010
10111100000000001011011001010101
10111100101110110110001111011101
10111101111110011011111000010011
10111101110011111001110000111100
00111100010100010110010011100000
00111011101100011111001000010000
10111101011000111110011101100110
00111110000001110110110111011011
10111101010110111100011000011100
00111100011100001110011001010101
00111110001001100111101000110000
00111110010011010100111110100000
10111001000011100011110010110011
00111110001011011000010010000000
00111011111101000000001001000011
00111101011001010001010000001111
00111100100110110001101110011100
10111101101000111110110110010110
10111110000110011000001111011101
10111101110010000101000100001010
10111100101010010101010110101111
10111110000100101100111111000101
10111110000000000111101010000100
10111110000101111000100111110011
10111110000001110001001101110011
10111110011000011011111001000101
10111110011001010101100111101101
10111101111011001000111011100011
10111100101101100100110001110010
10111100110011100110000010011000
10111110011100111111011000001000
00111101001000110000011001011101
00111101111010111011100100101011
00111101011101100111000111010110
10111101001110110001101101000010
10111101101000001000100101101010
10111101000000011000001011000110
10111110000011011100110000011100
00111101111100010110111110011011
00111101110101100010101111001110
00111101111101111100101100000001
00111101000111010010100110011100
10111101011011000111101001111011
00111101101000000001001111000001
00111101011100010000101110000010
10111101100100101110100011101111
10111101101100011101011000110000
00111100110000001110101100011110
00111101001110101010111010011100
00111011001100000101010110000101
00111101001110001010101100001111
10111101000101011001001111100101
10111101110000010110001010101110
10111110001010000101110110001001
10111101100110011000110011100111
10111101100100101010110100010111
00111101100000010001110100111011
00111101100000010001110110000000
10111110000000010000110010010000
00111011110011111011111000110111
10111101001100110010010110000100
00111101011001100111000000000110
00111101110101101100110111101101
10111101100101110011001100011011
10111110000101111111110010110111
10111110100100111011110010110011
10111101010000110111001110101000
00111101100011101000010001101101
00111101110101101111001111011011
00111100110101100110101000001000
10111101000001011110101111100100
00111101111101000001000011110101
00111101011001101110100100011110
10111101110100011100001001101110
10111110010011100001000000000010
10111101101110010100001010001000
10111101010010110011001010110011
00111011101011100101001000011011
00111101011010101011001000000100
10111100010001100000000111101001
10111101101110011100011111110100
10111101001110010000011010101001
10111101011010010101010011000111
10111101111101101100000001111110
00111100001011001000001001001111
00111101010101010001000101110010
10111101101000011110010001110001
00111110000111110010011101001110
00111100110001011011010101010011
00111101010110111100000011010010
00111110000101001111000101010110
10111100111001000110010111010000
10111101111111010001001101101101
10111110010111010111000111101100
10111101101001011100010100000011
00111101001000000001110011010101
10111101010011000001001101001100
00111101000000000101000111011100
10111101011100111000011010000011
10111100101010111010000011101010
00111101101011000010011110111110
10111110011010011110110111110011
10111110100010100101101110001100
10111110011000000010000001110011
10111101100000110111110111000000
00111011000001101001100010101101
00111101011010001110101110011001
00111101010101101100010010011011
00111101011000101001110011101111
10111101010000101001100111111100
10111101101100011000100010101100
10111101101100101001010001001011
10111101110100010111000101110001
10111101100101000101000010011010
10111101010001000010110011111010
10111101010111010000100000011100
00111101000100011101110100100101
00111101000110000101111111110110
00111101000100001101101001111011
10111101010000011111101101110011
00111000010001000000110000110000
10111110001100010000100101011101
00111011100000110001010110000101
10111101101110101111100011110010
10111101100111101101100010010111
10111101100110110011011101110101
10111101111011011100100111100111
10111100011011011110110011001011
10111101100100111010000111010100
10111110010110110011101101100100
10111110101111101000101001011111
10111110100000001110111111111100
00111100110010111000100000010100
00111110001100111100111001110011
00111110000000110011001000010011
00111100101001010111010111110000
10111101101111110001110110110110
10111101111011111010111010100010
10111101111111101100110111010111
10111110010100001100001011010011
10111110001111000010001111000011
10111101100000010011111011100110
10111100101010001111111000001000
00111100011110101101001000111011
00111110001100100100000101100111
00111101011011111100111010101010
00111100100100001101010101100010
00111101101000100101001111101010
10111110000111111110000111110011
10111110010011011101011111111111
10111101110110010101100100011100
10111101011111110111100001110010
10111100101110111101000000101000
00111101001010100101110111000010
10111101011001111110011110010100
00111010001110010101010001101110
10111101010010001110111010011101
10111110010110101101010100100110
10111110000110001010100111110101
10111110011000101010101011110011
00111110001110011110111101101011
00111110001101101101010110001011
00111101101110001000100110111010
00111101111011010011000000000001
10111101110111000010110001101011
00111100110101000101111111111001
00111101011001100100101010111110
10111101100001111110011000001101
10111011101100101100000011100011
00111110000100011110001000101000
00111110010101110111110111000001
00111110011000000110000011000010
00111100001010000000111001110000
00111100101000111001010011011000
00111101111000100101101100111000
10111110001010101010001110011101
10111110001010110110001000011001
10111110000100011110001110010100
10111110000010100110010000000111
10111110001011001111010101011100
10111110001010111000100000100100
10111101100001100101010101111000
10111001101110101010110111001110
10111101110100111011000110011001
10111101100011110110010000110111
10111110001100011110011111101111
10111110000111101010101000100100
10111101011010000001001001001100
00111110010000011000010101111011
00111110001011000100001111110010
00111101001101100000101011000010
10111101111110111000101101000100
00111011111111111001101001011010
00111101001000000001110101100100
00111101010101001100111111001111
00111100100010110010110101111011
10111101001101011110101010100110
00111101100101010011010100101111
00111101110001000001110110100010
10111101011000100001010011101010
10111101010110110001000100000001
00111101001111011100110111000010
10111101011111010001111101000101
10111101101110100011000011101100
10111100011001010001001011000000
10111110100000000011011111001101
10111110100011001100011101101111
10111110010001111100011001010001
10111101010111010100100100101001
00111101101110001000101101110100
10111101110011000100100011000100
10111101111110111000100000110010
10111101101000001001101010100111
10111101101011000111001001111111
00111101100001101101111111000111
00111110011010001000100100000101
00111110010001000010001001100001
00111101111011100111001101111100
10111101001011001001101000011101
10111101100001100010001101000110
10111101000011000010011001011101
10111101010110111101101011010001
00111100001000101010000010011101
00111101100101001100000000100100
10111100001001101100110111111011
10111011101001111101001000001100
00111110001111100101000000100000
00111110010101101000101100011110
00111110010101010011010000010110
10111100011111001011000010111110
00111101000111100101100010101100
00111110001011100001000001110010
10111101110001011000010001111010
10111101111101100100100100101000
10111110010110101111011110001110
10111110100010001101101110100100
00111101010001111101001100101010
10111100000101110100110101101101
10111100111001010001110001001101
00111101111010001001010101101101
00111001100100010001000000101100
00111101100000000111000110000010
00111110001001101111100111000110
00111101000110000011100011100010
10111100111110110000101111000110
10111011010100001011111111010011
10111110000001000001110111000001
10111110000101101111110011110100
10111110010001111010000011010011
10111110000101001001010000101110
10111110001000000000011001100101
10111101010010011001001011100110
00111100110110101011011011000011
00111101111010101001101111110000
00111110001101011111101000111111
00111110101000010010111111000010
00111110000000111011100000000011
00111100000111001001100101111000
10111101100110011011001100110011
00111100101101111110001000111101
00111101010011001101011111110010
10111011011110011100000001010001
10111110000111101000110010000001
10111101111100111111011100101010
00111101110000010100010011010011
00111101110000110011100010110000
00111101110000010111100010101111
00111101100000001111000000010100
00111110001000010001111100011110
00111101101101111111010111110011
00111101101010111100100010100000
00111100110101110110110000011111
00111100110011011110010101001001
00111101001001010110011100100110
10111101101010010000011000011001
10111101100111000111010001110101
10111110011000001001000001001011
10111110000111010001111110101110
10111110000011100001101101001101
00111101000011010100010010100101
00111101100110110000011101010001
00111110001100111111100110110001
00111101101010101110000010111011
00111110101101101000011110000111
00111110010011000001011000011111
10111101100011111010000110110100
00111101001100110001100011000010
00111110000000110100100100010001
00111101111101110101101011000110
10111011101110111001111101000100
10111101011000001101010100011011
10111110010001111100000111101001
10111101010011101000011010011111
00111101110011010101101111011101
00111101110111100101011100010001
00111101101001101110100110100010
00111101111011001001010101011011
00111101011001001000000000001000
00111101101000110011110111110000
00111101100111101000000100110010
00111101111100010101101101110110
00111010101100000101001111011101
00111101001110101001011110100011
10111101101001000001011101111111
10111101000001111010010011100001
10111110000100111000101111001111
00111100101110111001111110001001
10111101011110111000100001111101
00111101010001001111101111000111
00111110000011111100001000001101
00111101000000001100001100001111
00111110000101110110000011010000
00111110010110111100001010001010
00111100100011101001101000110000
10111100001010100011011000011101
00111101100001111000100100001011
10111101000110101110100011111011
10111101110000101010111000100101
10111101001011010011010100101010
10111110001100101100100101000010
00111101001001100111010011100001
00111101010100001111100010000000
00111101110001000011101111001110
10111101001010011111000111010000
00111101111000010001001000001111
00111101001011001011000011110010
00111110001111101110001001001110
00111100110010100100001011011101
00111101111100011000001010001011
00111101001111010011110000001001
10111101000001101111110000001111
10111101101000000101001101110110
10111110000001001011100100000000
10111101100111100110111111101100
00111101100110010100111110011000
00111110010110010110011100010100
00111101100010001110111011101100
00111100110110101000010101001001
00111101111111011010011011111001
00111110100100101000110011111001
00111110000010011110011101100110
10111101101001000011100010001101
10111101110101001001000110101000
00111101010110001011101110111110
10111101100100100001100110000000
10111101101001000000010111101010
00111101000110011001100011010001
00111101010111001101111000110110
10111101100000101001110001000010
10111100000110100101111111010101
00111101111000011001011001110101
00111101111010100101101101011011
00111110001101101000100111111101
00111110010100101001111001110001
00111110000001011011000001011000
00111101111100101010000111000010
00111011001100100001100101010001
00111101000001110110100101111100
10111110001010110110000111100110
00111101001011100001111100011010
10111101110011100101110000110110
00111101010100111000100010001101
00111100101110111111111001010101
00111101101010000111100010111010
00111101001001000000001001001100
00111101110010000101010001101001
00111110100111110011110010000111
00111101111001001110100000010101
00111110000011111101111000100100
00111101100111101100100000011111
10111101100110000000110101000010
00111101100101101100111101111000
10111100101101100001110101110110
00111101001001010111111101101101
10111101101000110110110010110100
10111110000101000100111001001011
00111101010011110010110101011100
00111110000100111011110001100011
00111110011100001110110100011111
00111110000110000011011100101001
00111110100001111001011010100000
00111110010011111001111101000011
00111101110111011000100011010111
00111100100001011011110111101001
10111110000000111001100010101001
00111010101111001010110000010010
10111101100101100100111000010000
00111101010110101001101001010000
00111101111111110010010010100101
00111100110110110000010101111011
10111100011011111110101100111010
00111101111011011000110011101110
00111110001000101101101100110010
00111110010101011010100000111000
00111110100101000101011101010101
00111110001010110011100100100010
00111110001110000110111000111001
00111101001100011111000010001100
10111101111100010100011000100001
00111100001000110101101011001011
00111101001111101101110100011100
00111100110100111000101011011010
10111101100001001110101010100111
10111101011000100111001001110000
10111100010001001100100001101010
00111011111011111110011100001001
00111101110110010101011001101011
00111101111100100111101100111010
00111110000011111000011100011000
00111110001110100111001111011100
10111100101110001100001001110010
10111101000101001000101001101101
10111011110000100111100111111000
00111100111101101010001100100000
00111101101110111010000000010001
00111110001101110100110000100000
00111110000000111010010010010011
00111101000011101101110111000100
00111101111111010100010000011111
00111101000001001110000010111011
00111110011101100000111000000010
00111110001100001011100101010001
00111110101100000111111101000000
00111110011100100101101111001010
00111101101011010111001010001101
00111101001010111011100010001100
10111101010110110100000000010010
00111100000100010110001000001000
00111101100000011010001101110110
10111100100010111010000000010111
00111011111001000111001010010001
00111010001011110011110001000101
10111100111101010111010011101011
10111101100101010110011000000101
00111101111100011000111011001100
00111101110101010100011110000001
00111101111110111111011000110100
00111101011110000101001001110110
10111101110110101110100011100110
10111101111011101010001001001011
10111101100111011111010101010101
10111100111101110000010111001010
00111101000001111110110010110001
00111110000110000101001000010111
00111101000111010011101011111011
10111011111001111110000110010110
00111100000101010001111101010100
00111101110001011001001111011010
00111101011000010100010100001110
00111110010011001101000100111010
00111110100100010010011010110111
00111101111000101110101100100110
10111100100110110110101100110010
00111101100010011000110011101001
10111100010000110011101011111000
10111101100101101010100001111111
10111010011000100111101010100111
00111101001110011101000000011101
00111110010001001011010110000011
00111101011101011011000011001101
10111100101110111110110001010011
10111101110001010011011111011110
10110110011110111101111111011000
00111100110110111101100010010010
10111101001100000100110101010101
10111110000101111000011101101101
10111110001010111100101100011011
10111110100001000111000001110101
10111110101001000001101010100100
10111110100010001000011001101000
10111101101100110000110100011011
10111101100101011011011010100111
00111101110110000010100111001110
00111101000000000110101101111010
00111110000100001100110111010010
00111101011000110110000001100100
00111100101100010111001010110011
00111101111110000001111000001100
00111110010000001001000100100010
00111110001010011010010000011001
00111101100110100000110011011001
10111100111110000000000010101101
10111100011111111101001011100111
10111101001110100100111101100000
10111101110110110010000111101110
10111100011000110010010110011000
00111101101100000001001010110000
00111101001011111110101001100101
00111100101110101001011101001111
10111101010010001111000110110100
10111101111100001011110100111011
10111101110000101010001010101100
10111101001011111100111101001110
10111110001011111101011011001001
10111101101111010001010101000101
10111110000011010110111101011101
10111110101010101001011010111011
10111110011110101100100011000011
10111110100011110001000010011110
10111101101110000001001000101000
10111101101011100111101011010101
10111100000011000111101100100011
00111100001010010101110111100111
00111011000100001000101110001001
00111101001101111101101001110010
00111101111111111111111001010011
00111101111110011010111011010000
00111110000010001010110101111110
10111101100000011101011110111111
10111101100001101000010101110101
10111101011000010110010001000000
10111101000100011100110100011010
10111101101101100011001111100001
10111101011100000111001110111000
10111100000001011111001000000000
10111101011110101110100011111110
00111101101110100000110111100111
10111101110101001011100001100110
10111110010111000100101001101101
10111101110000110000011010111001
10111100000111011111010111000010
00111100100010110111010111111011
10111101111101000110100111100000
10111110010000010100111111100000
10111110101101000100100111110010
10111110101011011010111101101000
10111110100111110101010111110011
10111110110001011110110100011101
10111110100100011111110101011011
10111110000111001111001110100101
10111101001000010010111000100101
00111100100011111010001010111011
10111011110110110000110100111010
00111101010001110001000011110101
00111101100000101010100011010110
00111110010111001000010011111011
00111101011001010111000111110110
00111100100111001010101011011100
10111101001000111110100110111100
10111100110000100100000100101001
10111101101010000110001101000110
10111110000000001000010110000001
10111101101011001010010001001100
10111100111101010110010010010101
10111110000110001000001010101011
10111101100110011001011010010000
10111101111101110000011011011011
10111110000010000010101110011001
10111110000101001111000111110101
10111110000001110000011000000011
00111100001001110101000110111101
10111101101111111111000010011000
10111110010100011000101011000000
10111110101001100010111111110101
10111110101000101101100110001011
10111110100001011101000001101001
10111110010110101011001010100001
10111110000111101011011101000000
00111100111011111011110100010001
10111101000000101001100000110001
10111101100011011100110011001011
00111101000011001000000111101100
00111101100100101110000110011001
00111101001011000000001011010110
10111100111011100001110111010010
00111101100101110100111001011111
00111101011100010000011010011110
10111100010010101001011001100110
00111101110010100100000110011111
00111110100001000010101000000100
00111101101001110000001001010110
00111101100111100010101111011010
10111101101110000101100111001111
10111101000101101011110111001011
10111110000110001000010100101101
10111100111011010110011100111011
00111101010010100101011101100100
00111101110001110111100110110001
00111101100010101100101011001100
10111101101001100001011110101110
10111100110100010100011011100011
10111101001010100010110000111000
10111100100010100000000100101001
10111110001110111110010100101101
10111110101000110010100101110111
10111110001100100011111101101011
00111101011001010100011111110101
00111110001111010010101000110001
00111101010101101100000111110000
00111110000000001011100111101011
00111101110111111101101011110000
00111101111010100011011011011111
10111101100001101110011000100111
00111101010101111000101000110110
10111101001110000010101110011011
10111100111001010010001100010000
10111101000010110111101111011101
10111110000101101100110110011111
10111100101101100100101110100100
10111110000110111001100000001010
10111101000100101001111101101111
10111101101011111100101110101000
10111101010111111011101000101110
10111011100011000110111100100111
00111101010011011111110111001001
10111101110101110110011011111111
10111101101000111111100100111100
10111101000101011001010010100011
10111110000001111110111110010100
10111110011000000011110001100001
10111110001000000010010110100001
10111110000101111110000011101111
10111110000100000000110011011001
10111101111100010100001111100101
10111101010000011101110011001110
00111101111011001111111000100001
00111100010010001100000111101011
10111101101010101101000100111101
10111011111010111001000000010000
00111100011000001010011010010000
10111101011010111101100010111110
10111100111100011000000011010000
10111101100111011001010101101010
10111101010011011100011100001110
10111101101001011110111100011100
00111110000001110010100110110011
00111011010111001011010011011001
10111100001111100000000100111000
00111010111100111011100001010011
10111101000001100011110000100001
10111011111011100000100100111000
00111100110001001110110111001011
10111101111110010110010000000100
00111100011000000111011010010001
10111101111101011111100101100111
00111100110111100001101111101001
00111100111101101101111110011011
00111101010011111011011110100011
10111101111001100110010111110110
10111101010111110101100101111011
10111101110100000001110001001001
10111101101110000111011001001001
00111001010100001110001111101001
00111101110100101100000000011100
00111110000001010011100010010000
00111101001111111100001011110110
00111101001101000100110011000010
00111101001111001010110101001110
10111101001110110010001110101101
